#version: 0.2
l a
Ġ k
o n
Ġ la
Ġ e
t a
Ġ p
Ġ d
o j
a n
i s
a j
e r
Ġd e
Ġ s
e n
i n
Ġ a
o r
Ġ m
l i
t i
a s
a r
Ġ n
r e
t o
Ġk aj
Ä Ŀ
r o
r i
Ġe s
t e
u n
Ä ī
Ġe n
Ġ v
Å Ń
Ġ f
r a
o m
l e
c i
Ġk i
ta s
l o
Ġa l
a m
Ġ t
a l
Ġ ti
Ġ Äī
t oj
d o
u r
Ġes tas
e l
k a
e s
i o
Ġn e
Ġ i
Ġ re
Ġ b
t is
Ġ in
Ġ h
Ġv i
Ġ K
Ġ L
d i
Ġ E
oj n
Ġk on
Ġp o
â Ģ
Å Ŀ
Ġm i
p er
Ġp or
ta j
k o
Ġ li
Ġ S
t er
u l
Ġ j
Ġ g
i g
Ġ (
u m
Ġ M
u j
Ġ an
Ġ o
Ġp ro
Ġ A
d a
Ġ 1
v i
Ġ ÄĿ
r an
Ġs e
Ġm al
Ġ P
u s
k s
ĠÄī i
Ġ l
aj n
d e
Ġk e
Ġp ri
v o
Ġk un
Ġp er
v as
Ġs i
p o
Ġ T
Ġe l
s t
Ä µ
k on
v a
i ta
e m
ĠL a
t u
Ġ ÅĿ
c o
in g
t on
Ġes tis
la n
r u
m o
per an
Ġ âĢ
Ġs u
d on
z i
Ġ N
Ġk om
p e
Ġa ÅŃ
ta n
Ġ B
Ġd i
Ġki u
Ġ 2
o s
la s
Ġp li
d u
Ġ D
l u
Ġ V
i a
ar o
Ġ I
Ġ te
i ÄĿ
Ġ un
c e
a ÅŃ
Ġki el
Ġin ter
g i
Ġe k
Ġp re
ka ÅŃ
Ġ ri
Ġ Ä
ĠE s
v e
r en
a ci
on i
Ġi li
t en
Ġun u
Ġ F
m a
L a
Ġn i
Ġ R
r is
e b
Ġti u
g o
t ra
i l
Ġa li
Ġf or
Ġ G
u z
e k
Ġse d
Ġs en
d is
Ġd is
ĠEs peran
k i
in o
Ġm on
ĠÄī e
Ġh a
m an
Ġ "
Ġ J
p on
o l
m i
f i
Ġ c
g a
v er
Ġ H
0 0
t r
p a
v is
ĠÄĿ i
ta ÅŃ
m e
Ġs ur
Ġ oni
Ġv er
. .
t ri
Ġf ar
Ġ U
Ġki uj
j o
f er
b o
Ġ1 9
n i
Ġk a
toj n
t ro
e d
a la
di Äī
Ġ C
v en
m en
t or
Ġl ing
ÄĿ o
Ġp ar
Ġa p
Ġa r
p i
a Äµ
b le
d oj
Ġ -
Ġ ta
Ġd u
le j
Ġp a
Ġ or
Ġan kaÅŃ
Ġla ÅŃ
Ġt ra
Ġ uz
Ġpo vas
on o
v an
l oj
Ġti o
s o
p ren
z o
Ġd a
k u
g an
ĠEsperan to
ci o
Ġn o
ĠM i
Ġp lej
Ġn om
b or
Ġt u
ĠV i
Ġn ur
ĠÄ Ī
a ta
Ġh om
d an
f or
Ġkon s
Ġm ul
a do
Ġj ar
Ġ lo
Ġ O
k aj
Ġ 3
Ġsu b
k ti
Ġb on
n o
Ġt ro
Ġm em
Ġek z
g is
) .
b ro
ÄĿ is
ĠÅĿ i
l on
Ġd um
k e
d en
k oj
ĠL i
er o
k to
Ġg ran
Ġ ra
Ġ le
la j
ĠE n
ar a
Ġpo st
Ġan taÅŃ
Ġre s
u b
r oj
er n
d as
âĢ Ŀ
Ġe ks
Ġm e
g ra
ul oj
ka z
g e
Ġm an
b u
re s
k ri
Ġm in
m p
k is
ver s
Ġm a
m on
Ġp l
Ġv en
r as
i lo
) ,
c h
ĠT i
Ġs am
c a
m es
r on
0 1
en i
eb las
kon diÄī
Ġt re
Ġa k
Ġla n
b er
Ġha vas
a b
c on
Ġn un
ĠÄīi uj
ig i
v oj
Ġ :
s ta
Ġes t
li o
en to
e j
Ġm o
s i
Ġo kaz
st ru
p an
aÄµ o
Ġ ur
Ġj am
Ġs ci
or o
Ġki am
Ġes peran
Ġs o
li k
r in
d aj
Ġo l
ÄĿ as
Ġs in
ĠN e
Ġe ble
Ġg ra
c es
ĠK om
ĠÄī ar
ĠâĢ Ķ
Ġs ta
Ġ Â
ľ i
Ġti uj
iÄĿ is
Ġd o
l in
Ġk o
ti ko
taj n
ĠâĢ ľ
Ġk u
Ġsi a
ĠA n
Ġla bor
Ġkon tra
r aj
Ġal don
ĠÄĿ is
Ġte m
p or
ti ta
Ġj e
k ta
ĠÄĿ in
te m
Ġling vo
.. .
Ġb e
p ar
Ġte ks
Ġk re
Ġv or
is to
Ġes ti
Ġkom en
g as
tri bu
z a
ĠI n
u lo
Ġv o
Ġs er
Ġ2 01
ĠK aj
t ur
v aj
Ġali aj
Ġm or
p u
h a
Ġp en
z e
Ġse k
Ġf a
p ro
ks i
Ġper mes
Ġk el
an te
am en
ï ¿
kri b
ï¿ ½
in a
Ġkontra ÅŃ
ĠÄīe f
z on
p re
Ġn eni
ĠK i
to s
k ci
Ġf i
an o
g ar
m oj
Ġt ran
Ġkom un
Ġpar to
k or
Ġt ri
s on
Ġp aro
Ġ [
Ġs pe
Ġjar oj
b a
um o
an oj
Ġf in
Ġti e
i te
Ġe Äī
a le
Ġti el
er man
an toj
Ġa m
an ta
Ġt er
n a
Ġpo s
t re
e jo
Äµ o
p en
Ġe le
u zi
Ġ2 00
e t
Ġ 4
v in
ĠS ed
Ġk or
g oj
t in
p le
Ġo f
Ġde ta
v on
ĠâĢ ĵ
aci a
Ġ W
Ġdis pon
Ġmi a
ĠS e
Ġkon diÄī
Ġsi an
b on
c en
Ġteks to
ĠÄīi u
Ġpl en
Ġ ro
Ä ¥
z en
is toj
k ul
c oj
lan do
Ġb a
Ġde vas
ĠKom un
Ġ Å
re a
ÄĿ i
l ing
ĠK on
Ġhom oj
Ġ ci
Ġmi li
Ġe b
Ġ 5
Ġin f
a li
Ġekz is
Ġm ar
v ar
E n
d io
da p
Ġp lu
ĠP o
ĠN i
ĠkondiÄī oj
i r
k as
Ġunu a
ÅŃ ro
Äµ oj
ĠÄ ľi
p l
Ġki un
Ġ Z
Ġh is
m in
tu ro
ÄĿ oj
gan i
ce p
Äī e
Ġki e
Ġ1 8
en er
Ġpermes ilo
k om
Ġin K
g u
Ġdeta loj
Ġa per
Ġtra du
ĠVi du
i t
Ġd on
Ġs ig
h o
vo lu
Ġi om
Ġ |
Ġur bo
Ġap lik
ig is
is mo
Ġp as
Ġmul taj
Ġdi vers
k an
S am
ĠÂ «
Ġti un
oj e
Ġli a
Ġki o
Ġp e
d er
Ġl in
p ri
Ġar tiko
ĠK rea
ĠKomun aÄµo
tribu ite
t ing
Ġn ia
ta ro
kondiÄī e
u d
ĠM ar
om o
Ġin for
Ġtran s
Ġgran da
Ġap ar
dap tita
Ġh el
e o
i er
Ġj un
Ġf on
Ġf ra
Ġaldon aj
ĠA tribuite
Sam kondiÄīe
kondiÄī ojn
Ġdispon eblas
Ġc er
ti o
ĠNe a
k te
Ġuz kondiÄīojn
g io
ĠNea daptita
Ġaplik eblas
Ġn a
Ġmal s
Ġtro vi
g on
Ġk an
Ġkom pren
ci a
p li
Ġk la
Ġj aro
ter n
Ġa fer
s e
Ġj a
Ġ ce
å Į
ç ¤
Ġan kor
c is
ç¤ ¼
åĮ ħ
Ġmon do
ç¤¼ åĮħ
Ġti on
âĢ ¦
ç¤¼åĮħ ç¤¼åĮħ
ĠR e
Ġtu te
n u
am i
Ġl ern
Ġpo v
M i
ĠÄī u
Ä Ī
in i
Ġdi ris
Ġl on
b e
1 9
Ġpo li
Ġin s
f a
ig o
Ġpos te
p oj
a d
or i
Ġf un
Ġm ala
Ġti am
Â »
Ġj u
Ġinter n
Ġi lin
Ġk ul
ÄĿ a
Ġv in
Ġri ce
Ġv oj
Ġl u
Ã ¡
f o
k la
Ġor gani
Ġp ub
Ġta men
h i
ti ka
Ġ ren
ĠâĢ ¢
ĠA l
Ġi u
ÄĿ on
âĢ Ķ
Ġbon e
Ġes tos
s er
iÄĿ as
u x
b i
Ġan g
Ġa ten
tem pe
er i
Ġres pon
Ġankor aÅŃ
Ġli ber
Ġkel kaj
t p
Ġf il
Ġvi a
k ces
Ġri la
l is
e co
Ġtem po
Ġs krib
Ġsu per
Ġali a
Ġno va
e to
ĠÄīi r
r us
ĠÄĪ i
w a
ĠÅĿ an
Ġmul te
Ġde man
Ġd an
ĠM a
Ġ 6
tis toj
tor o
en o
u o
Ġparto pren
vo s
d ojn
g ran
Ġs a
Ġhis tor
Ġpro f
h e
ĠÄīir kaÅŃ
Ġekz em
d in
Ġa d
Ġkon stru
Ġeks ter
e lo
Ġn or
ĠÄīi am
k am
Ġof te
Ġekzis tas
Ġinter es
Ġlo ÄĿ
Ġi de
Ġk ri
an to
Ġsig ni
Ġtu ta
Ġspe ci
Ã ©
u ti
g ita
as k
Ġm en
i taj
b la
ig as
Ġpro gra
Ġlan do
Ġha vis
Ġv ar
Ġ raj
ĠÅĿ ta
i m
Ġre z
Ġp ra
Ġp lan
Ġd aÅŃ
Ġpen s
Ġs an
Ġpre s
uj o
Ġper son
m is
z io
Ġpro p
t ran
" .
re so
b roj
s pe
ĠP or
Ġin di
ĠF ran
m as
Ġpre zen
Ġsu kces
la bor
va do
Ġre gis
Ġ ajn
Ġin stru
ti gi
in e
Äī o
k lu
Ġc en
f ek
E A
aci o
ĠP a
x i
Ġ Äµ
Ġde ci
ig ita
Ġ 7
g en
Ġg ru
Ġvo las
f oje
Ġk ro
ĠI li
Ġv ol
m ar
Ġpro ksi
te co
Ġri gar
Ġp i
" ,
v or
âĢ ľ
ĠE k
Ġo fi
a lo
i on
tr oj
an t
a t
e li
g res
Ġk va
g n
m aj
aÄµ oj
in ta
Ġ 8
Ġmal f
Ġsi aj
Ġk ol
Ġde v
Ġa ting
Ġvi vo
Ġka p
k ur
Ġn u
Ġpo po
Ġokaz is
b oj
k ojn
Ġfar i
Ġs ol
Ġs tu
Ġpro du
ĠE ÅŃro
Ġbe zon
s ono
is te
fer en
wa ve
ta do
Ġsi tu
Ġno v
ĠP ro
Ġsu fi
m ul
Ġg erman
Ġa mi
s en
Ġre gi
um en
Ġo b
on oj
Ġkons i
ĠA r
Ġ 9
Ġpl ur
Ġdivers aj
m ojn
z oj
Ġf ran
ĠM on
van kam
Ġren kon
Ġf o
Ġling voj
Ġk am
Ġo p
ala j
tu ra
u ro
Ġh o
Ġsi mp
k toj
ĠÄ ľ
Ġne ces
k ra
am a
iÄĿ o
ĠÄĪ u
ci oj
Ġt ur
p aro
an a
Ġ ï¿½
k ajn
ĠN o
ga do
e c
ki pe
ĠT io
dan to
Ġk ur
g reso
en a
Ġlan doj
ĠD io
Ġv es
z or
u t
kci den
Ġde zi
Ġsigni f
ĠâĢ ŀ
Ġku ti
l ojn
Ġra pi
a taj
ter a
t ru
p as
eb le
Ġ1 5
Ġki on
l or
on a
te jo
ĠS an
Ġen ha
ĠP ar
ĠK a
er e
n e
Ġg e
s a
. [
Ġkiuj n
ar e
Ġne k
i ero
E s
Ġm uzi
Ġpre ci
c ento
da ÅŃ
g aj
ti on
Ġ19 9
ita to
l er
ĠÅ ľ
ĠTi u
ka do
li gi
b r
Ġki es
ri o
Ġel don
Ġso ci
c aj
Ġk ar
Ġartiko lo
ĠM e
Ġk var
ĠU EA
eb la
Ġvi an
Ġfar is
Ġf lu
Ġsi mi
ĠÅĿ ajn
in io
ĠD o
ita n
Ġhom o
Ġorgani z
Ġ ru
Ġmal pli
es to
Ġ1 0
k t
Ġv e
vo l
roj ek
Ġnom o
Ġ Ã
Ġ Ġ
ĠU nu
Ġest us
Ġla s
Ġ1 7
Ġpro pon
di ta
Ġpro ble
Ġf ami
Ġak cep
Ġf aci
ĠG erman
ĠD e
el oj
ĠS o
em bro
Ġbon a
ĠJ a
Ġsci as
Ġti a
Ġun i
ti tu
00 0
Äī i
ĠO ni
t ino
il oj
Ġt uj
Ġtu t
K O
Ġang la
Ġfun kci
ĠÄĿ ener
Ġe d
Ġpov us
al oj
ven o
ĠA ÅŃ
Ġg vi
ĠL e
K i
ĠJ o
Ġsi ajn
ĠM al
Ġa b
Ġmal gran
ĠU ni
Ġpres kaÅŃ
Ġra kon
min is
Ġele k
am o
Ġes pri
ks o
ĠT amen
Ġpre zi
di aÅŃ
Ġkonsi der
an g
tr as
l en
Ġvi zi
Ġjar cento
Ġb il
u la
Ġor ig
ĠÄĿ us
Ġ to
ĠÄĿ ia
ĠPo st
âĢ Ļ
ko v
Ġsci en
Ġek de
Ġti es
Ġpo vis
Ġ uzi
ed er
Ġj en
w w
Ġekzem ple
ĠD um
tis to
ĠR o
T i
j ek
Ġk tp
men to
Ġb i
g x
Ġb lo
Ġ1 6
Ġko le
Ġ1 2
te s
Ġp rin
Ġde k
p is
Ġneni am
li ko
Ġv al
Ġb ata
Ġf ilo
Ġvi r
ter i
Ġf ru
Ġs iste
ç¤¼åĮħç¤¼åĮħ ç¤¼åĮħç¤¼åĮħ
c er
Ġf er
Ġ2 0
Ġt en
in oj
Ġe volu
Ġku ra
Ġa kti
pa b
c as
b ar
sta taÅŃ
Ġk res
Ġo ku
ri ta
Äµ ojn
v u
Ġn ask
Ġmon a
Ġtrovi ÄĿas
Ġf lan
Ġh ej
Ġp ren
Ġsub ten
ter o
Ġes tu
ci on
ti k
m ajn
Ġi m
Ġrez ul
t h
Ġp ris
ĠÄĪ e
pan io
t um
kon om
ti ve
g us
tan te
li ka
er oj
Ġ1 4
Ġti om
Ġp u
Ġuz as
ÅĿ i
Ġver e
ĠÅ ľi
de k
f ri
vi ta
ĠIn ter
ĠS a
an d
Ġesperan to
or oj
1 8
di a
ĠS i
s io
Ġs pi
Ġn aci
un o
Ġsam e
Ġ .
b ur
Ġdu a
z is
Ġ ,
ĠB a
Ġdis ku
ling va
Ġesperan tistoj
Ġ â
el on
Ġli bro
g es
Ã Ń
Ġop ini
in te
b aÅŃ
Ġk aÅŃ
Ġp la
Ġ uti
ĠD i
in taj
Ġapar ten
Ġs per
Ġ1 3
Ġpub lik
ĠJ es
Äī a
re k
Ġ /
KO KO
so cio
te g
iÄĿ i
Ġe vi
laj n
un a
um i
Ġintern acia
Ġp rojek
Ġsam a
an taj
or a
Ġd om
Ġdo k
Ġneni u
z aÅŃ
Ġmal fer
L i
ĠÄī io
Ġk vankam
f ar
âĢĿ .
Ġvor toj
ÅĿ o
Ġkomun umo
Ġpa tr
ĠE l
Ġdi f
d us
kipe dio
f on
1 0
amen ho
em o
Ġdi ras
en ta
Ġan stataÅŃ
ĠUni vers
Ġn in
Ġmalf aci
v io
is t
Ġde f
or d
Ġam as
Ġdis vol
ro s
c k
1 2
Ġ '
Ġk ara
Ġm aj
Ġvor to
Ġin klu
kis to
lo gio
ĠÄīiuj n
Ġili a
Ġling von
Ġkon du
a ÄĿ
Ġ rus
ĠU sono
ĠC h
Ã ³
Ġkon tro
Ġs tra
Ġd os
Ġes pl
v ojn
ĠS u
Ġfar e
Ġvi d
um e
no ve
k vi
li to
j a
Ġmo d
Ġse p
Ġvi la
Ġafer o
Ġven is
li ta
Ġrenkon ti
Ġk las
Ġs on
A n
k ton
m al
Ġl er
am e
Ġofi ci
Ġkon f
Ġkva zaÅŃ
ĠB o
Ġb o
ÄĪ i
Ġkomen cis
Ġm is
] .
Ġgra va
Ġaper is
ti gis
lo gi
Ġde nove
Ġeb las
ĠP er
âĢĿ ,
ĠL u
te ma
k ita
Ġa ran
Ġkla ri
in t
Ġta go
r un
Ġpoli ti
ti taj
Ġ us
Ġgran d
Ġ19 8
Ġre g
Ġla sta
Ġmem or
ris to
lo s
peran to
er a
Ġe konom
le ks
g ojn
es tro
Ġka pab
al is
ko s
Ġpa tro
ĠKi am
ĠM o
f lu
ĠEsperan ton
Ġlabor o
ti lo
Ġes per
e le
Ġlo ko
Ġre da
ti va
Ġmi an
Ġri mar
Ġmal bon
ĠÅĿ a
c an
Ġde n
Ġb u
ĠK ro
ĠÂ »
s kul
pan a
en e
Ġkun e
k uloj
g os
an u
ĠÄīef e
Ġ ;
Ġhistor io
k io
Ġkun labor
Ġte le
Ġni aj
ĠK o
Ġe ven
Ġrice vis
Ġmal no
Ġtra di
i oj
Ġali an
c ojn
Ġkom ple
ĠVi kipedio
Ġi uj
p ub
un i
do s
ĠR us
Ġver sio
Ġ 0
ĠZ amenho
k tas
Ġam baÅŃ
Ġkro m
Ġpra kti
Ġb al
Ġsiste mo
n om
ven is
Ġprof es
po zi
Ġk vin
Ġvi v
s ki
Ġsi m
li a
' s
b ron
Ġap ud
ĠEÅŃro po
g ia
ajn e
Ġh on
Ġk al
Ġri ver
ej oj
ĠH o
gra f
p aj
ĠGerman io
re m
Ġpo ten
c x
s tan
or e
Ġi on
ĠD u
pre zen
Ġmul t
om en
Ġg a
Ġ ...
ĠN a
I n
z as
Ġor i
Ġ Ð
ar d
ĠJ u
Ġgru po
V i
c ern
ĠT o
te lo
Ġkons is
ĠIn tern
Ġrapi de
Ġed z
S e
ur bo
Ġli aj
Ġc xi
ĠP ol
ĠKi el
Ġ1 1
Ġfran ca
Ġi am
Ġs al
Äµ on
ĠH is
Ġvi dis
Ġgran dan
N i
Ġmon d
Ġre tejo
a k
Ġa ki
Ġplur aj
Ġal ta
Ġe r
E S
Ġg as
Ġuni vers
ĠH a
Ā Ā
Ġd or
ĠR a
men aÅŃ
Ġha v
Ġkom er
Ġci vi
Ġregi ono
Ġfar as
per i
Ã ¼
Ġdi r
Ġa spe
e la
Ġdi ri
Ġtem as
Ġgran daj
. "
ĠI s
ĠE tern
Ġtiuj n
tor io
Ġho diaÅŃ
Ġen i
ĠJ en
tan ta
P o
s ek
ĠP ri
Ġvi di
Ġe fi
ĠP e
Ġmili to
ĠV er
ĠT a
Ġgerman a
Ġpro vi
Ġkons er
Ġsignif as
ĠLa ÅŃ
ton o
Ġk ris
ar an
Ġak vo
Ġo kciden
lon g
Ġb ri
Ġp un
Ġra di
ti ÄĿis
v al
Ġpreci pe
Ġsufi Äīe
ĠK ar
e g
Ġe li
Ġkel kajn
Ġre t
j or
Ġkon ata
kon du
Ġin ten
Ġali ajn
Ġvo Äī
Ġokaz as
p lo
u ra
Ġkomun i
Ġli tera
ĠEs tas
ti gas
ĠZamenho f
Ġ on
a don
Ġ19 7
f lan
Ġra por
q u
f e
Ġmi l
Ġm as
de pen
j oj
g h
j ara
par te
re ta
Ġh un
Ġvi de
k ar
Ġe fek
Ġmul tajn
ul ojn
ÅĿ an
van ta
Ġkon cern
da do
Ġinf lu
ĠA m
Ġ19 4
Ġno vaj
Ġ19 3
Ġbezon as
Ġte mp
Ġcer te
kta do
Ġme z
Ġmen ci
Ġse majn
h el
Ġi mp
p ra
st ra
Ġkon gres
Ġpris krib
Ġf la
ks a
tr on
po s
Ġfar iÄĿis
Ġb an
ĠR i
tan o
Ġme di
Ġpre fer
ci en
s u
n ab
ĠEtern ulo
Ġc x
A T
Ġdis tri
1 5
z er
in to
tan toj
Ġno van
z em
Ġter i
Ġintern aci
le s
ĠR es
ĠP re
ul ino
Ġkuti me
an tojn
Ġi ÄĿis
Ġproksi m
Ġ io
Ġal menaÅŃ
Ġre prezen
ÄĿ ojn
ĠÄī am
ĠaÅŃ to
ig a
Ġta goj
Ġvi rin
Ġide o
ĠJo h
b lo
Ġk ru
2 0
b io
Ġves per
igi taj
j oro
Ġmon tri
Ġser Äī
ri lo
Ġde c
Ġres pe
Ġf oj
Ġper e
1 7
Ġf en
k tis
Ġinf anoj
Ġperson oj
Ġ Y
Ġmal mul
in on
Ġga ze
ĠÄĿus te
Ġmi aj
Ġe ÅŃro
Ġsimp le
pu la
Ġkomen ci
Ġti al
tan oj
Ġ ?
i aj
Ġ X
Ġunu e
om a
Ġ19 6
d re
Ġs es
ĠFran cio
Ġfor mo
pro ksi
ĠAn kaÅŃ
vi du
Ġan ka
/ /
k lo
i d
Ġfaci le
t tp
Ġf ino
E J
ku to
P or
Ġb lan
Ġvi za
ĠS ek
g ru
Ġ zor
Ġnom bro
t s
Ġprof un
Ġ2 5
ĠF a
Ġb ru
: //
Ġor don
Ġv as
ĠÄĪ inio
Ġ3 0
Ġtro vis
Ġele kti
Ġmem broj
ĠO r
t ris
Ġili aj
Ġper io
Ġkara k
j on
l us
b lio
t us
Ġsu po
d am
E R
om e
la do
Ġprezi danto
Ġki al
Ġa re
Ġafer oj
ar on
ĠA li
ĠN un
Ġde kla
Ġad minis
r ajn
Ġkon tribu
Ġfin e
ĠSan kta
ti go
Ġ tas
i e
Ġprop ra
Ġa g
Ġdu on
ĠÄīef a
Ġkul tur
ĠaÅŃ skul
Ġha vi
Ġmo vado
Ġmon tras
lan da
Ġman ÄĿ
p un
Ġpopo lo
Ġsta ri
b laj
ĠaÅŃ tor
o v
s oj
Ġdev us
Ġfami lio
ĠS in
dan te
Ġtu tan
Ġm ur
Ġregis taro
Ġde vis
Ġinklu zi
1 1
Ġes tr
Ġn ig
âĢ ĵ
Ġparo las
Ġfi r
ar oj
Ġte k
ĠD an
Ġlon ga
ĠK un
Ã ¶
Ġdi feren
de co
Ġk os
ĠG o
per a
ĠIntern acia
Ġkon ta
Ġaper as
ÅĿ is
Ġba z
da Äµo
Ġvoj a
Ġes ton
ta l
m ita
w i
Ġli an
Ġmor tis
b ri
ĠÄĿ oj
m em
Ġce lo
z ono
le co
Ġa ta
Ġmor to
1 4
Ġar me
ĠÅĿta to
Ġn en
ul on
a to
Ġti to
T O
j u
Ġre ÄĿo
Ġd omo
Ġnom e
ĠS en
kom en
es ta
Ġni an
Ġprogra mo
ĠC en
aci oj
Ġsen depen
ĠÅĿ ia
Ġlon ge
Ġko v
b ra
Ġmal j
Ġdon is
d ra
Ġpro vin
st r
Ġinf an
ÄĿ aj
is ta
Ġdec embro
Ġan ta
Ġki om
Ġb ra
Ġuz ata
or io
Ġf eli
Ġkom pu
Ġ ras
or g
vi a
Ġk nab
po ko
um a
t n
ĠPol lando
b an
i an
ten o
' t
Ġdos ier
Ġti aj
ĠU n
1 6
Ġpli bon
Ġ19 5
a g
Ġsu fer
Ġle gi
v ajn
c om
į ã
Ġa Äīe
os te
ta lo
ĠN or
Ġ =
ĠB ri
ĠĠ ĠĠ
Ġli m
Ġpro te
Ġunu an
1 3
Ġre gu
ĠB er
Ġnom on
Ġmod ern
ter e
lo va
Ĩ įã
es t
Ġp ru
s krib
ĠantaÅŃ e
re to
ĠK an
Ġser io
Ġpo pula
ta la
Ġn um
Ġf u
Â Ń
Ĩįã Ĩįã
Ġfa kte
d or
Ġa ser
Ġpre par
e ks
ti a
Ġb ir
Ġa u
Ġ2 4
Ġfin an
h is
pub liko
Ġk lo
m io
v uo
Ġmalgran da
Ġm es
um oj
Ġpo vos
f oj
te l
k re
Ġli gi
Ġvi das
ĠJ e
ve lo
ĠB on
2 01
f ra
ĠÅĿan ÄĿ
ka de
Ġespl or
Ti u
k un
ww w
. )
b as
z ar
Ġe du
- -
Ġvi aj
ĠB i
ÅĿ ajne
Ġkon greso
gus to
Ġ is
m or
ĠÅĿ in
ĠÄīi on
ĠG ran
Ġg ener
Ġuz o
kis toj
Ġ1 00
Ġf rem
in d
Ġta g
S ed
am aj
Ġla r
Ġob jek
Ġen e
ig u
Ġfor las
ĠL o
Ġte mo
Ġpre le
Ġmem bro
Ġaparten as
tre pren
Ġ taÅŃ
is i
Ġpre ÄĿ
gra ÅŃ
Ġsam tempe
Ġro man
Ġdezi ras
Ġsukces is
dus tri
ĠAn taÅŃ
il on
Ġvoj o
t un
Ð °
b las
Po st
Ġmals u
Es peranto
k in
ç¤¼åĮħç¤¼åĮħç¤¼åĮħç¤¼åĮħ ç¤¼åĮħç¤¼åĮħç¤¼åĮħç¤¼åĮħ
per mes
Ġh al
D um
ĠD a
Ġdi re
ĠJes uo
Ġ r
ta r
Ġs tre
Ġdis vas
ĠNo v
Ġdi vi
zem ple
ĠÄĪ ar
I N
Å Ĥ
le zio
Ġre a
N e
Ġa s
ĠTi am
em a
Ġevi den
ÅĿ a
Ġe m
di ÄĿis
ven as
Ġfor ges
ĠÄĿener ale
l ern
Ġo kul
K aj
Ġ19 2
v ig
kaz e
Ġpa ÄĿo
Ġmon o
Ġsitu as
Ġver ko
' m
Ġf es
Ġso la
Ġnun a
Ð ¾
Ġs tran
dan toj
Ġres tis
ÄĿ e
Ġre kon
e a
Ġk m
Ġka to
is ma
mo kra
f ine
Ġen tu
m u
Ġlo kon
Ġesperan tis
Ġbal daÅŃ
Ġpo la
Ġklo po
ĠS er
d ajn
ĠTi al
. âĢĿ
ka to
um on
ĠB ra
Ġdef en
Ġh ttp
flan ke
li gas
Ġa po
Ġman iero
Ġi a
ta Äµo
Ġk as
Ġdeci dis
Ġspi ri
Ġparo li
Ġmal kov
Ġfami li
um an
anu aro
ĠF o
ĠÄīe es
Ġunu aj
z an
ĠKon greso
Ġob ser
Ġh or
i ko
Ġme to
Ġri f
ĠS ur
Ġkel k
Ġe ga
Ġprin ci
Ġf oje
graf io
Ġgra vaj
Ġci r
Ġk li
Ġhom ojn
ti ÄĿo
aÄµ ojn
Ġver koj
aÄµ on
Ġa gado
Ġdon a
ti gita
Ġenha vas
k tan
Ġc hi
ĠEÅŃro pa
Ġpo zi
de ks
ÄĿ os
tru k
Ġri me
men toj
Ġpartopren is
e z
Ġen trepren
Ġplen um
br ojn
ĠdaÅŃ re
Ġv a
en t
Ġo fer
Ġjar ojn
ĠD is
ur n
Ġmal lon
p h
kto bro
ĠH un
ig n
Ġres tas
Ġfilo zo
Ġt ero
Ġdon as
Ġf aj
b el
ĠTi el
er on
ĠdaÅŃ ri
gan te
Ġkomen c
ĠK risto
la ÅŃ
Ġkomen co
Ġde s
Ġ201 6
Ġre li
tr um
A N
Å ľ
in s
ĠT ra
ĠU K
Ġt ru
umen toj
Ġpo ÅĿ
k tojn
Ġneces as
kri bo
ĠB u
Ġ w
Ġju lio
al on
Ġkom par
ĠEsperan ta
pen s
Ġa ga
Ġi ma
tu ri
ta Äµoj
' d
Ġbe la
Ġ201 7
Ġver a
Ġi ris
g le
u re
KOKO KOKO
Ġkre i
Ġtut mon
Ġdis ting
Ġvol is
Ġoku p
u ri
Ġin vi
st ro
K on
Ġe ro
Ġpens as
Ġar b
ĠÄīef urbo
3 0
Ġprojek to
ÄĪ u
i li
Ġfa vor
Ġre st
ĠLi ber
A l
in toj
Ġven as
Ġorig in
Ġdistri kto
ĠL ia
Ġkul turo
ĠÄĿ u
b aj
Ġan on
Ġde pen
ĠIs ra
Ġre ali
Ġesperan ta
Ġre te
ar den
Ġpos ed
Ġna tur
Ġinfor moj
Ġindi vidu
Äī as
Ġraj tas
Ġtur n
ĠaÅŃ toro
) ;
t y
Ġg la
per io
Ġ19 0
tem bro
Ġval or
2 00
EJ O
Ġm er
ran te
Ġso cio
Ġp le
Ġde tru
Äī oj
Ġmar to
Ġan tik
i ris
k cio
ĠS ch
Ġrila te
ĠV in
ĠTi uj
Ġi un
ter oj
c istoj
Ġ201 0
Ġblo go
Ġkon as
ĠF or
lan toj
ki taj
Ġg en
ĠP oste
ĠM os
Ġn acia
per o
Ġc h
eb laj
Â °
ma do
Ġg ajn
Ġo kuloj
tr ojn
Ã ¤
Ġf al
ej on
Ġper sono
Ġen kondu
ĠG ra
5 0
Ġneni on
Ġa mp
ĠB ar
Ġd ol
la r
Ġjun a
Ġgra ve
gar io
Ġaldon u
Ġj anuaro
e te
s titu
ti vo
Ġling va
Ġkon kur
Ġprogra m
Ġhel pi
Ġlabor is
ĠM an
b re
Ġk van
Ġ #
Ġre ligi
li ber
Ġmaj o
ĠA fri
Ġvi von
ĠP li
Ð µ
Ġs or
ĠI a
k res
p ojn
D is
don o
Ġa so
Ġhom a
Ġfon ton
Ġmala l
ĠÄµ us
ar aj
Ä¥ a
blio te
Ġt he
Ġ ran
c isto
Ġmili onoj
P ro
for m
Ġvila ÄĿo
li bro
Ġvor tojn
Ġproksi me
Ġnom ata
Ġproble mo
ĠÅĿajn as
Ġe ten
z aj
Ġal t
Ġriver o
Ġnov embro
Ġpli long
Ġf lor
ta ta
Ġf ab
Ġokaz os
H el
ier e
rin de
k er
Ġg x
om ento
i ka
ĠN u
Ġami koj
Ġo ktobro
Ġur boj
us o
Ġre volu
ka p
j e
um ento
kom pren
te le
den to
Ġskrib is
eb ru
Ġn aj
Â» .
es toj
Ġdi rek
Ġs truk
Ġ !
Ġ2 2
Ġne pre
g ara
ĠRus io
Ġb ar
Ġ2 1
Ġkla re
Ġnen io
Ġbe le
vi d
f te
Ġpi ed
da ta
Ġdif in
Ġd oni
Ġver ÅĿajne
Ġa mo
Ġmuzi ko
ci ante
e con
ĠÄĿener ala
lan d
ti ÄĿas
Ġsitu acio
Ġkompren as
m ig
di taj
Ġda tum
Â» ,
Ġap rilo
g no
ĠÄī es
ĠN ur
Ġating is
Ġlabor on
Ġapar te
ĠaÅŃ gusto
ĠK u
] [
Ġre kte
Ġma le
t ina
Ġ201 5
Ġvirin oj
Ġka ÅĿ
or do
as o
in ter
Ġorig ina
Ġan i
Ġperio do
Ġpro ce
Ġvol on
d amen
Ġin dustri
Ġler ni
ĠC i
Ġlon g
Ġ201 8
. ,
ĠHis panio
mi lito
Ġj us
Ġpoli tika
Ġs ti
Ġfil mo
Ġre komen
Ġnask iÄĿis
Ġse ks
Ġsep tembro
Ġcen tro
Ġvir ino
Ġkris tan
d ro
j n
i zo
va ta
Ġge pa
Ġrespon dis
Ġt rin
Ġnov ajn
f ab
Å ¡
Ġde ks
Ġ u
ĠM ul
Ġpro fi
kon s
Ġo ka
zi a
Ġating i
e toj
en ce
ĠÄīiu ta
ĠRes publiko
Ġse ku
Ġbon an
Ġtradu ko
k ro
ĠM ia
ĠB el
ĠT EJO
gi p
i f
Ġuz is
de jo
eri ko
ĠS ta
Ġali lingva
ĠO ri
Ġus ona
ÅĿ ta
Ġtradu ku
Ġ5 0
gn os
Ġb el
Ġinfor mojn
Ġal vo
Ġflan ko
Ġma lo
Ġ2 3
Ġekz amen
li gis
Ġdisvol vita
Ġpatr ino
ĠÅĿ ab
p la
ĠH el
Ġlas taj
s k
Ġartiko loj
Ġdeman do
uz eo
ĠR u
Ġf ama
ĠH er
Ġrice vi
Ġtek ni
Ġparo lis
tu lo
k toro
Ġg re
Ġjun io
tr aj
Ġtem pon
Ġan ali
Ġver kis
Ġkre das
Ġpar ti
ã ģ
Ġkons en
om oj
Ġc el
L I
Ġde mokra
ĠloÄĿ anta
Ġplilong igi
Ġe ta
lo gia
Ġal por
ti v
Hel pu
Ġre vuo
Ġprezen tas
Ġlo koj
Ġgru poj
te li
tem pa
a u
Äī jo
Ġkomun a
Ġs pa
â Ī
lan taÅŃ
L aÅŃ
ĠK el
Ġsam tema
Ġtri a
Ġins titu
Â «
ĠS vis
Ġkap ita
Ġki a
z ojn
men ciante
Ġ ron
ĠV ar
Ġrus a
Ġdivers ajn
Ġen er
Ġkonsis tas
ĠL ing
ĠEsperan t
zi lo
Ġedz ino
Ġpa ÅĿ
Ġpost u
Ġe ge
gan toj
Ġm omento
Ġtran kvi
Ġfor te
di da
ĠE U
ĠI ta
pis ko
tor oj
Ki am
v es
l ino
Ġ4 0
Ġsig n
Ġs om
Ġme ze
Ġa socio
ig on
ci aj
Ġmalno va
e ta
Ġfar ita
fer o
ĠKro me
Ġlo ka
Ġre ven
Ġmala mi
Ġprovin co
Ġkon fi
Ġpro gres
ĠF in
Ġek vi
en d
Ġpub li
ter na
I V
Ġa ux
ĠT ri
Ġh ar
ĠP i
] ,
te con
ra pi
ĠT ur
ebru aro
Ġmin u
Ġsin jor
Dis kuto
Ġri Äī
Ġh er
lu te
Ġproksim ume
E k
ĀĀ ĀĀ
Ġnor ma
ce jo
b in
Ġ2 8
Ġtro vas
Ġplen a
ĠK ol
ĠâĢ Ŀ
Ġkor po
Ġpro mes
ĠB e
Ġp an
ĠÄĿi aj
Ġv ali
te mp
ĠW i
Ġgran de
ti kaj
Ġel sta
f t
mul to
A S
ĠKi u
j ar
Ġkon ten
f in
ÅĿ u
Ġ200 0
te ks
x o
Ġi den
ĠK or
Ġvi vas
ĠAn g
Ġs tri
ko l
a dis
Ġkons ta
Ġper fek
gan to
O N
ã ĥ
ber g
Ġsol da
Ġlo ÄĿas
Ġin i
Ð ¸
Ġka teg
Ġlitera turo
Ġprop ran
Ġteri torio
ĠF on
Ġeks ci
Ġe poko
Ġli broj
Ġmala per
Ġliber a
ĠloÄĿ antoj
z ita
Ġl isto
Ġ2 6
Äī is
Ġmo di
Ġa gnos
es peran
Ġvi ajn
Ġven on
or is
Ġma teri
ĠUnivers itato
f un
ĠE st
Ġkon cep
iÄĿ os
3 4
âĪ ŀ
Ġ2 7
Ġur b
Ġkompren i
2 4
ĠG e
ĠIsra elo
ci e
k taj
Ġvor t
Ġbon volu
Ġap en
Ġan d
vi ÄĿis
feren co
van o
Ġsta bi
Ġp ron
Ġma ten
p s
Ġgra ma
ĠE ble
Ġdan ÄĿ
Ġ200 8
Ġsimp la
tis mo
ur aj
Ġkon a
f an
Ġf eder
ĠS te
m b
ĠT h
Ġh e
ĠÄī a
Ġte a
Ġkole kti
Ġver kon
ĠÄĪi uj
ra do
ĠS am
e ti
Ġpar la
ĠJ un
pro du
ĠG a
Ġamp leks
ĠA s
Ġar g
Ġle g
Ġopini as
ĠTi e
van te
Ã¡ n
Ġk oro
Ġkon vin
Ġi ri
Ġori en
Ki el
tu re
ĠT em
Ġso cia
Ġmalfaci le
ĠS AT
Ġfor ta
cen toj
Ġhis pana
ĠI m
ÄĿ u
ma ta
Ġartiko lon
O ni
Ġti en
ĠC o
em on
i le
ri la
Ġpar toj
Ġsta to
b en
Ġg ar
ur oj
Ġb ab
m ino
Ġrespon de
ĠÅĿa tas
la ro
ki el
Ġta gon
Ġesperan tisto
l y
Ġdosier oj
Ġim peri
Ġapen aÅŃ
ter ia
uz a
ran o
âĪŀ âĪŀ
Ġiom ete
le gi
Ġ Q
mo vado
Ġkre is
Ġus on
is tem
Ġ201 2
pl en
8 7
E N
o k
di gi
g ri
ĠÄĪi u
Ä ľ
om pan
va li
Ġkompren eble
ĠUn io
Ġsci is
Ġvor ton
ter on
Ġk lu
Ġj es
Ġti an
2 2
Ġmin is
Ġpos e
Ġraj toj
ĠA kade
Ġmal deks
K U
Ġvi ro
Ġce las
ri gar
Ġmal proksi
Ġre ÄĿ
k vo
Ġmal ri
Ġfunkci as
Ġor din
bur go
ĠSin joro
Ġp si
in da
Ġkon cer
Ġsi len
Ġmal graÅŃ
tan to
ĠUnivers ala
al isto
Ġba lo
Ġm aro
Ġbon aj
Ġsta r
Ġteks toj
u a
r ojn
tan taj
ĠMar ia
ĠS ud
Ġpar ton
tis ta
via di
Ġa ra
ĠÅĿ ton
Ġ y
r y
v el
Ġnun tempe
ĠJ am
Ġi r
b lan
n am
Ġn es
Ġero tika
ed io
Ġare o
Ġsen di
Ġma lantaÅŃ
2 5
gra fi
Ġmalj un
z u
ĠB al
Ġmalf ru
Ġinkluzi ve
Ġm u
Ġkan dida
Ġfa kto
Ġre la
ĠS al
Ġpartopren i
i ro
ĠEk zemple
ĠJa panio
Ġh oro
Ġfor m
Ä į
Ġevolu o
Ġpub lika
Ġmal var
st in
Ġar ki
ĠÃ Ĺ
Ġpopo loj
Ġfir ma
U nu
Ġsek ve
b is
Ġdeman dis
ig os
Ġmal permes
Ġak tu
Ġadminis tra
Ġs ab
Ġofici ala
ĠÄĿ en
Ġpens is
Ġg eo
Ġini cia
Ġmes a
ĠIta lio
Ġb ran
ĠÅĿta toj
Ġpa co
Ġmona toj
pun kto
ta roj
lon ge
Ġ201 1
Ġpar tio
un do
Ġes ta
Ġkon tin
Ġstu den
c el
Ġkom pon
ch e
Ġbata lo
ĠI z
M al
Ġmalfaci la
Ġde diÄī
d omo
vi do
iÄĿ on
Ġpren is
2 3
Ġbe daÅŃ
Ġplen e
Ġh ere
) :
I S
lan daj
Ġh i
Ġro lon
Ġunu o
Ġfor ma
Ġmen so
Ġ200 9
j are
Ġcen t
Ġpoli tiko
Ġkompu ti
ali e
Ġtran si
Ġmon on
Ġver si
Ð ½
pozi cio
Ġl um
Ġmo va
D e
Ġri pe
aci on
Ġni velo
Ġmal hel
4 0
ĠG u
K om
ĠL on
ĠBri tio
ran s
Ġe t
Ġf ebruaro
ĠSo ve
Ġle ÄĿo
po st
ĠC ar
Ġku ÅĿ
gan ta
Ġv ek
f is
Ġs x
Ġregis tri
Ġ {
iÄĿ intaj
Ġvizi tis
Ġap ro
Ġarme o
Ġor gan
J en
am oj
kti ta
en toj
Ġmon tris
ĠÄīi un
ĠS ub
ĠÄµ urn
Ġfru e
l ono
b li
Ġkomen ce
Ġna turo
A R
on on
an do
k le
Ġkro me
Ġuz ado
ara to
vi de
Ġs un
don i
Ġver kisto
Ġnum ero
Ġskrib i
en oj
Ġdok umen
Ġ200 7
v ino
Ġo per
ĠÅĿab lon
o u
uz o
di ÄĿas
Ġsen dis
Ġ201 4
Ġfi zi
ĠKon si
Ġspeci oj
b al
Ġde se
Ġre mem
' ve
te k
ĠN eni
ĠKi al
Ġesper as
Es tas
Ġparo l
Ġman kas
Ġras trum
ĠA X
mo s
Ġpre ter
ĠS pi
Ġ18 9
Ġna tura
E l
Ġteri tor
Ġbil do
ĠAfri ko
Ñ Ģ
ĠN eder
Ã ½
Ġta ks
Ġprezen tis
Ñ Ĥ
Ġma ÅĿ
2 7
ven on
ÄĿ an
ĠÄľ is
ĠR om
Ġrastrum eroj
t uloj
ula ro
s ka
isi ono
Ġstra to
ĠEk de
ig x
Ġka po
en on
st rio
ku lo
Ġrice vas
Ġ200 6
Ġkarak teri
Ġne kon
er io
Ġa ver
Ġ- -
Ġfin fine
Ġm omen
ĠH e
Ġproble moj
Ġcen tra
5 6
ĠE gip
re co
Ġ z
ĠK vankam
Ġak ompan
Ġhel po
bar oj
ĠloÄĿanta ro
il ojn
di ka
Ġl is
Ġmin a
Ġsan kta
mi taj
Ġdan k
vi Äī
Ġlabor as
p lan
Ġinteres a
Ġling vojn
Ġele kto
Ġentu te
Ġmal for
tr ino
d ar
ĠL in
ĠÅĿ ul
Ġre venis
Ġfo li
Ġsam an
i ri
m ia
ĠÄĿi an
Ġgra vas
Ġ201 3
ĠÄľ ener
Ġv an
ĠGran da
p ita
s ti
Ġb lu
ĠB en
Ġin sta
pa gan
lan dan
tur oj
Ġrigar dis
t ul
Ġdu o
for ma
Ġg ri
es peranto
Ġh oroj
el l
ĠM in
Ġp ala
Ġmalgran daj
Ġlern ejo
Ġe ÅŃ
Ġsu da
Ġami ko
Ġkur so
Ġfi ÅĿ
Ġba zi
Ġsub skrib
ĠN ord
ub a
Ñ ģ
e do
Ġkri ti
c z
ve co
ĠaÅŃ dis
Ġestr aro
u p
Ġokaz e
Ġtrans por
ĠE ks
Ġkor ek
Ġbi bliote
ling vaj
ĠPar izo
Ġre ci
ĠT omo
Ġide oj
fi ci
Ġa tes
ĠJoh ano
ĠU r
L E
Ġrezul to
ĠM em
o gle
en co
Ġpropon as
Ġdos iero
m er
y s
Ġvi roj
8 0
da Äµoj
Ġf am
ling vo
ĠJ os
2 1
f es
zi danto
Ġpub liko
c ajn
Ġenha vo
tur on
T C
ter aj
h u
t t
ã Ĥ
Ġb io
Ġ 000
ĠI KU
Ġre vi
ĠantaÅŃ a
tem po
ĠF ine
Ġimp res
ĠU N
Ġvor taro
ĠP as
Ġrila toj
Ġpar te
ÄĪ e
Ġaki ri
ĠEsperan tistoj
ĠÄīef aj
par to
M ar
ke co
Ġinfor m
ĠÅĿajn e
Ġs kla
Ġsub ite
Ġins ulo
Ġpa ÄĿoj
Ġ200 5
Ġman o
Ġsu pre
di re
Ġmalmul te
Ġi ras
ÅĿ to
Ġra dio
ĠHun gario
Ġsek reta
Ä¥ o
or on
ÄĿ us
ur on
Ġkompren is
p io
Ġili an
Ġparo la
Ġeven tu
ci ojn
Ġhis pan
g ajn
Ġpartopren antoj
2 6
ĠPe tro
y a
Ġlan d
ĠA leks
ku ra
z ajn
Ġman oj
ĠE Äī
Ġaldon i
Ġs cen
Ġnom oj
Ġsimi la
ĠloÄĿ antojn
Ĩ Ĵ
Ġve tur
eb l
vi ce
Ġa ro
Ġb en
Ġdisku to
Ġlern is
Ġkon klu
Ġkom pa
Ġrespe kti
Ġsub stan
Ġ2 9
pren eble
Ġd ra
zis tas
z ento
Ġmodern a
Ġv un
Ġapar ta
Ġeldon o
i re
Ġtem oj
Ġinternaci aj
Ġspeci ala
ĠK ris
tu ga
lan te
Ġrenkonti ÄĿo
Ġsur pri
voj o
Ġes cep
ĠI M
Ġanka u
ter io
Ġur bon
ĠP ra
te bla
ĠV a
Ġ %
Ġnor da
Ġfun damen
ĠIz ra
A socio
Ġvi vis
k tu
Ġle gis
Ġper for
vi ÄĿo
Ġinter pre
ĠA socio
Ġfra to
Ġpun kto
li go
ven a
ĠT er
Ġokciden ta
Ġfor to
ĠW il
ĨįãĨįã ĨįãĨįã
ĠC e
6 5
ĠP lej
se ks
e ca
Ġmor t
Ġret po
mi d
I I
ĠÄĿ arden
ar ki
ta ron
pren is
Ġ3 1
kciden ta
Ġka zo
Ġekzis tis
ĠÄĪe Ä¥
ĠVar so
ĠA d
Ġmals amaj
lova kio
Ġpo em
Ġnaci aj
Ġmon don
Ġeks tre
ĠÄī ina
Ġplur ajn
lo k
Ġkun si
Ġpro men
h on
M on
Ġa gra
Ġlan don
Äī on
cen t
ko lor
van ge
Ġad res
Ġ ris
iÄĿ inta
Ġhom aro
f en
Ġc eloj
ch a
Ġhistor ia
Ġd un
Ġse ksa
Ġmals an
h er
s an
cia lan
ĠK io
ĠV en
Ġvoj on
Ġo k
m pi
es pon
Ġkam po
Ġefek tive
g er
Ġbil doj
ĠV al
me o
Ġli bron
Ġunivers ita
Ġdu ono
Ġta b
ta ri
ĠAkade mio
R e
st re
ĠEs tis
Ġme ti
c or
ing o
ĠIKU E
i de
Ġnom as
for mo
Ġlo kaj
H o
ti ÄĿi
Ġmon to
Ġi tala
Ġkul tura
Ġelek tis
Ġ &
ĠÂ ·
In ter
Ġk v
ĠpreÄĿ ejo
ĠM or
al ismo
ĠK ata
Ġpo e
z itan
Ġregi onoj
Ġdi pl
Ġpoten co
Ġal b
Ġinter kon
kom uni
dan ta
ti ga
ĠF re
ĠĠĠĠ ĠĠĠĠ
Ġnor do
an i
ç¤¼åĮħç¤¼åĮħç¤¼åĮħç¤¼åĮħç¤¼åĮħç¤¼åĮħç¤¼åĮħç¤¼åĮħ ç¤¼åĮħç¤¼åĮħç¤¼åĮħç¤¼åĮħç¤¼åĮħç¤¼åĮħç¤¼åĮħç¤¼åĮħ
Ġpar a
Ġinf ano
Ġhej m
Ġk r
Ġb estoj
An taÅŃ
ĠT he
Ġb ur
Ġlo k
Ġsu pren
Ġinter alie
Ġsci i
ÅŃ tra
Ġrif uz
Ġsta tu
Ġajn a
ar i
Ġfab ri
p loj
ig oj
lan ta
Ġtro v
Ġs te
ĠBra zilo
ci po
Ġb as
vo le
Ġma teria
en s
Ġta tu
Ġpre mi
Ġkomenci ÄĿis
Ġel sen
Ġâ ĨĴ
Ä ľi
Ġmor tin
Ġliber e
Ġ *
3 8
va d
de lo
Ġsupo z
6 0
Ġs p
Ġreli gio
Ġinstru is
Ġmalbon a
a te
l oro
Ġno kto
Ġha vos
ĠC er
ĠN acia
2 8
Ġal venis
Ġtra vi
Ġami k
Ġunivers itato
Ġsta ris
f ita
Ġsen co
gx o
lo go
al u
Ġpostu las
Ġsin joro
Ġkan to
Ġg xi
Ġpe tas
Ġli ver
Ġmond milito
Ġf ig
Ġki aj
Ġekzem plo
2 9
Ġkon cen
ĠH en
Ġide on
ĠKel kaj
kon stru
ĠJ er
Ġsta ras
Ġkapab las
Ġs h
ve bla
Ġpas tro
Ġtito lo
Ġt or
ĠâĢ ĺ
D o
ĠH ar
ES TO
Ġg h
ek z
ĠPo la
Ġvar i
Ġko pi
Ġsek vis
a lan
P ri
Ġa fi
ĠÄ ¥
Ġt raj
Ġmi ks
Ġfoj on
f io
Ġpe tis
Äī aj
Ġki l
Ġ( "
Ġfi ks
Ġkon ataj
iste mo
Ġter min
por no
ĠMul taj
Ġdis tan
ĠS E
Ġori enta
Ġgepa troj
Ġl umo
f aj
istem oj
alaj n
Ġsim bo
Ġgra van
Ġmar bor
Ġplej parte
ĠA ra
du lo
Ġsen du
Ġre to
ed oj
don e
Ġp on
Ġpro tes
Ġinter v
ĠJ an
lo ÄĿ
Ġsigni fo
Ġni ajn
Ġa dap
ĠI S
Ġ om
Ġmallon ga
Ġhel p
us te
Ġa tribu
Ġnom ita
Ġte amo
Ġmi ajn
Ġha zar
3 3
Ġkvan to
k al
Ġaten das
bur g
l um
Ġs us
Ġa viadi
Ġkres k
Ġdeci do
Ġan im
Ġri de
Ġba zo
Ġflu g
Ġfon to
Ġsen tas
Ġkateg ori
Ġp aci
Ġso le
kipe dia
b ata
men ta
Ġhom aj
Ġekonom ia
Ġser vo
Ġeni ris
Ġfor moj
ĠK am
Ġkil ome
ĠT re
ĸ ĳ
lo ke
Ġs uno
ula ra
ku ti
Ġmal liber
Ġeks plo
Ġge ed
Ġstabi la
ber t
ĠvoÄī don
o o
Ġbir doj
Ġis la
Ġsimi laj
ĠGo ogle
Ġd io
Ġvi du
N un
Ġ +
ĠL an
Ġnom is
Ġek lezio
Ġcer ta
Ġspeci ale
Ġs por
kur so
Ð¾ Ð
ĠOr gani
ĠP IV
ĠO n
Ġmal rapi
Ġeviden te
ĠS cien
Ġnom iÄĿas
A r
do vi
Ġar to
Ġesperan t
Ġrila tas
Ġkal ku
Ġpro vis
ĠÄīam bro
ĠB ur
li taj
ĠF ESTO
ig ar
ÄĿ en
ĠÅĿan ÄĿi
Ġte ori
Ġakcep tis
Ġple z
le to
pl ena
ĠNo va
Ġek le
Ġprodu ktoj
Ġs tilo
k va
Ġdef ini
Ġreci pro
Ġkonfi r
Ġnig ra
! !
ĠÄīi elo
ĠV il
lon e
Ġkons ci
la v
ĠI r
Ġsu p
p to
n et
ĠSo ci
ta ra
Ġproksi ma
ĠÄ ¤
D E
Ġman ko
Ġkonf es
ĠP rin
Ġer ar
V A
Ġlabor i
Ġe pisko
Ã³ n
in aj
ĠF un
kul turo
ka lo
Ġteks ton
Ġvoj aÄĿ
Ġme tis
Ġsu do
Ġfar os
Ġkun veno
b un
ĠA zio
Ġmili t
ĠS ve
tan a
ten as
ĠN ia
ĠD on
Ġt rajn
Ġpron on
gi taj
g al
st ron
ĠÅĿablon oj
tigi taj
po la
Ġsen tis
ĠKan ado
Ġre ta
i la
Ġviza ÄĿo
Äī am
Ġpli multo
Ġpoliti kaj
ĠantaÅŃ en
Ġhistor i
Ġaso cioj
Ġfo to
ĠG re
ĠV la
pa ÄĿo
Ġdeman doj
f ran
7 0
Ġinter na
Ġor do
ĠÄ ´
Ġscien co
Ġ6 0
Ġen ke
3 5
Ġsen pa
an iere
lo ko
ĠB ul
Ġrimar kis
Ã ¨
ĠDu a
KOKOKOKO KOKOKOKO
ĠC om
Ġvi c
ba ze
Ġab so
ĠM aro
Ġa do
ĠâĢ ¦
fi ko
ĠEk lezio
Ġde venas
Ġmona Ä¥
Ġpen si
Ġka pon
es e
Ġlo gi
Ġsal u
ba ble
Ġi el
Ġri po
Ġblan ka
Ġkons titu
Ġa fri
Ġantik va
19 9
ge t
li gita
f ono
ĠP lone
ĠÄľ ia
ĠVi r
be lo
Ġplibon igi
Ġminu toj
Ġali e
Ġsemajn o
ĠV o
Ġakti va
N o
Ġorgani zo
Ġfon dita
w ski
Ġuz antoj
ĠCen tra
R O
ĠP aÅŃ
Ġlo ÄĿis
Ġmedi c
Ġsek va
ĠMe ksi
E L
Ġdu dek
Ġgaze to
Ġmalmul taj
Ġ200 4
Ġen me
Ġf esto
Ġuz ataj
Ġakti v
Ġpro pagan
Ġvi vi
Ġpri zor
Ġso ve
Ġprezen ti
X X
ĠL as
Ġpri va
e ton
" )
ĠÄīi e
Ġman ier
Ġlin io
_ _
ĠNeder lando
ĠV or
em aj
Ġspa co
ta don
ĠÄī as
Ġtro vos
b ol
m iÄĿis
s ur
N U
Ġmo vi
Ġpa ÄĿon
Ġf re
ĠT e
ĠT u
Ġvo Äīo
ig h
Ġtele fon
Ġling v
ĠU kra
0 4
Ġap li
Ġju doj
f il
ĠAÅŃ stra
di ÄĿo
Ġpor do
ro m
Ġjar on
Ġn aÅŃ
s ub
Ġpreci ze
Ġma tema
Ġre kla
Ġinter ÅĿan
ĠFran cis
c ado
Ġti m
k ante
Ġdi ale
Ġre feren
logi aj
ko lo
ĠD om
Ġdese gn
Ġjar de
Ġafer ojn
ĠIM G
j un
d s
ĠKro m
or din
T io
Ġk ler
ran ta
Ġfil ino
Ġrela tive
ti ke
Ġsoci aj
qu e
Ġme ta
Ġevi ti
g lo
ĠC on
Ġg aran
Ġjar centoj
Ġpropon is
ĠK ul
Ġs k
n ask
Ġpermes as
Ġfaci la
g or
Ġsignif on
Ġm eri
es tas
A li
Ġanka ux
Ġkre ita
ÄĿ aro
Ġfar u
ĠR en
van taj
Ġa ÄĿo
in de
on ojn
Ġm edio
Ġelekti ta
po lo
Åľ an
tra Äµo
n er
ÅĿ e
Ġtas ko
Ġforlas is
Ġtrans don
Ġa go
Ġhel pas
t le
ĠÅĿ o
ĠÅĿ ar
Ġrigar d
a ten
Ġar m
Ġal te
Ĩ ĳ
tra do
Ġta gojn
? ?
Ġde vos
Ġprofes oro
es tis
ko do
Ġa vanta
Ġcx e
p res
Ġvi zitan
Ġkom ita
Ġkonsider as
Ġf ren
Ġespri mo
ĠSvis lando
er ojn
ta g
ĠC or
Ġprodu ktado
ksi m
Ġskrib as
ĠS tu
k aro
Ġcxi uj
vi taj
P er
Ġler no
ĠÄµ e
Ġe mo
Ġprefer e
Ġorganiz aÄµo
gru po
Ġrevolu cio
ĠK e
Ġroman o
Ġab un
kul p
ti voj
men t
Ġstra te
Ġmeto do
Ġvi g
ĠKi on
Ġvid punkto
n aci
Ġprodu kti
Ġd in
Ġspe cio
ĠF ili
Å Ļ
ig ni
Ġmon da
19 4
Ġp il
Ġper dis
st on
p lu
Ġsubten as
ĠP la
ĠKon gres
Ġinfor mo
Ġn as
no va
Ġa ero
d ori
Ġhistor ion
Ġekzem pl
ĠF er
ĠeÅŃro pa
Ġoka zo
ĠU z
Ġraj ton
Ġt r
zi as
Ġorigin ala
Ġne der
Ġrila to
I A
T amen
d r
Ġso li
Ġang lan
Ġprop raj
p ara
us e
3 1
U TC
ti ri
Ġh umi
iÄĿ u
h an
Ġ3 5
Ġp ek
Ġili ajn
Ġsek vas
Ġfeder acia
un u
Ġser voj
ĠFa kte
Ġhun gar
Ġla tin
Ġrigar di
Ġek kon
Ġaki ris
Ġdu an
l l
Ġspe co
ĠEsperant ujo
M o
Ġmin im
Ġjun aj
ÄĿ anta
Ġartiko lojn
Ġtrans for
Ġsu pra
po li
Ġkva li
Ġproble mojn
ti vaj
lin e
Ġten den
Ġdekla ris
Ġsimi le
ra ko
â Ĩĳ
Ġkomen cas
Ġar bo
Ġgrand ajn
Ġm uni
Ġpo eto
ĠF eder
E T
s em
ĠLi to
Ġal taj
ĠG ad
Ġfon dis
Ġafer on
ĠeÅŃro paj
Ġhun gara
ĠLiber a
w e
ĠAÅŃ strio
Ġekz er
ĠLu dovi
Ġs tul
Äī u
Ġro mp
ord ina
ar io
ĠKom preneble
ĠÄĿus ta
ar to
ĠÅĿ tu
ĠP an
ĠV ia
Ġti ajn
len daj
Ġaparten is
Ġven os
Ġkomuni kado
s ed
Ġ200 1
s te
Ġh ero
Å Ħ
Ġser vis
ĠGe or
Ġo por
Ġli brojn
Ġrenkon tis
kon stan
i uj
Ġb ul
ĠE o
Ġkon dam
E K
Ġdis tribu
Ġmem sta
Ġmona to
Ġpatro lita
ta to
aj a
Ġsimi las
Ġdi a
ĠD ek
Ġpar don
Ġin ven
ter ojn
Ġja pana
ri a
ĠI J
Ġre vu
ĠUnu iÄĿintaj
3 6
Ġn er
Ġkonstru ita
Ġli to
Ġe ko
tion al
ĠU son
Ġci fer
Åľan ÄĿoj
O R
] ;
ĠT ero
Ġg run
Ġdatum oj
p el
k iloj
Ġmateria lo
b il
Ġdepen das
ga ta
kos mo
ĠE r
tra Äµoj
Ġrakon to
Ġur be
Ġ taj
J es
Ġindi kas
Ġkontro lendaj
ci klo
va lo
gi on
d y
Ġk lin
Ġling vis
Ġpopula ra
n lando
ĠK os
Ġli gita
Ġani mo
Ġmi rin
Ġg hi
Ġpro ces
ul is
Ġakcep ti
Ġfaj ro
ti c
Ġin str
tiva lo
Ġtra kta
Ġnom i
Ġeven toj
ĠÅĿan ÄĿoj
ĠA mi
ĠH on
Ġkol oni
me to
b ara
Ġeb ligas
Ġm us
ig ante
Ġtre jn
Ġsolda toj
Ġsek re
Ġne ÅŃtra
L e
is maj
Ġkre as
Ġkor espon
Ġnask iÄĿ
k us
Ġe tern
Ġja pan
t uno
Ġneni el
ĠKonsi lio
! "
ĠT om
ĠA t
or di
Ġap u
Ġscien ca
h ar
Ġre du
d es
Ġkun ven
Ġkompar e
ki u
Ġsan go
ti kan
Ġf ron
ĠK ore
ĠUnu a
ka Äµo
Es peran
Ġb lin
Ġre ÄĿi
Ġklas o
Ġde zer
le g
ero tika
Ġop inio
u e
a ÄĿo
Ġur ba
Ġjun uloj
ĠVarso vio
ĠAli aj
ĠG i
em e
ĠÅĿajn is
Ġespri mi
ĠN acioj
Ġter mino
Ġman if
Ġk vi
Ġeks peri
ĠPar tio
la p
bu lo
Ġstuden toj
ĠT ut
ki me
Ġuz ita
ĠÅĿi po
Ġfi de
Ġneni un
Ġpublik igis
ĠGad get
aj o
ur an
3 2
ch o
Ġposed as
Ġokul ojn
il kosmo
Ġhel pis
Ġfra zo
Ġde l
Ġal lo
Ġre f
em ble
Ġtradi cia
Ġedu kado
ĠAleks and
ï »
Ġad mi
Ġakti ve
na bo
Ġtutmon da
ĠÅĿi p
Ġreg uloj
ka pab
ĠE d
en te
Ġse ver
Ġlu dis
? âĢĿ
Ġlu di
ĠÄľener ala
l d
Ġrespon d
o p
Ġk antoj
ski j
b raj
Ġpre zento
Ġkre do
Ġman on
Ġarg umen
Ġre gado
Ġve turi
Ġs ve
ï» ¿
Ġb rus
Ġinter paro
Ġklas i
dam ento
Ġre ala
ĠGerman a
Ġkomun umoj
ko la
Ġofici ale
Ġtradu ki
tur aj
ĠMar tin
Ġvizi ti
ĠAn dre
ĠK as
Ġpro bable
lan doj
Ġeven to
Ġg us
n io
Ġfar iÄĿas
tin oj
Ġkons ek
Ġtatu aj
man ÄĿo
d uloj
Ġvoja ÄĿo
Ã ¢
ģ £
Ġkontro li
ĠIn f
b ru
Ġla tina
Ġal terna
teg orio
ka don
3 7
ĠIm perio
Äī an
ej a
ĠKu bo
Ġc he
Ġta blo
Ġkol on
zi taj
Ġinstru ado
Ġeston teco
s to
v aro
Ġla si
Ġver o
Ġkon ven
ga don
Ġrez er
ra di
K un
ve la
Ġlabor istoj
Ġsur baze
s ojn
ĠDa vid
Ġkato li
z y
Ġle gas
g y
Ġspiri to
Ġre produ
Ġce le
Ġf alis
b ono
Ġmals am
Ġten d
Ġb rita
ĠF ra
Ġkonstru i
Ġhon or
ĠM as
Ġpa f
Ġlern ejoj
Ġ7 0
Ġtrovi ÄĿis
Ġvesper o
Ġni v
Ġfa k
Ġ8 0
te to
Ġcivi tanoj
s es
Ġmalaper is
ï ¼
ĠJoh n
ĠPa tro
an tan
Ġinstru isto
Ġsek cio
Ġkunlabor o
Ġ )
7 8
lan o
tra ÅŃ
Ġfor mon
Ġ199 0
Ġed zo
ĠaÅŃtor ita
le y
Ġkam pan
a tan
fa co
kipe di
Ġka dre
Ġcir konstan
Ġ18 8
Ġi an
Ġin tele
Ġekonom io
is mon
Ġli mo
h or
ÅĿ as
ĠÄīiuta ge
Ġmal long
Ġkonser vi
Ġlu do
Ġrigar das
for moj
b ojn
Å ľi
Ġa er
ling van
b l
Ġsu ges
ĠLudovi ko
den o
Ġpo l
Ġkun me
Ġdi rante
ĠMos kvo
gra mo
ĠÅĿ at
Ġ200 2
ale st
Ġtek no
Ġkelk foje
3 9
Ġpri tra
S o
Ġpa le
ĠSpi ri
Ġmalno vaj
ĠV ol
Ġins pi
Ġentu zias
Ġsi d
Ġa t
ĀĀĀĀ ĀĀĀĀ
Ġekz isto
K a
Ġaran ÄĿo
ĠE le
ci pe
4 8
Ġb ro
per ni
u to
Ġso va
mi li
k en
ĠkaÅŃ zis
i z
Ã º
Ð º
ta taj
Ġvi kti
Ġpren i
es troj
Ġf ing
Ġpa gi
Ġmo delo
van to
ku la
Ġkre di
Ġâ ģ£
Ġsam aj
Ġpropon o
Ġanta ux
n es
dis kuto
' ,
Ġkam par
Ġfru a
ĠS lovakio
Ġgre ka
i k
Ġmemor as
B on
Ġdan ke
Ġrimar k
li z
Ġmor ti
om on
Ġkonstru ado
Ġko ordina
s ch
Ġf os
Ġnu ra
Ġperson a
Ġuti la
Ġtem pera
us ale
Ġele mentoj
Ġsukces o
do l
Ġprogra mon
0 8
S C
ĠBon volu
Ġrime doj
ĠCi vi
Ġpsi ko
ĉ Ċ
ter an
tr oni
Ġle vi
Ġlu das
no v
Ġinterkon sen
Ġkonstru aÄµo
Ġdi man
ĠÅĿta ta
Ġe pi
Ġli teroj
Ġeb l
ka Äµoj
Ġser Äīi
Ġce teraj
ĠNeni u
ĠE ÅŃ
P a
Ġkon vers
Ġsper to
ĠK al
Ġcx ar
Ġvas ta
Ġser vi
t m
ĠIn s
Ġper sek
ĠTi on
Ġefek tiv
g erman
Ġkon gru
Ġli ajn
K o
T T
es a
ĠP u
il l
pren i
Ġordon is
gan o
d el
Ġ5 00
ar ko
es o
ĠO s
Ġh um
Ġf ina
Ġak von
Ġa to
Ġdom on
Ġnaj bar
Ġprojek toj
Ġf as
Ġsi dis
proksi m
ĠLa bor
ĠAm eriko
* *
kom un
Ġhej mo
ÄĿ ejo
Ġprop oni
Ġsupo zas
R a
Ġfer voj
Ġplen umi
tran kvi
ĠIn stitu
Ġe vange
fi cejo
ier aÅŃ
Ġkres kis
um is
Ġgvi dis
ĠKom itato
an on
mi lo
ÅĿ ton
ig anta
Ġkom pli
Ġaser tas
Ġprogra moj
uj on
Ġling vaj
per e
ling ve
Ġfor toj
to so
zi oj
âĢľ .
Ġsiste mon
Ġfor igi
ð Ł
ar do
Ġmal kon
Ġgaran ti
Ġd ama
Ġdirek toro
ri taj
ĠR omo
Ġta l
M a
Ġlern ado
ber a
Ġ co
Ĥ ¬
ig ado
pu ti
Ġm uzeo
lan to
j et
st u
Ġdif ini
Ġprefer as
ma to
Â ²
Ġkato lika
Ġarb aro
ĠAÅŃstra lio
ĠSove tun
Ġp al
Ġgajn is
ka ta
Ġprezi dento
Ġpris kribo
Ġk ra
Ġval oro
i da
f f
Ġte o
Ġmalal ta
Ġbon ven
minis tro
Ġpopo l
Ġk nabo
ĠG NU
ĠÅĿi aj
Ġinfor mon
Ġvar ia
ĠTem as
Ä ´
ÅĤ a
s cien
ri ch
Ġes tro
ĠP l
Ġres ti
Ġsubten i
ĠJer usale
c u
or as
ĠUnu e
al ojn
7 5
Ġman ojn
Ġrakon tis
ajn as
n oj
Ġkons ul
n y
Ġkla ra
? "
ÄĿ ita
Ġvizi to
tag me
f os
Ġb om
Ġc on
dis toj
ĠUkra inio
or ita
Ġkva lito
graf ia
as pe
ĠS pe
Ġlern antoj
Ġtradu k
Ġ200 3
Ġ Î
Ġal fab
ĠK re
Ġo be
ĠEsperan tista
kci oj
ĠPaÅŃ lo
E F
Ã Ĥ
Ġro lo
Ġfar itaj
h am
Ġpov u
ĠMon d
ĠSek ve
Ġneces a
Ġblo g
Ġem fa
6 8
teks to
Ġes en
Ġvar me
Ġrakon tas
4 9
Ð »
Ġproble mon
il is
Ġmuzi k
Ġeventu ale
0 5
ur is
Ġdi ru
, "
Ã ¸
Ġsoci alis
Ġse kso
l un
te dra
Ġide ojn
Ġto m
. :
Ġda tre
or gani
Ġb ordo
zi on
pos to
Ġgerman aj
an s
Ġbil don
Ġkura ÄĿ
4 5
re jo
Ġdeman don
t z
klu zi
Ġs alaj
ĠF i
don a
Ġel spe
Ġobjek to
Ġme tro
6 6
Ġa res
da taj
Ġnaci oj
e v
Ġbe laj
ĠS il
ĠSu da
es tr
ĠT aj
Ġklari gi
Ġmalf eli
Ġkas telo
k loj
Ġe toso
Ġla go
Ġkap ti
ci an
0 9
kime dia
li kto
.. ..
ĠPar la
ĠT rans
Ġar te
Ġs ki
Ġ www
Ġpen so
ĠaÄīe ti
Â ®
li ÄĿis
Ġof en
s aj
Ġkon ek
ĠNor da
Ġsub jek
Ġte orio
Ġfor pas
Ġaspe kto
Ġdif ino
d umo
Ġstran ga
e go
Ġkur soj
Ġfil moj
tri o
n un
gran da
Ġnu kle
Ġgrande ga
emo kra
ÄĿ inta
ke jo
f ron
um ado
Ġestr ar
Ġsub e
ĠRa dio
Ġf an
zon oj
spe kti
ĠaÅŃ d
ĠLing vo
Ġi zo
Ġch ar
ri ko
di gis
Ġven to
Ġaldon is
0 6
Ġs cio
ĠB an
N u
Ġpro kla
F ran
man iere
Ġeli ris
g el
ta Äµojn
Ġflu gi
ber to
ĠaÅŃto ma
Ġver da
Ġkonsider i
Ġre kta
LI D
porno grafio
er s
Ġag ri
Ġan arki
Ġpu ri
li on
al d
Ġpri labor
Ġtradi cio
Ġg o
Ġtra pas
Ġfra toj
Ġkonsen tas
k el
ĠSovetun io
pa do
Ġpartopren o
Ã §
Äµ e
ĠFo lio
Ġgerman oj
Ġkompu tilo
ta go
Ġmal trankvi
f gan
f as
Ġstruk turo
Ġde parte
Ġdeman d
Ġsemajn oj
Ġrapor to
ĠBel gio
, âĢĿ
ĠV oj
ĠÅĿi an
uz e
Ġpe to
j an
Ġkonsider ata
Ġprofun de
Ġlon gaj
Ġor to
Ġme za
Ġkoncern a
ĠB lan
ĠaÅŃskul ti
in tan
Ġfun kcio
ĠJ or
Ġinter reto
tas tro
dis to
ti g
ĠMon da
Ġun un
g lute
Äī ismo
v Ã¡
Ġka zoj
Ġor nam
b lis
Ġi ÄĿas
Ġlern as
Ġlas is
ĠD ia
Ġfin is
ĠÅĿan ÄĿo
Ġme troj
daÅŃ rinde
ĠR os
ĠKom isiono
Ġfil oj
Ġprodu kta
Ġinflu o
R A
ĠPo li
emble o
k tor
Ġindustri o
Ġplen kres
P re
ke to
Ġle ÄĿ
Ġkomer co
li oj
Ġle tero
si mi
k las
Ġsen t
ĠAn ton
Ġunua foje
un d
Ġkol or
ta dis
ĠS em
vor te
ĠE S
man iero
minis tra
Ġpas is
ĠCh ar
Ġinternaci an
Ġde ba
ig ra
Ġsol vo
le o
Ġstu dis
} }
ĠserÄī as
VA LID
ĠB ona
ĠC as
Ġmals ano
âĢľ ,
ang le
âĪŀâĪŀ âĪŀâĪŀ
Ġa ma
pe ten
Ġla u
ĠT ro
Ġdezi ris
Ġkon kre
Ġliber eco
cen tro
Ġkondu kis
I li
ĠB arato
S ur
Ġre e
m ame
Ġs kan
Ġener gio
re gis
ĠH am
Ġeks kur
Ġn acio
k cep
Ġsta tis
vin eo
Ġpro vo
ub ile
Ġkon k
Ġsi l
Ġpublik igita
temp aj
Ġek i
Ġdok umentoj
Ġpu ra
Ġv ul
ĠM ad
Ġsufi Äīas
Ġle gantoj
ir kaÅŃ
ko le
Ġorganiz ado
ĠCen tro
Ġfilozo fio
ĠÄīa pi
ĠCe tere
i to
ÅĿ oj
Ġkres kas
ÃŃ n
Ġtemp oj
Ġko ti
Ġspe cialan
Ġal tan
din to
Ġpli a
Ġmalbon e
T E
e f
m uzi
Äī uro
Ġvo lo
An kaÅŃ
Ġreda ktoro
Ġi ama
n aÅŃ
Ġs istemoj
Ġri Äīa
Ġrespon do
ĠEk zistas
Äīi Äīo
Ġrif u
ve blas
ti kon
Ġeb la
Ġkom itato
ami koj
Ġsekreta rio
Ġkres ko
ĠBer lino
ĠFin nlando
Äī er
Ġpar tn
Ġuson aj
Ġa ven
Ġproce zo
Ġal ven
Ġfirma o
! âĢĿ
Ġvide o
ĠC a
Ġaten dis
Ġdom oj
ĠKar lo
ĠÅĿ los
le con
Ġaten ton
I M
Ġl ud
Ġekster a
Ġman ÄĿi
eb lan
Ġsol vi
Ġt on
Ġsu de
Ġfra ÅŃ
Ġsek vaj
Ġrespon di
Ġminis tro
Ġg lor
kul tura
Ġraj tojn
Ġsendu be
Ġpri vata
Ġpa po
Ġmi ra
Ġ198 0
L A
Ġfamili oj
ta kto
Ġdire kto
Ek de
ĠpoÅĿ t
Ġb or
ĠD os
ti van
ĠH in
Ġpa per
Ġkonta kto
Ġba za
Ġpi e
on g
Ġi e
ĠK ri
a kti
h al
Ġtradu kis
s al
man te
gx is
Ġsin sek
b us
Ġ4 5
Ġti po
dan o
Ġbon ajn
Ġhej men
ĠLon dono
ĠP alest
ĠKa to
ĠÄīiuj are
Ġfo toj
ten i
pre zidanto
Ġokaz on
din da
flu ti
Ġf ri
Ġpe ti
i ch
ĠJ ar
ke o
Ġklu bo
k ras
la u
Ġhel pon
Ġvas te
pe to
i ojn
ta ge
f aci
Ġuz ante
Ġplan toj
Ġpar ko
Ġsus pe
Ġbra zi
Ġa kade
el ojn
Ġb ud
Ġm uro
Ġrapi da
Ġfor iris
ti gon
pe lo
tn as
4 4
Ġkon ver
Ġtiam a
Ġmalsu pren
perni ty
T A
ĠâĢ ķ
ĠU S
Ġfon toj
Ġpoli co
tra du
ĠVin ilkosmo
ĠÄĿis da
Ġakcep tas
IN VALID
Ġko do
ĠOri enta
Ġsub pre
Ġkomer ca
ĠMe di
Ġpo laj
ajn o
men ton
landan oj
5 9
al istoj
Ġpli for
ĠSve dio
Ġter or
Ġkoncep to
Ġb us
Ġdis pu
Ġbaz ita
Ġnom bron
tin da
ĠB ab
Ġeldon ita
Ġregu le
g ro
Ġpar en
ĠIr lando
P L
Ġprinci po
in k
Ġki aloj
Ġi ta
Ġka tal
ĠÄĪ io
Ġsek van
Ġfin iÄĿis
Ġmer ka
Ġre gas
Ġ9 0
us ta
Ġuz on
Ġreli gia
ÅĿ uti
Ġbibliote ko
Ġfor tika
ĠB ro
U N
Ġpli aj
Ġ- --
ver o
Ġkre d
Ġan oj
Ġmal he
ĠAr gen
le toj
Ġsen to
Ġtradu koj
Ġmal l
Ġar boj
Ġparti oj
ĠCer te
em i
Ġfor t
Ġating as
elon ge
Ġdiferen co
ÄĪ ar
Ġreg no
M ia
g aÅŃ
Ġk ron
na lo
an taÅŃ
pen si
s istemo
Ġde ter
Ġa stron
ÄĿ eni
b ir
va Äµoj
4 6
Ġs to
ĠE du
po l
Ġimperi estro
te o
ĠantaÅŃ aj
Ġinteres o
Ġkom panio
Ġal u
um as
Ġkom bin
Ġver kita
gi ono
ti m
Ġha vu
ĠIzra el
Ġkonf lik
Ġserio ze
Ġmalo fte
ve tur
Ġmi loj
19 8
n is
Ġdis de
Ġoka zi
ĠT ia
Ġpar tojn
J e
7 9
g re
ig no
Ġbazi ÄĿas
Ġsta ci
Ġla ux
Ġmarbor do
Ġsig no
Ġvenon ta
s ter
s ko
Ġb r
n omo
Ġli gno
ĠEsperan tis
kciden to
Ġde ven
in ojn
ĠT ele
ro mp
Ġsubten o
S a
er aj
pi cx
ha t
N M
Ġi ru
5 5
Ġar baroj
Ġce tere
ĠaÅŃtor oj
ĠLito vio
Ġen spe
Ġnor de
Ġmalrapi de
Ġs tan
Ġorgani zi
ÄĪi uj
Ġbir do
Ġtrans lok
Ġkoncern e
Ġkons tante
ĠB ir
ĠF ri
Ġka tastro
zo lu
ĠdaÅŃ ris
s per
s et
ci do
Ġperson e
Ġh aÅŃ
Ġpo sta
Ġjarde koj
Ġali ÄĿis
Ġru ÄĿa
S u
Ġpor de
Ġdi alo
Ġrest or
i ra
Ġsufi Äī
i do
Å ¾
din te
Ġiuj n
Ġven kis
Li bera
ĠEsperan tisto
J a
pan oj
Ġado p
c y
nask iÄĿis
Ġne o
ĠG er
an ton
mi r
Ġfen estro
Ġli go
zi aj
Ġpa c
Ġamas komuni
i ma
om eno
0 7
f al
Ġpro vas
Ġp ej
b ran
b ab
aci aj
Ġsukces e
Ġparla mento
Ġhi po
g ulo
Ġsendepen de
Ġre en
ĠP res
Ġokaz inta
m po
Ġtradu kado
Ġmalsu kces
... ]
Ġdifin ita
M ul
ĠIJ K
Ġter a
b ano
Ġpre zo
Ġlon gan
ling vis
Ġin teli
Ġprofun da
Äī ero
Ġâ Ĥ¬
Ġhe zi
c s
ka u
Ġparo lantoj
Ġmaten e
Ġp et
ti an
T a
Ġkon ferenco
ks oj
i ras
far ita
men tojn
Ġkon is
Ġkuti ma
r um
Ġla st
ti me
ĠÄīe val
Ġju da
Ġopini on
kis mo
ti l
Ġb re
Ġs vis
ĠaÅŃ ton
Ġapar taj
Ġkura cisto
ĠC ol
Ġkonsek ven
la roj
ĠNe w
Ġkonstru is
Ġim perio
ĠBu da
Ġekster e
ĠM ala
Ġflor oj
Ġak uz
Ġdeks tra
Ġkvar talo
A M
Ġkultur oj
æ ľ
va Äµo
Ġma ksim
Ġplan edo
Ġaspe ktas
Ġ197 0
ek zemple
5 2
Ġorgani zoj
ti e
Ġse min
Ġma les
L O
Ġkoncern as
Ġpied oj
kti taj
ÄĪi u
la ra
Ġfor mas
Ġhom on
bu o
s in
ĠAng lio
Ġa te
ðŁ ĺ
tor a
ĠÅĿta t
ĠT or
Ġdon ita
9 0
ĠG rek
a ux
Ġinstitu cioj
am eriko
P li
Ġe min
i ki
Ġe mas
Ġg aj
Ġdisvol vi
ĠL en
Ġlim igita
Ġki alo
Ġregi on
Ġbata l
Ġp aÅŃ
Ġre tro
ĠM er
ĠI I
Ġlas tan
b ita
Ġre cen
Ġvi dos
Ġper s
Ġpre tas
Ġven ko
p in
Ġp ul
Ġpil gri
Ġkole kto
ĠO kcidenta
Ġfrem daj
in stru
li broj
ĠB re
Ġren ov
Ġali flanke
Ġali ÄĿ
A m
Ġaper o
ĠÅĿat us
7 2
Ġdok umento
ĠbedaÅŃ rinde
Ġa goj
ĠA u
Ġs xi
Ġin teg
ĠÄĪ ina
Ġpo vo
vi den
Ġreprezen tas
Ġmal ÅĿ
ĠKa tegorio
ser vo
Ġf ut
Ġdan kas
l ismo
ĠM uzeo
Ġven i
mal pli
ĠV ene
bo ok
Ġs kulp
Ġkon tras
Ġg ub
Ġgra vajn
vaj o
Ġflan ke
Ġteks tojn
Ġlis ton
h ttp
b aro
Ġper cep
ĠTa go
Ġopor tun
G ran
ĠO l
i u
z aÄµoj
ier on
for me
Ġmalj una
Mon tri
Ġrila tojn
Ġdisting i
Ġviza ÄĿ
Ġaten di
Ġgx in
ĠÄīees tis
por to
h r
Ġmi d
ĠD emokra
kor aÅŃ
Ġprin co
ĠaÄīe tis
Ġin aÅŃ
bi cio
Ġvolon te
INVALID INVALID
Ġkonf uz
ig aj
Ġme zo
Ġrice vos
ĠÅĿan ÄĿis
Ġklas ika
Ġkonf likto
ã Ģ
Ġkam poj
Ġkristan a
fi ka
an ojn
Ġkonstru aÄµoj
vi l
ĠF eli
Ġhel pos
ligi taj
g na
D an
Ġp run
ÅĿ on
Ġdemokra tio
Ġpre di
ej ojn
e ge
Ġs lova
Ġmal ka
Ġsci po
Ġkan tis
K vankam
Ġ3 00
ab lono
Ġa bon
Ġti mo
Ġkom peten
Ġdi fek
Ġrapi d
Ġeni ri
Ġinterv ju
ci ta
Ġb es
ĠS ame
kons ento
Ġseku reco
Ø §
ce le
ĠO ficejo
ĠMeksi ko
Ġk ver
Ġesper o
d t
Ġkom an
Ġter ura
f u
p lej
Ġrenkonti ÄĿoj
Ġkv ara
Ġuz u
ĠAn jo
Ġinfan ojn
ĠLi aj
Ġdeman dojn
Ġmalkov ris
A ÅŃ
f ino
Ġver kojn
Ġk anta
por t
Ġrezul toj
7 6
Ġkol er
ĠÄīe Ä¥a
a z
Ġen tenas
ĠL ern
ki lo
... )
Ġinteres aj
ĠÅĿ er
ĠG ar
Ġuz anto
Ġaga don
pe di
5 4
pa bla
Ġsitu acion
G la
I O
Ġdeci di
Ġmem oro
Ġper spekti
Ġspe kta
Ġed zi
Ġprakti ko
Ã ±
ĠkaÅŃ zo
Ġpersek u
âĢ¦ ]
Ġhej me
Ġklari gas
T rans
Ġorien te
Ġtele vi
Ġalb umo
un g
Ġkre dis
kan to
ĠL A
Ġan ti
ĠH u
Ä Ľ
da go
Ġpli gran
ĠÃ ª
c al
ĠF ilo
Ġam uz
paro lantoj
Ġhazar de
Ġradi koj
h om
Ġv on
d al
Ġle ÄĿoj
I R
ĠV an
ĠI rano
Ġreprezen tantoj
di go
Ġel mon
Ġd er
Ġbezon is
Ġkva dra
Ġpermes is
Ġl un
Ġto ler
Ġinteli gen
n on
Ġso pi
Ġstu di
Â ´
Ġti mas
de o
Ġentrepren oj
Ġle gen
Ġrespon das
Ġsim bol
Ġsi dejo
man o
Ġdistan co
z ino
Ġel di
lan de
Ġelek tro
fer oj
voj e
ĠtaÅŃ ga
Ġte g
Ġmalfru e
Ġeldon is
Ġ zono
Ġdon os
Ġpor tas
T M
Ġpar ame
ĠS h
ĠaÅŃ di
Ġc elon
Ġpre ta
Ġdis kon
Ġorigina lo
ĠE uro
ĠKi e
Ġrespekti ve
Ġvesper e
tedra lo
am on
Ġre gn
Ġvar ma
pro ble
Ġru ÄĿ
Ġdeman di
Ġmalgran dan
l isto
ĠA le
Ġpubli ke
ĠÄµ ur
po le
Ġprop rajn
k lin
ĠA b
ĠÄīi a
Ġkap tis
Ġve ge
Ä ĩ
ĠÄīiuta ga
c in
Ġdispon ebla
ĠHo diaÅŃ
mon da
Ġland li
t ujo
Ġalpor tis
E E
Ġg ej
li am
ĠW al
rojek to
Ġd ro
ĠP ara
alu ton
Ġpej za
g in
Ġstu do
Ġknab ino
5 8
Ġdi ab
ĠF ar
Ġflan koj
igx is
ton a
Ġmul to
Ġgvi danto
Ġsimbo lo
Ġmal ÄĿoj
Ġkomun an
Ġpra v
ĠKol om
j ojn
Ġden as
Ġres tos
it y
ĠkaÅŃ zas
Ġkondu kas
uza iko
Ġversi on
Ġc m
Ġgeed zi
Ġser vas
Ġstari gis
Ġmuzi kon
Ġinvi tas
Ġsom ero
emon io
Ġnom ojn
Ġpriskrib as
Ġj ena
A fri
Ġsek v
Ġprodu kto
Ġteritor ioj
gan taj
Ġsendepen da
y le
ĠH om
c lap
Ġpre fi
ĠKon takto
ĠMe z
Ġprofes ia
Ġmenci ita
ta ga
pa co
Ġvoj oj
Ġsa vi
Ġscien cistoj
4 2
ĨįãĨįãĨįãĨįã ĨįãĨįãĨįãĨįã
Ġopini is
9 9
Ġf ro
Ġbe lan
Ġinkluzi vas
Ġanon cis
de ble
it h
ĠMi lito
Ġfra zoj
0 3
Ġf amaj
ĠR uman
ĠTi un
Ġekster landaj
ĠBuda pe
Ġmalfer mis
ti aj
Ġmi z
Ġli gn
Ġforges is
ĠÅĿ par
Ġnorma la
b ado
Ġsam ide
Ġnun tempa
Ġpas inta
5 7
Ġne e
Ġb esto
Ġkom for
Ġsan kt
4 7
ÅĿ t
Ġdezi ro
ĠÄĪeÄ¥ io
f r
Ġdi kta
kri bu
Ġinstru i
Ġprovi zor
Ġzor g
ig ata
ĠSpiri to
Ġorganiz is
Ġpor tuga
Ġdeman das
Ġenha von
u i
u li
ĠW e
Ġsa ÄĿ
Ġkonsen tis
de ko
Ġokciden te
Ġkoncer to
Ġf e
Ġ3 6
ĠMe dia
Ġe po
Ġne go
5 3
ĠÂ ©
ĠF u
Ġvali das
Ġcirkonstan coj
Ġd eri
Ġel ÅĿu
ĠB j
Ġmor gaÅŃ
! )
Ġstra toj
Ġligi taj
Ġentrepren o
Ġsinjor ino
âĢ ŀ
ern a
Ġsukces a
ena to
Ġinklu das
es ti
aÄĿ e
4 1
ĠMar i
Ġmalproksi me
S ek
ĠV e
Ġneces e
Ġskrib ita
Ġelek troni
end aro
lo ven
Ġplan o
Ġi lus
Ġeble con
Ġhistor iaj
le t
di lo
ĠMal graÅŃ
Ġprakti ke
Ġaktu ala
B a
Ġde longe
ĠHel po
s kribo
ur ojn
Ġel tro
Ġpl us
Ġins uloj
vor to
Ġkoncen tri
Ġkons on
Ġek kri
Ġreligi aj
ç¤¼åĮħç¤¼åĮħç¤¼åĮħç¤¼åĮħç¤¼åĮħç¤¼åĮħç¤¼åĮħç¤¼åĮħç¤¼åĮħç¤¼åĮħç¤¼åĮħç¤¼åĮħç¤¼åĮħç¤¼åĮħç¤¼åĮħç¤¼åĮħ ç¤¼åĮħç¤¼åĮħç¤¼åĮħç¤¼åĮħç¤¼åĮħç¤¼åĮħç¤¼åĮħç¤¼åĮħç¤¼åĮħç¤¼åĮħç¤¼åĮħç¤¼åĮħç¤¼åĮħç¤¼åĮħç¤¼åĮħç¤¼åĮħ
la va
ĠE str
iÄĿ anta
Ġkonta kti
Ġversi oj
Ġde mon
ce book
Ġkor e
h ol
Ġprele go
ĠJe an
p r
Ġki en
hi bicio
ĠdaÅŃ ras
Ġi lo
Ġta vo
Ġsek vi
Ġto mb
k anta
ver so
ä ¸
ĠL is
Ġins tan
Ġklari gis
ĠÄĿarden o
Ġraj to
y n
Ġ19 20
Ã ¹
Ġdeta le
Ġvila ÄĿ
ÄĿ ado
ĠG al
ori zon
Ġta len
f re
ĠB or
Ġgvi dantoj
k ru
Ġre ale
pen ha
Ġe ch
Ġre zolu
Ġver bo
lern ejo
ĠMar ta
Ġak ci
ĠSan kt
Ġpri pens
ĠA lia
Ġekster aj
logi on
paro lo
Ġ196 0
ĠDan io
Ġ( =
Ġobjek toj
Ġd rin
ĠS tan
Ġkri zo
ins ulo
Ġfinan ca
d ri
as tio
Ġmer kato
Äī ita
Ġ199 2
Ġfru kto
z umo
Ġi ros
to logio
me ti
Ġmili ta
ÅĤa w
Ġv alo
Ġmem brojn
Ġtradi ciaj
ĠParla mento
Ġgen ro
Ġc om
Ġ3 2
Ġsim pa
Ġsen Äī
Ġekzem ploj
ĠB il
p us
Ġviza ÄĿon
ĠArgen tino
ĠD SC
ĠI uj
Ġmeto doj
Ġoper aci
Ġpoem oj
Ġurbe to
Ġplen an
Ġinstru istoj
4 3
ling voj
d om
ch er
Ġge amikoj
Ġres publiko
Ġpartopren as
ĠantaÅŃ vi
Ġ199 9
ĠA ma
Ġoku pis
Ġremem or
Ġe tn
Ġeks plu
Ġabso lu
es ko
Ġgra v
Ġter on
Ġpost ulis
0 2
man oj
Ġel labor
Ġsimp laj
Ġf anta
Ġkre ado
g umi
Ġh eb
ĠInstitu to
K K
iÄĿ oj
ten on
Ġkomple ta
Ġmodern aj
Ġpor no
dek naÅŃ
Ġanali zo
Ġper fi
Ġvol us
ĠVir g
d amo
j uo
Ġro bo
Ġvalor on
Ġcer tigi
ĠAm eri
ĠRe ÄĿ
Ġdeter min
Ġaper os
Gla Äīero
s ol
Ġ4 8
Ġregistri ta
Ġs ano
Ġpor tis
Ġrete jon
Ġa mon
ÄĿ ante
Ġme tas
ĠÄīes is
Ġver ki
Ġpopo la
Ġhav us
Ġnen ia
Ġpubli kaj
â ĸĳ
lan taj
ĠVi eno
S en
W iki
Ġrez ign
12 34
ĠW or
es ulino
Ġret pa
ĠR aj
Ġperson ojn
Ġne ga
Ġh id
Ġli cen
ĠM is
Ġradi ko
Ġfen omeno
de zi
lan oj
J am
S aluton
Ġintern e
Ġprin c
ke toj
Ġpas troj
g eno
ĠÅĿi r
ĠkaÅŃ z
Ġal ko
ĠL igo
Ġseku re
Ġn ere
dan ÄĿ
ĠKon go
Ġbil dojn
Ġkris tanoj
Ġgaze toj
1234 56
Ä ģ
ha veno
Ġespri mas
Ä¥ i
Ġe jo
Ġjar e
Ġgra do
Ġ199 5
Ġfru aj
k ino
p il
ĠW a
Ġkol oro
87 65
deknaÅŃ i
. âĢľ
Ġfrem d
ĠF lor
Ġinteres iÄĿas
Ġara ba
p ru
ta loj
Ġkonkur so
ks io
ĠÅĿ ata
ĠÄīe Ä¥
Ġlu kto
ĠPor tuga
Ġkarak tero
f ia
da to
Ġle teron
ba lo
Ġkla r
d oro
dan taj
vor toj
ĠDan kon
ĠMad ri
c ri
Ġdan kon
Ġblan kaj
Ġmon tr
Ġfar iÄĿi
Ġefi ko
va don
Ġak v
tre jo
ĠKon stitu
Ġkapab lo
Ġkunsi do
Ġ ×
Ġp into
Ġkon ker
Ġtas kon
Ġdatre veno
Ġsor to
E U
ĠF il
Ġparla men
ig an
Ġ199 1
p aci
de bla
K el
Ġu kra
Ġ199 8
ĠÄĿoj o
P e
Ġespri mis
n as
n aÄµo
Ġa gi
te loj
Ġpl um
Ġrekon stru
ks aj
Ġrete joj
7 4
Ġmili ton
Ġadminis tran
S i
Ġpor na
Ġmor tigi
Ġman ÄĿas
" ).
in an
ĠB ud
P ER
a kte
ĠS im
Ġj ubile
Ġcer taj
Ġe taj
ul t
Ġofi cejo
ĠJa ko
ĠNor ve
st ri
ĠB rita
Ġpas i
ĠKro a
Ġtra fi
Ġindi ki
Ġinten cas
Ġkom b
ĠV jet
Ġrice v
Ġrigar do
ĠMos eo
Ġelsta ra
Ã ª
Ġg im
em oj
tor i
Ġ[ ...]
kur is
ĠAm baÅŃ
Ġfilozo fi
Ġmateri aloj
Ġtra fis
Ġokaz oj
ĠV es
Ġre for
ĠLi bro
Ġekster ordin
Ġpren as
ki e
ĠAn ti
Ġcer t
Ġprojek ton
Ġdeparte mento
mon s
si on
Ġvar m
m oni
ĠÄīef ministro
6 3
Ġsper tis
ĠtaÅŃ gas
Ġrifuz is
ĠP ala
Ġgran deco
ĠFran ca
Ġeks pozicio
ga lo
B I
T ra
ĠEst on
tagme ze
ti to
da don
Ġle ganto
L ing
ĠS tra
Ġrakon toj
Ġprinci poj
ĠWil liam
ĠPalest ino
Ġe gal
le jo
s or
Ġs ul
Ġre ÄĿis
Ġb ono
Ġeble co
os o
Ġsen con
Ð ²
Ġf ul
ĠR igar
Ġman kis
fun kci
Ġvizitan toj
Ġare oj
s pi
er ni
man a
Ġnova Äµoj
Ġsukces as
ci taj
ĠÅ ł
an ÄĿ
ĠS t
ĠÅľ ablono
o kaze
te lon
Ġkom pan
Ġ3 3
Ġmuzi ka
Ġ199 3
6 1
ĠK en
w n
Ġpro pri
Ġmili ar
an co
Ġpre ten
J o
ĠPo pola
Ġrime dojn
Ġkultur aj
li p
Ġse t
6 7
D i
Ġ3 8
Ġplur foje
Ġkondu to
Ġfavor e
li bron
Ġar bar
Ġrespon don
Ġ x
Ġli moj
k ia
k anoj
Ġad reso
Ġespri m
Ġreda kti
wi kipedia
v ing
Ġin ÄĿeni
Ġpar ale
Ġlu doj
Ġorganiz aÄµoj
Ġle v
Ġlitera tura
Ġordin ara
fran ce
ĠG ol
tin te
ĠDis tribu
ĠM aj
Ġchi uj
ĠKata lun
ĠKomun ejo
Ġju ro
ĠÄĪe Ä¥a
K ore
Ñ ĥ
ĠdaÅŃri gis
Ġkomenc antoj
ĠJun ulara
alisto ko
ĠaÅŃtoma te
a tas
Ġal ti
Ġekvi dis
Ġmaldeks tra
ĠeÅŃ roj
Ġdipl oma
ĠRuman io
Ġrez is
Ġinter re
Ġsufer is
ĠBi blio
Ġen ga
ĠFrancis ko
ĠT on
Ġka f
Ġ15 0
ĠAleksand ro
Ġo s
di gita
Ġinstru as
LE I
Ġlo kojn
ĠPe ter
Ġspeci fa
Ġanta u
Ġtrans form
Ġten is
ta raj
ĠZ am
Ġpozi cio
in teco
Ġpo vi
Ġmon toj
Ġmor tigis
Ġesperantis ta
Ġaga doj
Ġtea tro
Ġali ÄĿi
Ġâ ĸĳ
Ġâĸĳ âĸĳ
Ġkon ci
Ġli b
Ġek ha
Ġrimar kin
en c
sta ta
Ġsin teno
Ġkor on
Ġmalfer mita
Ġaran ÄĿoj
Ġmal pu
ĠkuÅĿ as
Ġkomple te
ĠH al
me tis
Ġenkondu ko
di gas
ĠT eks
ĠD E
ĠR ej
ĠÂ» .
Ġkomenci ÄĿas
ĠĠĠĠĠĠĠĠ ĠĠĠĠĠĠĠĠ
tri kto
i tajn
Ġbra k
g li
Ġmal lar
te joj
Ġha vebla
Ġvo kis
Ġturn is
f ina
Ġt eni
Ġte mon
, [
g vi
ĠT ar
Ġdezi r
nom braj
ks on
Ġri kol
ĠLi tera
Ġeks pozi
ĠP A
ĠPar to
Ġfra tino
se kso
tri ta
Ġsta tus
ve blaj
men io
h en
Ġs ing
ten oj
ĠG ru
ĠO li
7 1
Ġvi vanta
Ġnom ataj
Ġna ture
ang la
Ġsper toj
Ġimp li
st roj
or ado
ĠFran k
- )
Ġajn an
ÅĿta toj
ĠRu ÄĿa
Ä Ļ
ti la
es te
ĠT an
Ġtempera turo
Ġ194 5
Ġata ko
ĠBe daÅŃrinde
D O
Ġek estis
Ġtri dek
lin io
ĠÄĿoj as
Ġlar ÄĿa
Ġmesa ÄĿo
ten is
ĠB os
Ġhor ojn
ĠJoh an
Ġfeli Äīa
Ġfor ton
lu bo
ĠKan tono
Ġima gi
Ġvi va
Ġmi ri
Äīe co
ĠhodiaÅŃ a
Äīam bro
h tm
ĠÄīe esto
Ġman ÄĿo
Ġang ulo
Ġkonstru o
Ġfoj o
tin ta
Ġprele goj
Ġne aten
em an
bliote ko
Ġuni ka
Ġmen cio
Ġsta ÄĿo
Ġfer vor
Ġreven i
ĠGrek io
R o
k ara
Ġli tero
ĠkontraÅŃ sta
ĠDos iero
Ġvi co
Ġg u
pre mi
Ġad jek
ch en
pro gra
Ġfran caj
Ġneder landa
es ton
Ġdi ros
Ġapar tan
Ġtele vido
p t
Ġokciden to
Ġri pro
gran d
Ġho telo
ĠR on
Ġtradu kon
ĠMin is
ĠB r
Ġgru p
Ġprakti ka
h ard
Ġreali gi
os pita
Ġantik vaj
ing a
Ġorganiz ita
Ġnask iÄĿo
ĠvoÄī oj
C O
ĠD es
Ġbon far
Ġtro mp
ĠVer da
KOKOKOKOKOKOKOKO KOKOKOKOKOKOKOKO
N ia
f fi
Ġneni an
Ġsoci alismo
esperan ta
Ñ ı
Ġaldon as
Ġinfor mi
Ġprogram aro
m m
ig e
Ġtemp lo
ĠG ri
ĠVor taro
or aj
ĠG ro
Ġar tistoj
Ġepisko po
ĠMond milito
li g
ÅĿi po
Ġvide blas
t una
ĠL and
Ġver an
ĠT TT
Ġdis sen
Ġesperan taj
Ġbone ga
M e
d ina
is e
ci k
Ġg lu
Ġkons tanta
V er
Ġap ara
Ġkor pon
Ġkateg orio
ble co
Ġvila ÄĿoj
Ġnatur aj
Ġver kistoj
ĠdaÅŃ r
Ġdisvol viÄĿo
ĠPre zidanto
x oj
Ġpens oj
Ġfu rio
Ġmuni cipo
U S
ĠSin jor
ĠW ar
Ġpon to
Ġm ask
te la
Ġin ves
ĠFon dumo
Ġpro v
Ġpala co
Ġfa ko
Äľ is
lo v
Ġins ek
Ġplan as
Ġmalami koj
Ġkilome trojn
ĠE li
ĠKroa tio
ĠS om
ĠPa po
5 1
ĠG PL
ni ko
for maj
ĠTur kio
Ġesti ÄĿis
Ġ199 4
un da
Ġfor tan
Ġma po
Ġpro to
kon o
ĠÅĿan ÄĿojn
Ġeb en
Ġfran can
Ġperfek ta
kluzi ve
ĠMedia Wiki
ern io
Ġkompren o
L o
Ġdi oj
Ġplu e
Ġfren e
Ġor a
Ġofici alaj
ÄĿ antaj
ĠB ern
Ġle vis
ĠBa h
Ġpoe zio
Ġsuper a
Ġprezi dan
Ġtutmon de
ko sta
um ojn
uj a
ch i
ĠÂ Ĺ
Ġkur son
Ġefi ka
Ġega le
Ġcel is
Ġka vali
ĠÄĿu i
Ġblu a
ĠC x
ĠHis pana
Ġpriskrib i
Ġser Äīo
ka ux
ton oj
Ġpas igis
Ġvide bla
Ġener gi
Ġkov ri
Ġgener alo
s am
ĠK ru
ĠK aro
ĠB as
ĠlaÅŃ le
Ġjus teco
ĠPra go
tan tan
ĠD ion
ce ano
Ġsve da
Ġb la
Ġ3 4
Ġpar t
Ġ3 9
grafi aj
Ġde veno
ul ing
os a
pu ro
Ġampleks a
kolor a
Ð ´
ĠM ol
Ġkomen toj
6 4
le gis
ĠA ten
Ġnom broj
Ġ193 0
Ġ 00
la ta
di oj
ĠP ek
tu ÅĿ
Ġno kte
Ġres pub
Ġprodu ktas
Ġkos mo
ÅĿ te
Ġrekomen das
Ġsimi lan
Ġh as
Ġregis taroj
ĠreÄĿi mo
Ġe cx
Ġde lika
Ġpoten con
Ġsenpa ge
u el
ĠP lu
Ġser v
ĠPri vata
wi ki
Ġkilome troj
Ġjun ulo
Ġ199 7
teri oj
ÃŃ a
Ġcivi tan
Ġtri bun
Ġmili toj
c ar
Ġmala kcep
t umo
Ġinf ana
Ġki r
ĠM un
Ġindividu oj
Ġgrama tiko
Ġval oroj
Ġperfor to
ĠFun damento
Ġkongres oj
ĠWi kimedia
B e
fi ki
Ġver s
Ġri t
li gen
re z
van toj
ĠAr meo
ĠInter na
ĠÄīam br
ĠÄµe tis
Ġver on
ĠÄĿu is
Ġpromes is
ĠUz anto
ĠG vineo
Ġor o
permes ilo
Ġmomen t
Ġi loj
Ġper di
il le
tur n
Ġeb li
ĠPa kis
p rin
t risto
i p
â Ĺ
Ġekz ek
ĠK vin
Ġver k
Ġle ci
ĠAn na
Ġfunkci is
dus o
Ġmes aÄĿ
v igo
Ġ ul
Ġp in
Ġpe za
Ġunivers ala
Ġinfor ma
m ono
el d
Ġkul p
Ġs ono
ĠKon stan
Ġprezen tita
ĠKo penha
Ġarm iloj
7 7
Ġhel pan
ĠUson a
Ġunu foje
Ġsub ven
Ġstari gi
de mokra
Ġ19 10
ĠC hi
Ġagra bla
Ġ <
Ġmal mo
Ġreg ulo
Ġfir me
Ġgener acioj
Ġstaci domo
6 9
Ġm ek
os e
Ġperson aj
ĠPa ul
Ġ198 9
Ġpa con
Ġscien c
Ġme trojn
Ġkam ara
ĠFili p
Ġfa ktoj
b lajn
Ġnig raj
b ser
ce li
ĠH ol
Ġa diaÅŃ
Ġt un
Ġinteres oj
N A
ĠM en
Ġpa ÅĿo
par oj
ĠNi kola
Ki al
Ġtraj toj
Ġk uba
is o
ĠEgip tio
Ġmirin da
Ġbil d
u k
Ġelek tas
Ġrezul tojn
Ġklopo dis
Ġaviadi lo
Ġof ta
Ġpas intaj
Ġkontribu is
Ġpo emo
Ġmal kres
ĠÄ Į
kri min
pro vi
Ġstu doj
vad ministra
Ġh orizon
Ġmenci as
vad oro
p ajn
z ado
Ġma t
6 2
Ġal teco
Ġdis ko
Ġenha vadministra
ag ren
I C
Ã¡ r
ko t
Ġkal kul
Ġrime do
7 3
ti ÄĿon
f ur
Ġpre mo
Ġsta cio
ĠRe volu
Ġspeci alaj
ĠÃ ¦
Ġsubten on
Ġno kt
Ġtu ÅĿ
p p
ton on
ĠC ha
ĠÅĿa tis
Ġunun ura
N a
ma la
ej mo
ĠKom ence
Ġmili onojn
Ġgru pon
Ġ199 6
Ġgrun do
Ġrila ton
Ġhal tis
ĠdaÅŃri gi
Ġtrajn o
Ġtom bo
h oj
Ġk ub
Ġi gn
Ġdis Äīi
Ġtradu kita
ti gu
ĠP en
tu te
Ġprepar i
te d
men ko
Ġkonsis tigas
ĠAs embleo
Ġkoordina toj
m il
Ġi ÄĿi
Ġmalfer mi
k y
gan oj
gru poj
fi lo
Ġmalami ko
gra de
Ġtito lon
ĠS to
Ġste loj
ĠA fgan
da dis
Ġkan a
Ġg ita
ĠDistribu ata
F ine
Ġes ence
Ġinfor mis
ĠInter reto
g vajo
Ġpoliti kan
Ġreg ulojn
Ġgener acio
ĠPortuga lio
b ia
g lu
li e
am as
ĠJo ze
Ġfeli Äī
è ¡
Ġdo laroj
pro te
Ġer aro
ĠM uzaiko
tu la
Ġamas o
Ġprote kti
Ġh ieraÅŃ
ĠK ur
Ġ5 5
Ã© s
Ġpropon on
Ġori ento
Ġunuo paj
Ġvid pun
Ġfran c
ĠEsperan taj
nom a
K io
l s
kov ri
Ġsal ono
Ġmalvar ma
i doj
li c
Ġv io
ĠO fte
Ġbele ga
R E
aÅŃ ri
Ġnorma le
ĠVi ki
ĠZ e
ĠNun tempe
T V
h n
Ġde zajn
ĠÅĿanÄĿ iÄĿis
Ġen mig
tra ta
Ġfla go
Ġposed anto
Ġre tiri
de joj
B N
âĢ ²
Ġmon taro
Ġfo tojn
Ġve tero
rek ven
ĠIMG P
Ġmanif esta
per is
Ġpro por
Ġkom is
ĠD ar
Ġfor mi
Ġaten te
Ġblan k
ĠI LEI
Ġdisku ti
Ġsufer as
Ġgx is
ĠRe vuo
Ġeston ta
Ġdire kti
Ġkonsta tis
Ġmova don
w s
Ġno ve
ĠÅĿan con
Ġabso lute
T re
ul d
Ġj ur
Ġsin cer
gu a
ĠRen kon
Ġniv eloj
ĠSam tempe
ĠKore io
te blaj
ĠKatalun io
tin on
paro lis
Ġarki tek
Ġtal k
' .
t ren
u is
ti von
Ġeks pli
Ġbe zono
Ġpro kras
Ġtem is
ĠVla di
Ġdefen di
or ia
ĠL isto
Ġlabor oj
ĠKato lika
ĠS on
ĠKolom bio
Ġpo loj
Ġfen omen
Ġ195 0
C en
Ġin vers
Ġn ub
Ġin das
Ġparo lado
f la
Ġpor don
ĠN iÄĿ
Ġlan da
Ġeb lis
Ġkontro lo
Ġrapor ton
Ġkontin ento
ĠÄĪeÄ¥ os
Ġsen s
Ġki an
ĠK ara
Ġtiu tempe
Ġpas inteco
ĠÂ» ,
a ÄĿa
s s
Ġmal ÄĿus
Ġmalfer ma
Ġsen ti
Ġmul ton
Ġbu ÅĿo
Ġeten diÄĿas
A J
Ġmi zer
Ġelek ton
h em
en io
Ġfor taj
Ġg ras
um ita
Ġeb lon
ĠMon do
Ġgas toj
Ġserio za
ĠC am
ĠRo bert
Ġsupoz eble
ĠÅĿ u
Ġmesa ÄĿon
en taj
Ġv el
Ġal veno
daj xo
Ġnek re
Ã¼ n
Ġrapor tis
em oni
Ġsign oj
ĠE DE
Ġtri an
p lik
Ġmal ven
po ka
Ġkom isiono
Ġri d
ĠlaÅŃ longe
ch t
ĠCom mons
ing en
ĠF ern
Ġorig ine
eb o
ĠSi rio
Ġbezon oj
ti mo
ĠCivi to
Ġa gen
ĠÄī er
Ġinter rila
Ġdok tor
Ġekonom iaj
__ __
Ġ3 7
Ġ| |
ĠinaÅŃ gu
Ġh in
Ġh uman
Ġma ga
Ġflu go
Ġplenum as
w in
or us
Ġj ud
ĠM es
Ġer aroj
Ġg ren
co s
A L
Ġkontra ux
pla y
m iloj
kciden te
ĠNov jor
Ġapli ki
Ġa Äī
don is
Ġar t
Ġspi rita
ko loj
cien co
o t
Ã¼ r
S ub
Ġdum e
Ġfrem da
" ),
ĠT ek
lan don
Ġsu k
Ġpe dago
Ġa gas
Ġes tante
Ġi gis
Ġriver oj
Ġkomuni ki
Ġtas koj
ĠI u
Ġfi do
rea tive
ĠDo k
Ġli ter
ĠLe gu
Ġdok toro
tr ajn
Ġspe coj
N ov
ti loj
us kri
fi r
ĠP on
Ġsu dori
Ġfoli oj
P ar
j i
Ġpor d
ve turi
ĠloÄĿ ejo
Ġaser tis
Ġs ku
Ġsi das
Ġfor igo
Ġkon i
Ġpli mul
Ġfren ez
Ġakade mi
ul inoj
G ra
Ġp ur
Ġpoliti kistoj
ĠMo dulo
m s
Äī ar
ĠK r
Ġinter konsento
Ġ6 00
Ġlern ej
AN TO
te toj
Ġg lo
ĠI rako
Ġkos tas
Ġsol en
Ġel pens
Ġtre zor
Ġy ou
ĠÄīi el
Ġscien caj
Ġcx u
Ġkontribu i
an der
ÅĿ ajn
ĠUn esko
Ġ{ \
Ġkalku li
F or
Ġs telo
Ġme lo
Ġdefen do
Ġs ke
ĠserÄī is
is taj
pa lo
wi cz
ktan to
Ġb ier
ĠS z
du ro
ĠCh ris
Ġkampan jo
me z
Ġver aj
Ġtu ro
ĠaÅŃto mo
Ġmalo f
ĠSoci eto
9 8
I L
Ġn elonge
voj a
Ġpra vas
tion s
Ġescep te
O r
mi le
ĠH or
Ġcxi u
n or
ab a
Ġmur oj
ri gi
Ã³ w
Ġkandida toj
w er
Ġkri m
ĠGa za
Ġorgan o
T he
ĠE K
Ġaktiv uloj
Ġs pon
di te
Ġsam seks
Ġprovi zi
Ġtran Äī
Ġjun ulara
bal l
ĠBudape ÅĿto
Ġnu tra
æľ Ī
Ġs kribo
ĠP aro
Ġproksi maj
Ġakcep tita
Ġjen aj
Ġf em
vi ÄĿas
Ġtie le
ĠNo bel
Ġopini oj
Ġstre Äī
Ġ4 2
Ġdefini tion
vetur is
g uloj
Ġsur faco
Ġkov ras
te go
ĠFre e
Ġsu ver
Ġ ~
Ġtro veblas
Ġeksci is
Mul taj
âĢ ī
ĠU sti
Ġespl ori
ĠTut monda
k tantoj
gu la
Ġher b
Ã ł
man n
Ġmar ks
Ã¶ r
ks em
Ġamaskomuni kiloj
Ġsan kte
ĠKopenha go
k l
fer on
Ġnun aj
Ġcer emonio
Ġpere is
Ġforlas i
an kaÅŃ
er no
ĠÄĿi ajn
Ġklas oj
ta Äµon
Ġn ulo
Ġefi ke
z aÄµo
Ġs umo
Ġmi r
ĠSa int
Ġsubskrib is
ĠL or
aci an
lin a
c anoj
u g
Ġe terna
pa ta
kta to
ec aj
Ġnekon ata
ĠSu per
Ġi doj
Ġma poj
Ġlin ioj
Ġres tari
plen aj
and ar
Ġuti las
f to
âĢ İ
ga taj
Ġmo der
da v
ĠH it
ven oj
Ġsam kiel
pu d
Ġaspe kton
Ġkultur on
Ġbab i
man ta
Ġ4 9
ec an
en tojn
Ġan o
de kso
Ġkel ke
Ġbaz aj
Ġhttp s
b y
Ġklopo das
Ġrifu ÄĿ
H a
U R
Ġflan k
Ġdon u
Ġhun do
Ġnig r
Ġgh in
ĠVjet nam
8 9
Ġpla co
ĠJes u
O S
ĠÅĿ to
Ġle gado
Ã £
Ġrigar don
ĠMadri do
Î ±
ĠS ol
vi r
us z
don io
Ġins ul
Ġpoten ca
Ġpale stin
is moj
Ġg ig
Ġta Äī
Ġesperan tan
Ġ4 00
Ġinfor mas
Ġkapita lismo
ĠFeder acio
Ġi gas
Ġforges u
Ġm uze
Ġal fron
Ġju ÄĿis
Ġimpres on
D u
Ġa vi
ĠK D
Ġka dro
Ġter ur
Ç Ķ
ra ta
ĠK ia
Ġda to
Ġpi oni
Ġmontri ÄĿis
Ġaper i
Ġpun ktoj
ĠE konom
Ġg li
Ġesperan te
Ti uj
Ġdek li
Ġekonom i
Ģ è
lo goj
Ġliber aj
Ġuti li
Ġminim ume
Ġdor mo
ĠFa cebook
Ġ 01
Ġdisku toj
Ġdezer to
Ġele mento
Ä¥ io
K ro
rin te
Ġsubten is
Ġpli ajn
ĠKi r
pisko po
ĠPakis tano
Ġte Ä¥
Ġeks a
Ġfoj ojn
p ia
ĠAn t
Ġstran ge
ĠV ere
Ġnor dori
Ġorganiz as
Ġse le
Ġel ÅĿuti
Ġfor umo
Ġreligi oj
Ġm am
Ġfil on
ĠmaÅĿ ino
Ho diaÅŃ
ĠÄī agren
Ġg ol
eri ka
Ġref le
Ġmon tran
Ġves toj
Ġgas ti
c t
Ġne ÄĿo
Ġko lo
ĠÄīef o
s ign
Ġvari as
E M
or k
ĠK ana
Ġdivers eco
gn e
Ġami kojn
Ġrakon t
Ġaran ÄĿi
E ble
G erman
ĠB rus
ĠG ab
Ġbezon ata
ĠUr bo
Ġap lika
Ġtekno logio
Kore io
a toj
ĠH an
pi on
Ġlabor ista
Ġtri o
P oste
Ġa fab
Ġmona tojn
Ġpoliti kisto
ĠM ale
ĠB us
Ġku ir
Ġpopo lon
Ġradi ka
ĠÄīam bron
ran taj
Ġlasta tempe
Ġtru poj
Ġkonstitu cio
om as
Ġlan daj
ĠNe ces
Ġter eno
Ġsitu anta
vide bla
Ġhel pe
Ġaso ci
Ġbrus to
Ġfes tivalo
li ma
Ġkun teksto
Ġfi er
Ġespl oro
ĠTra du
Ð ¼
Ġkun por
ĠN om
g ma
ĠÅĿ il
Ki u
Ġokup iÄĿas
gra fo
Ġesplor ado
ĠBul gario
Ġmal le
ĠMar k
Ġespl oroj
Ġmenci is
ĠNorve gio
Ġre ÄĿa
ĠA IS
kor e
fek tive
Ġkonsider is
Ġk in
ĠKon ferenco
ĠRe gis
Ġvikti moj
ÄĿ intaj
Ġoku pas
re da
Ġorgani za
Ġkvan ton
ĠEstr aro
n ur
Ġmi kro
Ġmemsta re
ĠR am
Ġmallon ge
Ġvetur is
. -
C e
Ġf leks
lau de
Ġsi la
Ġsin dika
Ġkunlabor i
Ġplenum is
v oro
di ono
ĠE x
Ġenke toj
U ni
ĠaÅŃ das
ĠKon traÅŃ
ĠZ a
Ġmodi fi
Ġadap ti
Ġplez uro
is tojn
Ġku ÅĿis
kci a
Ġekzis t
ĠanstataÅŃ e
Ġprovi zas
Ġi t
ĠFran c
Ġkol oroj
Ġgerman an
Ġevolu on
p lon
ar y
ĠpaÅĿ oj
dis ku
son a
f lor
x is
di on
tri a
Ġvo k
Ġbran Äīo
ĺ ĩ
ar t
ĠJ ES
Ġcivi li
arden o
Ġmateri alon
un doj
Ġkam p
ĠAli flanke
Ġarg umentoj
a di
Ġar ta
Ġbata li
i me
ti kajn
ĠT uj
Ġkri tiko
an tajn
Äµ a
tu o
Ġdisvas tigi
Ġinterv juo
8 8
Ġde legi
Ġre kom
ĀĀĀĀĀĀĀĀ ĀĀĀĀĀĀĀĀ
Ġportuga la
f eli
Ñ Į
ru p
la vo
ti po
Ġf run
Ġtra kti
Ġevolu is
Ġlitera tur
Ġkatoli kaj
b ul
Ġan ÄĿ
Ġta ksi
Ġdeci das
A P
Ġv ino
Ġm os
Ġre tum
Ġjen e
Ġfilozo fo
zi l
Ã¡ s
Ġkur s
Ġis ra
Ġpen e
ĠÄľ uste
Ġde stin
ĠF al
Ġzor gas
ĠIS BN
è¡ Ģè
ĠSe p
Ġba zon
Ġorganiz antoj
Ġesperantis tojn
Ġ{ {
ĺĩ æľĪ
è¡Ģè ĺĩæľĪ
Ġkan tas
tran s
ðŁĺ ¨
v aloj
ĠG or
pren as
Ġplej parto
ĠO kaz
d f
Ġ4 4
V en
k iÄĿis
kon greso
Ġfin na
rigar dis
. ).
ĠÄīapi tro
Ġinteres e
Ġregu la
f ru
ber io
Ġprofes iaj
Ġmenci itaj
Ġo li
Ġsen das
ĠAndre o
ĠUsti menko
Ġh im
Ġpla t
Ġkli mato
Ġva por
ðŁĺ¨ ðŁĺ¨
Ġmal gaj
-- --
Ġmalri Äī
fici ala
Ġdeci doj
Ġinflu on
Ġinicia to
set ti
va dis
Ġru b
v igi
Ġinteres on
pe talo
Ġunu ajn
Ġven dre
Ġeb ligis
ÅĿta to
Ġat mos
ĠJor dan
Ġekkri is
Ġ ]
Ġk is
Ġpro greso
Ġru in
Ġmalsam ajn
ti koj
Ġsim il
Ġkatal una
di vi
Ġg lute
Ġneces o
t to
st yle
Ġf ono
fer m
Ġpl or
rin da
ÄĿa dis
Ġprin tempo
Ġorigina lan
Ġti mis
Ġdu foje
Ġpos taj
ciklo pe
c tor
y o
ĠB la
so ci
bon a
Ġinten cis
Ġch u
ĠÄµurn alisto
Ġalfab eto
Ġde fi
Ġg ene
ĠaÅŃ tuno
Ġfi as
Ġpropon oj
j aro
Ñ ĭ
ĠsenÄī ese
Ġp se
Ġang le
- ,
Å Ľ
Ġf eti
Ġfor i
ĠKi om
Ġmals anoj
fa lo
Ġdeci don
Ġrespe kto
Ġelekti taj
201 5
S h
b ris
g ebla
Ġ tan
Ġfor igita
Ġfon dinto
ĠJu lio
Ġmeri tas
ĠM u
Ġpli an
Ġ198 7
c us
k vali
Ġden un
tiko lo
Ġrakon ti
Ġval ora
Ġordon o
Ġuniversita toj
lan taro
m un
Ġinter tra
be la
M O
t te
Ġ ï»¿
ur as
ĠK ali
ĠS loven
ĠP aci
lan ko
Ġdis krimin
Ġra b
ĠSi mp
v ara
x on
ti ma
Ġsen toj
ĠJ on
Ġle viÄĿis
Ġnu da
Ġprodu ktis
Ġgla ci
j oroj
las ta
Ġinfor mado
ĠaÅŃto mata
l n
Ġsu d
ĠIzra eli
Ġmodi f
Ġkri is
Ġi ÄĿos
Ġpro centoj
las o
Ġsoci eto
Ġmalbon aj
m us
Ġkons il
Ġprofes i
ĠVene zu
ĠS ar
Ġkor p
Ġdan a
Ġekzamen o
do si
l ori
Ġpre mis
ĠÂ °
ĠI om
Ġkons cio
ĠIn done
Ġfra g
Ġkal endaro
ĠHun gara
Ġre veno
Ġven u
ĠAn koraÅŃ
Ġtur ni
Ġron do
ĠN igra
Ġna i
Ġkan tojn
Ġbrazi la
s paco
ĠL es
Ġli g
raj ta
Ġinteres ajn
f em
Ġman uskri
Ġmas trum
n ia
ĠC reative
Ġfa kuloj
Ġ4 7
b ek
Ã Ł
Ġinf ek
Ġ ÅŃ
ĠÄī inaj
Ġb iero
ĠÅľ an
ĠB ea
ĠÄīar to
Ġdin astio
Ġri belo
ĠMi cha
ÅĦ ski
ra dis
ci as
ĠE ri
Ġpost eno
Ġreprezen tanto
Ġretpo ÅĿton
Ġ[ âĢ¦]
ba ch
Ġpla Äīas
Ġdor so
Ġkongres on
K ion
e u
ĠP ub
Ġman ÄĿis
ho u
Ġkuti mo
Ġmis kompren
Ġmall umo
k var
Ġdis er
me tas
Ġpa pero
Ġvin tro
Ġmortin ta
8 4
ĠK la
raj to
Ġvor taroj
la mo
Ġtrankvi le
Ġmanier oj
pi Äīo
ĠEk z
Ġpatr on
ĠHen riko
Ġorto do
ĠAnton io
è¡ĢèĺĩæľĪ è¡ĢèĺĩæľĪ
Ġam bas
ĠÄµ et
Ġligi loj
Ġdipl om
ĠAnti cipo
Ġen to
Ġmem br
Ġkos to
B o
Ġg al
Ġsub en
fra toj
Ġrestor acio
f ona
i toj
Ġle gu
à ¤
Ġperfek te
K ar
Ġkon feren
Ġinteres as
Ġstu d
Ġgim na
for o
Ġad vo
Ġkuti m
Ġaspe ktoj
Ġe tos
ĠD en
alis ma
Ġprepar is
Ġdepen de
ĠdanÄĿ ero
D F
Ġro mia
Ġplu vo
Ġpren u
ĠWi ki
Ġen skrib
K omen
w it
Ġpen tristo
ĠBal daÅŃ
dis play
Ġha veno
tor ioj
Ġten as
Ġkli entoj
rila te
f ami
g ni
Ti el
cer do
Ġf eri
Ġtekni ko
ĠOn do
Ġfor mojn
umen ta
Ġkarak teron
Ġcel ojn
J un
Ġre alo
ĠN E
Ġri gi
Ġpen is
Ġvoja ÄĿis
viden te
ĠÅĿ tono
Ġri par
Ġfar iÄĿos
Ġindividu aj
ĠdediÄī ita
man toj
Ġgaze taro
9 2
c ere
n um
Ġpro le
em p
Ġpa ÄĿojn
Ġkongres anoj
Ġtrejn ado
Ġepi zo
5 00
Ġkonser vas
su pra
u da
Ġa f
ĠIn stru
eder acio
Ġfeli Äīo
ĠneÅŃtra la
Ġ _
Ġb ol
pi Äīoj
Ġme t
Ġdeci d
Ġm ame
da Äµon
Ġ19 19
nu daÄµo
Ġsvis a
ĠB ata
iÄĿ ante
ni ve
Ġeldon ejo
Vi du
Ġkapita lo
Ġevange lio
ĠM il
Ġa van
Ġka dav
Ġeks ta
ti goj
don u
Ġfo ton
Ġves t
Ġorig ino
kor do
Ġfir m
Kon greso
display style
d res
ten e
Ġro l
Ġsil ento
Ġpozi cion
Ġmova doj
Ġfig uro
ĠB ela
ĠAn stataÅŃ
Ġofi cistoj
a ton
Ġt um
ĠP rus
ĠkontraÅŃ di
Ġjus ta
Ġvi kipedi
Ġcer bo
ĠGerman ujo
Ġdom in
Å ĳ
ci p
ĠG eo
Ġkre o
ba to
Ġkvin dek
ci i
kom er
ĠRi ch
Ġa ku
Ġfor tojn
Ġeks pedi
Ġkan ton
a doj
kla ku
Ġofi cialan
Ġregi ona
Ġpoliti kon
Ġmalno van
Ġdor m
Ġkonser va
ĠÅĿab lono
Ġe gip
tur ojn
Ġkomun aj
ĠLe on
h ej
Ġ Ø
la Äµoj
Ġ4 3
Ġsper ton
Ġdire kte
ĠKris tnas
ĠVla Äījo
Ġh ospita
ĠMon go
Ġregu laj
da tum
Ġkun ordi
Ġka pabla
Ġkongres a
ĠGeor ge
Ġpri vi
Ġaten to
Ġnor d
Ġligi lon
Ġ190 5
Ġstrate gi
Ġg ro
Ġpa go
Ġdona co
Ġkresk anta
S in
ta toj
Ġak tor
Ġfil mon
Ġdifin as
Ġinstitu cio
Ġa posto
Ġfami lia
logi e
Ġdol or
Ġe ka
Ġpro sper
Ġsen mo
Ġcer tas
Ġsukces os
Ġim pon
Ġedz in
ĠVjetnam io
B C
v y
la Äµo
Ġla ci
Äī ojn
Ġmon tro
Ġling van
Ġtre j
Ġknab inoj
ar th
ĠI N
ga ze
ĠBi blioteko
Ġran do
Ġmodi fita
Ġp el
ĠO S
Ġpas int
Ġnajbar aj
ĠKon s
ÅŃro pa
Ġtiam aniere
Ġaspe ktis
g la
Ġkons um
Ġcen toj
zer baj
p oni
for to
Ġfa kul
Ġkomun um
Ġega las
c ki
ĠkaÅŃ zoj
flu o
Ġgej un
K rom
Ġmor ton
Ġren vers
Â Ķ
Ġdun gi
er an
Ġkom isi
Ġgvi d
Ġpor naÄµo
Ġ( ...)
Ġerotika Äµo
S an
en tis
Ġko st
tem aj
N eni
g s
om io
Ġpor tre
ĠdanÄĿ era
Ġan stata
Ġke mi
tern acia
Ġspeci fe
Ġfunkci oj
Ġkru c
Ġata koj
Ġrevi zi
Ġkv ina
ĠEston io
A lia
l istoj
ĠaÅŃ stra
Ġar ÄĿ
Ġaldon e
Ġfi din
Ġsukces on
Ġins is
ĠAt lan
Ġagri kulturo
ĠâĢ İ
ni velo
Ġa ri
ke tojn
he im
Ġelsen do
H is
Ġf rekven
Ġse zono
lu lo
ĠÄĪ irkaÅŃ
ksi taj
uti me
Ġrekom pen
R I
k lon
Ġkontra u
ĠVenezu elo
ig us
Ġtra ktas
Ġkontribu oj
Ġjar a
Ġkomer caj
Ġrecipro ke
XX X
i ce
z berg
ĠEs pero
Ġfun eb
Ġelek tra
ĠRo ter
Ġs lo
Ġ4 6
fe ti
Ġkristan aj
Ġde vi
ĠV as
Ġpas as
nu da
Ġprovin coj
Ġgrave co
Ġpo lu
ĠA bra
Ġap arato
Ġson as
E D
t ve
te mo
rin a
Ġmalkov ri
gra m
Ġkre into
Ġpermes i
Ġprop r
Ġlas as
ĠTo go
Ġpas tr
Ġhid ro
Î ¿
man e
ĠSpe ci
ĠHin dio
ĠAfgan io
p toj
Ġh an
ma ÅĿ
ch el
ĠPo z
Kel kaj
ĠÅĿi poj
gx on
Ġata kis
ĠScien ca
T I
Ġta ge
Ġbon gus
Ġalko ho
E G
Ġpor ti
den ta
Ġokaz aÄµoj
Ġeni rejo
b eloj
mi ks
Ġkomputi loj
Ġmalfor ta
an aj
al t
ĠF ab
Ġdeta lojn
oj o
Ġsa teli
ĠaÅŃskul tis
Ek zistas
Ġf ur
Ġsur fa
Ġser vojn
Ġ4 1
Ġflug haveno
in tajn
po ten
gra do
kta ta
ĠTo ki
Ġhere daÄµo
b jek
ĠA p
Ġfor mor
Ġim pos
iÄĿ inte
Ti am
Ġgajn i
Ġsup r
Ġpropagan do
Ä ħ
Ġarki te
h as
Ġsen sen
Ġkor to
Ġofi ce
ĠLu ksem
Ġinvi tis
Ġmal pe
Ġsi di
ĠLa t
Ġkan ti
Ġpriskrib is
Ġpru vi
Ġmalal taj
Ġmeze poko
Ġkonsta ti
Ġmal laÅŃ
Ġver kas
Ġju ÄĿ
Ġson or
gos la
Ġvege ta
d ul
f ano
ko ti
kur soj
ĠNa pole
Ġmenci i
ĠPrin co
Ġdi men
Ġter tre
am ori
Ġtatuaj es
O J
pu go
bel ulino
ĠTra ktato
m oro
Ġsub stre
ron on
ĠdaÅŃ ro
Ġkur sojn
Ġdona coj
Ġne p
Ġman i
Ġfer vojo
Ġ194 0
Ġdiferen ci
č Ċ
Ġg i
Ġfin on
ĠRaj toj
Ã ¦
Ġ19 17
ĠNe palo
Ġpublik igas
ĠvoÄī on
k r
w o
Ġbi en
Ġpu re
Ġ1 000
ĠU l
Ġpa g
Ġefi kon
ĠriÄī aj
v na
ci co
po va
gh t
Ġr ing
Ġkapita lis
ĠFun damen
Ġrigar du
Ġvenon taj
Z e
Ġs kato
de man
Ġmals ama
Ġaten d
Ġpreci z
tal ino
Ġpara di
ĠVirg ulino
f onoj
k um
Ġjun ularo
Ġofer tas
c ata
m amo
ĠG ener
Ġnova Äµo
Ġkapab loj
Ġ194 8
Ġhar moni
ĠAng la
k tulo
w ard
Ġal proksim
ĠA dam
Ġma teno
si der
ĠÄľ ene
Ġdiferen coj
dor f
ĠT eo
ĠB is
Ġplej multo
Ġkor id
Ġare on
ĠNovjor ko
h x
Ġper do
Ġle teroj
Ġnaj bara
s is
Ġka tedralo
Ġdeks tre
Ġrevu on
j aran
Ġne kuti
Ġsub a
k antoj
var io
Ġinflu is
ĠreÄĿ ino
Ġkompon isto
a tajn
b ras
y d
ĠK ra
Ġfil m
m amoj
Ġa ÄĿa
le ton
ĠM us
Ġmal bono
Ġfor pe
Ġligi lo
Ġfeti Äīismo
Ñ ĩ
Ġb un
Ġ19 18
Ġkol om
ĠÅľ ia
ka co
Ġscien coj
Ġparola ta
pe ci
Ġ8 00
Ġab omen
Ġmalfru a
8 5
ci coj
ĠTo kio
Ġmas tro
ĠQ u
ur s
Ġden sa
Ġgen u
ĠJos Ã©
L as
c ero
ĠNi ko
Ġnaci an
Ġkli ma
glute oj
pu goj
vin te
ori ento
eks hibicio
glute o
mame go
mame goj
ci vi
pi taj
Ġdisku t
Ġinternaci ajn
9 5
Ġ å
g ener
Ġru bri
Ġrecipro ka
ĠÄµur nalo
ero tismo
Ġkomun e
Ġba p
Ġintern aj
AT O
) )
ko kri
Ġek rano
je viÄī
ĠJos e
htm l
zerbaj ÄĿ
de to
ĠRevolu cio
Ġtradu kisto
Ġpe ko
Ġjun ulino
ĠBj alistoko
Ġfunkci on
Ġprovi z
ĠBon e
c tion
pon o
tor ia
Ġsubjek to
ĠA N
Ġgvi das
logi an
Ġsam ajn
zen o
Ġpas aÄĿ
Ġpopula raj
Ġdisvas ti
Ġproces o
Ġnee vi
ĠPek ino
feti Äīismo
d aro
ti u
Ġf um
lo koj
cel ist
mid zi
ĠInf anoj
Ġa ci
Ġsen ton
Ġespri moj
Ġmalfer m
ĠIzraeli doj
el li
qu es
Ġ193 9
ta buo
ĠB ran
Äīi esulino
ĠWor ld
lan gumi
Ġpli e
den toj
Ġeb laj
âĢĻ ,
seks umi
mid zo
mid zumo
ses deknaÅŃi
Ġlern u
Ġbata loj
ĠInterna tional
8 3
S S
s ia
Ġi lu
Ġden toj
] )
os to
Ġtem ojn
ze co
Ġkul ti
Ġuz adon
k ano
ĠD omo
Ġof taj
Ġoku lo
Ġpoten c
ÅĤ o
Ġkristan ismo
Ġkom pi
Ġpublik igi
Ġtradi cie
zi to
ĠI van
ĠF es
ĠMa g
th ink
teg ori
dis mo
Ġstruk turoj
L u
Ġplu a
Ġaran ÄĿis
Ġrezul ton
Ġefek ti
Ġbran Äīoj
Ġkatastro fo
ĠS oma
Ġpi ra
Ġkonsis tis
Ġkongres ejo
Ġres an
ĠIli a
Ġkole ktis
ci is
ĠÄĿ em
on t
Ġs kalo
Ġlan Äīis
Ġgepa tra
ciklope dio
d ino
z aro
ter s
Ġmal uti
ĠF la
Ġsta ton
Ġsol von
Ġher ed
Ġali ron
Ġar tisto
Ġaldon o
Ġeb lo
Ġsa cerdo
Ġrigar dante
Ġenha vis
Ġkomuni k
reta rio
ĠmanÄĿ aÄµo
Ġun uso
si ko
Ġtermin ojn
Ġniv elon
k es
u te
Es tis
Ġerar ojn
Ġ $
ti ro
ĠD ec
ĠC O
ti tan
Ġindi ÄĿ
Ġes e
lo gis
Ġne gle
Ġmon umento
Ġfa kton
Ġro mi
Ġindi ko
Ġami keco
Ġripo z
ĠIn di
Ġele ktoj
ami k
Kom un
ĠTu te
vil le
Ġfon diÄĿis
ĠPre zi
Ġpremi on
Ġredu kti
Ġpri celist
Ġim per
Ġinstan coj
ĠIndone zio
Ġvi vantaj
tu ala
Ġpa ÄĿaro
Ġkri mo
Ġklari go
ĠÄĿu as
Ġplenkres kuloj
A E
eb a
Ġesperan ton
ĠCh u
200 5
Ġener gion
Ġpse ÅŃ
Ġli br
Ġunu eco
Ġest ing
Ġjun ula
Ġde puti
Ġri bel
Ġokciden taj
Afri ko
ra ÅŃ
Ġc ar
kun si
j am
Ġmili tis
Ġfra t
Ġekzem plon
Ġpreci za
omen te
Ġesta b
Ġliber an
Ġkap titaj
Ġ196 8
Ġtransfor mi
Ġde vo
lo g
tan tojn
ĠÄīirkaÅŃ aÄµo
Ġfru ktoj
Ġlerno libro
tan tajn
pro fun
ĠKar l
ĠSer bio
ĠS or
Ġfaj r
Ġenkondu kis
re y
Ġes ka
ĠH um
Ġm ara
pon on
Ġtaks as
Ġf ek
Ġkomen ca
Ġdan c
li m
ar ado
Ġfil me
ĠÄĿus t
Ġhipo te
Ġf anto
ĠI II
Ġtatuaj e
is m
Ġpre zoj
vin co
Ġrila taj
tura do
Ġdialo go
TM L
ĠRoter damo
m y
Ġde st
Ġli goj
Ġves to
E I
k eno
ĠE ven
Ġsen dita
ven i
Ġkva za
dar eco
Ġmala gra
Ġmalproksi ma
Ġrevu oj
ki uj
Ġvi din
ĠEsperan tan
Ġmuni ci
Ġinteg ri
ti fi
Ġin ci
Ġankor au
Ġkvar dek
Ġkapab lis
op ini
Ġsocialis ma
ĠE vange
âĢ ¢
Ġmo v
Ġkan t
Ġvas tan
k tante
om i
Ġci gar
ĠHer zberg
ĠC X
201 4
ĠmonaÄ¥ ejo
Ġkondam n
P ol
ran a
Ġali re
ĠÅĿta taj
Ġmatema tiko
Ġi mi
ce zo
Ġinteres an
Ġadministra do
Ġtransdon is
Ġa vo
Ġesplor is
Ġkli ento
Ġtend aro
ĠM ora
iÄĿ us
Ġali loke
ut h
Ã£ o
N ur
P as
c ke
kon gres
ĠB run
lu do
Ġmek an
P lej
Ġs la
ran toj
Ġpartopren os
Ġami ke
Ġdivi do
Ġekzis ti
Ġstu dento
on e
in tojn
do k
ol k
Ġres tado
ĠHis torio
Ġmallon gaj
Ġkoloni oj
ĠRigar du
. ),
ĠÄĿener alan
Ġgrave con
ĠlaÅŃ te
Ġklari gojn
ĠIs lando
Ġgra fi
Ġ193 2
Ġindustri a
Ġin cen
Ġar bi
Ġpa gas
Ġ: )
Ġkar aj
Ġmiliar doj
Ġpo le
Ġar on
Ġak cen
Ġnor mo
igita n
Ġtermin oj
i za
Ġp ano
Ġpen tris
fa vor
Ġneces aj
Ġb run
Ġsub me
Ġ198 8
le go
ĠE tio
Ġ7 5
komun umo
Ġ >
ve jo
kan a
Ġpie di
ti gos
Ġklopo doj
Ġmale b
ĠNikola o
Ġb uti
Ġver daj
Ġokaz aÄµo
Ġkomple tigi
Ð¾Ð ²
Ġhungar oj
m ara
Î ¹
Ġnom iÄĿis
Ġma li
kar to
Ġelsta raj
Ġkompli ka
Ġsen es
Ġkons ento
Ġtrankvi la
Ġforma to
ĠS eb
Ġdi ka
ĠG lo
Ġprezen tado
labor o
Ġvoja ÄĿi
I T
Ġfin iÄĿas
Ġkan alo
Ġrenkon tas
Ġdiri te
Ġfizi ka
m ur
p oro
Ġli terojn
Ġinter kompren
Ġmas tr
ĠTh omas
Ġestrar anoj
Ġgejun uloj
Ġen loÄĿ
Ġdu bas
for t
sta cio
Ġce ter
Ġregis taron
Ġab sur
Ġvizi tas
ĠRom ia
Ġduo bla
il van
ĠG ub
pen o
ĠKomun umo
Ġ5 4
eb lajn
ĠHis pan
Ġlar ÄĿ
Ġvig la
Ġetern e
men a
perio do
?? ??
te in
ĠA us
Ġgra fo
Ġpens ojn
Ġkapab lon
Ġfra zon
? )
Ġg or
Ġmal di
Ġkomun ismo
Ġam is
ĠDom ini
P S
h l
Ġin o
da ÅŃro
kon to
mi la
Ġtur istoj
Ġsoci an
Ġinflu as
9 4
M an
l ero
Ġ5 2
Ġakcep t
Ġgrand parte
Ġprote kto
lova ka
Ġpreter pas
Ġkonsci as
picx o
ĠMicha el
s cen
en da
Ġg es
Ġkom ento
Ġtre ege
pu ÅĿ
Ġparo lo
gx as
P A
Ġk us
ci ajn
Ġtu to
Ġmals anu
Ġdistri ktoj
ĠSek ure
Ġro m
Ġgvi do
Ġhor lo
ĠLing va
Ġurb estro
Ġf loro
Ġt hat
ĠP al
Ġlan dojn
Ġsin de
nu dajxo
ĠJa c
Ġega leco
Ġmaldeks tre
Ġestrar ano
picx oj
ge to
ĠGru po
f ro
Ġa de
ĠK rako
Ġo pera
Ġ198 6
Ġekzamen on
Ġsimbol oj
ti gojn
ĠZ ag
Ġfen estroj
Ġfirma oj
Ce tere
Ã ´
Ġal in
Ġ5 8
Ġakti vaj
Ġkonta ktoj
ĠAfri ka
Ġ25 0
Ġnes u
Ġi gi
uj oj
me di
ĠÄĪi lio
ĠBar cel
a ch
h ara
Ġzor ge
ĠM alaj
Ġali ro
Ġhom an
Ġdispon as
ĠaÅŃtomo b
C H
Ġk ern
Ġes taÄµo
ĠAl ban
Ġofi c
ĠmesaÄĿ ojn
Ġla kto
in daj
Ġmon trata
ga dis
Ġpublik igo
nom e
Ġokup iÄĿis
h un
Ġti pa
Ġel ti
pu ta
Ġfa koj
Ġplan to
Ġmemor igas
Ġligi lojn
lern is
Ġtekni ka
Ġento mb
Ġtro pi
Ġlas u
Ġh aroj
par toj
Ġbata lis
ĠM uzi
tor on
Ġeks por
Ġokaz igis
ener ale
Ġlas tajn
Ġmaj stro
k tajn
ĠL ud
ĠF lu
mon d
Ġsin oni
Ġlabor a
PER ANTO
z oro
li an
Ġdifini taj
ĠSloven io
ri Äī
ĠS talino
Ġsendepen deco
Unu e
ste in
de jon
Ġdezi ron
Ġcivi liz
Ġban ko
pl or
Ġas pi
Ġmanier on
s el
Ġefek tiva
or itato
vi vo
Ġuti ligi
Ġorgan oj
ĠCor setti
Ġme j
Ġplan oj
ĠPer uo
Ġdona cis
Ġw ith
Ġe roj
ma o
Ġfer mita
ÅĿ ing
Ġpri pensi
Ġc an
Ġbon kor
Ġesta bli
ĠhaÅŃ to
Ġsamide anoj
Ġsek cioj
Ġkur is
Ġimp or
ĠDemokra tia
Ġpost uloj
Ġrus aj
ĠGran d
ĠJerusale m
ĠKonstitu cio
L U
li ÄĿas
Ġpartopren on
Ġedz inon
d ero
n aj
ĠK ing
Ġpost ulo
Ġscen ejo
Ġs oj
ĠS inga
Ġak or
li tera
ĠLe gi
Ġtenden co
in di
ĠA zerbajÄĿ
us a
ni vela
ha v
Ġ5 1
Ġ193 3
vi lo
Ġven di
Ġvor taron
kul tur
bi li
ne y
Ġre venas
ĠE arth
Ġli gas
mi ro
Ġekzis tantaj
ĠÄīam broj
Ġpriva taj
Ġe joj
Ġfa lo
Ġespri mon
Ġreven os
Ġmortin toj
K A
K ara
ig ataj
de vena
Ġel Äīer
Ġpost enon
Ġak re
Ġon doj
Ġsab lo
Ġs kribu
Ġpo von
Ġfla va
li gon
ĠAl done
Ġrenkonti ÄĿis
Ġrimar kas
Ġlingva Äµo
Ġkomita tanoj
C er
b lu
ĠJ us
Ġle gan
Ġeksci i
el sen
ĠG on
ĠG as
sta to
Ġfon do
Ġvalor as
Ġgeo grafia
Ġven ki
pro fi
ĠRe ÄĿo
logi oj
ĠFin fine
ĠJam es
Ġmon t
Ġekvi val
Ġmalhel pas
u c
Ġs tel
Ġmal kla
Ġfar a
Ġkandida to
I D
Ġl umon
Ġmon ar
Ġindi feren
in ten
ra lo
Ġpost ula
si mp
Ġtrovi ta
ĠHa vano
Ġdiale ktoj
Î ½
Ġp om
ĠE m
Ġg loro
Ġsek vanta
Ġkuti maj
Ġag or
Ġvan e
ĠE blas
Ġak toro
Ġfa zo
Ġfin i
Ġem bar
Ġ Ï
Ġp es
li lo
vi va
Ġsin cere
cep te
Ġkla ku
ĠAr menio
amenho f
Ġden se
Ġnum eron
Ġbr ul
Kro me
Ġf r
Ġf ros
ĠS un
ĠM el
em uloj
Ġfi an
Ġflu as
Ġuni verso
Ġdatum ojn
Ġfre ÅĿ
Ġstrate gio
Cen tro
ti gante
ĠH ans
ĠBo li
ĠJerusale mo
Ø§ Ù
Ġtravi vis
ig ojn
mon io
ĠTi aj
Ġekzis tanta
Ġje to
Ġfa den
Ġeb ligi
Ġrenkon t
Ġpru vas
kun veno
Ġd uling
ĠC ez
ĠkondiÄī ojn
ĠL eo
Ġle terojn
Ġbone ge
ĠmaÅĿ in
U sono
ĠA la
de la
de con
ĠMa c
blo g
Ġtas kojn
Ġride to
Ġtelefon vo
pe co
Ġdi ligen
ĠAl ÄĿ
Ġdev iga
Ġfaci l
Ġindividu o
Ġporde go
om an
Ġro k
Ġtradu kas
Ġakcep to
Ġran go
ĠHit ler
ta ks
Ġj c
Ġek iris
Ġtur men
Ġenkondu ki
Ġkonsta tas
Ġgub erni
Ġli t
ĠC laude
Ġskrib a
Ġad or
Ġmult foje
d roj
ĠB oris
ĠV is
ĠLi bano
Ġfun damento
k esto
Ġh eli
ĠkondiÄī o
pozi cioj
Ġgrande gan
ĠT esta
Ġpre ÄĿo
Ġpe zo
Ġindi ÄĿen
Ġ198 5
ĠTa is
ĠÄľener ale
ĠBlan ka
Ġen igi
Ġi do
Ġl uno
Ġa gon
Ġkol ero
Ġ194 4
Ġsenpa ga
D R
i c
lej oj
Ġsan a
ĠreÄĿ lando
ĠSoma lio
ĠlaÅŃ eble
Ġur baj
Ġsimi lajn
ĠX ian
ĠantaÅŃ an
cen ta
Ġmar ÅĿ
Ġnova Äµojn
Ġ196 7
Ġdivi di
Ġom bro
Ġetos on
Ġmal ver
zon on
Ġge fratoj
ĠKul turo
T o
y er
Ġrea go
Ġteritor ion
Ġs ving
Ġper das
Ġinter romp
âĪŀâĪŀâĪŀâĪŀ âĪŀâĪŀâĪŀâĪŀ
G e
ĠE ta
Ġinter a
et tes
ĠAÅŃ gusto
ĠMaro ko
is man
ĠR io
Ġfa ka
Ġsitu acioj
nom bra
ĠÄīees tas
Ġprogram eroj
ĠFilip inoj
ĠJ aro
Ġkro maj
Ġkura c
Ġban do
Ġordin araj
Ġmalgran dajn
Ġdivi dita
Ġeviden ta
ĠChar les
muzi ko
F on
l eri
le v
Ġmi g
Ġesperant lingva
ĠIns uloj
ĠÄľene vo
ĠB et
ĠVi vo
ĠAn dr
Ġinstru o
Ġgvi di
Ġopini ojn
Ġinten co
ĠJ ud
ĠÅľ tato
T em
ĠT rin
Ġunu flanke
ĠJ as
Dan kon
Ġler te
Ġates tas
ĠP om
ĠN AS
Ġmor ala
Ġ5 9
kan taj
ĠSer vo
ĠÄĪeÄ¥os lovakio
p ta
be to
Ġsendepen daj
lingvan oj
Ġnu an
Ã¶ n
Ġsilen t
8 6
Ġan alo
ĠKom er
kta don
Ġju ra
Ġeni ras
F in
ti lon
es pri
ĠK at
Ġle cion
ĠRus ia
Ġkunven oj
So ci
Sh are
H un
Ġtrans prenis
ĠMal fer
Ġ197 7
ĠOri ento
w are
Ġri be
Ġsoci al
Ġstruk turon
Ġani mon
" ;
w il
in K
ĠH omoj
ĠÅľ ajnas
Ġkondu ki
Ġeli ri
Ġnum eroj
tar ojn
Ġrest u
ĠVal en
da Äµojn
Ġgerman e
Ġkonk reta
L S
z am
Ġar keo
Ġeks kurso
ĠZ uri
Ġkonvin k
Ġbro ÅĿ
Ra dio
f ojn
Ġmal simi
Ġtradu kojn
ĠPar ko
Ġab stra
ĠSa ksio
Ġfide la
de ÅĿo
Ġel paro
sa y
Ġuniversita ta
ĠP rojekto
Ġkom pro
im ar
Ġanim aloj
d um
ti vajn
Ġb est
ĠA uld
ku ro
ĠÂ ĸ
Ġdona con
ĠpoÅĿt kodo
! ...
ra d
mes a
Ġsimp lan
Ġvic prezidanto
Ġscipo vas
p ur
ra Äµo
Ġel mig
Ġpropon ita
R AT
Ġpo d
ĠAn tar
Ġvar oj
ft varo
Äį ek
Ġliber econ
Ġpla Äīis
ĠVil hel
L igo
Ġsam noma
ĠPo ÅĿt
ĠÅĿan ÄĿas
Ġrapide co
Ġekzamen oj
Ġal venas
gi lo
rek toro
gh is
ĠSal om
cor de
Ġdefini tive
ĠFili po
Ġe coj
Ġa pe
ĠLa tin
ĠRe gno
Ġenga ÄĿ
kovri laj
1 00
Ġin oj
Ġ19 14
ana o
ĠNa tur
Ġdiab lo
t he
Ġre go
Ġ5 3
ĠMo vado
Ġkunlabor antoj
Ġpose dis
Ġne kompren
pre zi
Ġs ter
ar ojn
vo la
tu rilo
Ġeb ri
logi ajn
Ġknab oj
Ġas tero
Ġ# ?
danÄĿ er
Ġprivi legi
Ġinter tempe
ha us
vin ta
ĠMe ze
sk y
ile jo
Ġlandli mo
re t
Ġek zi
ĠMal nova
Ġfamili on
Ġtransi ris
Ġisla ma
ĠTaj vano
Ġperspekti vo
P res
Ð ¹
Ġven k
Ġhon oro
Ġkov rita
9 1
C E
la ri
Ġsia vice
Ġekonom ian
Ġminu tojn
Ġt ras
Ġko in
Ġplan on
Ġto ta
ĠdediÄī is
Ġkategori oj
L ia
e laj
Ġk erno
Ġre ÄĿoj
Ġpro voj
ĠT ea
ĠC an
Ġsin te
ha va
Ġmalhel pi
Ġapro bis
d un
Ġpor t
Ġku ire
eno ve
Ġneces ajn
ĠSo cia
Ġfunkci ado
Ġvoja ÄĿoj
lern ejoj
Ġuson anoj
ĠHen ri
Ġkompan ioj
ĠZag re
Ġf eb
ĠF oje
Ġfor mis
Ġku ri
Ġ5 7
ĠAl berto
Ġindividu a
Ze lando
O ri
ĠfiÅĿ kap
Ali ke
c ro
d ern
i i
Ġal taro
ig iloj
Ġeks klu
Ġkomputi la
Ġsemin ario
Share Alike
la o
plan o
Ġfam an
Ġmalliber ejo
k lino
te ble
men o
klu bo
ĠOrgani zaÄµoj
ĠDok umentoj
ti co
ĠG am
Ġskla voj
k amen
Ġti poj
Ġ5 6
umen a
Ġde Äµ
lo t
Ġpro cen
Ġdi rus
Ġsen labor
ol ingo
ĠMar ko
ĠPa co
ĠaÅŃtorita toj
Ġkonflik toj
Ġe tike
Ġme ksi
Ġfra z
ĠJa pan
Ġrezul tas
Ġsper tojn
Ġ197 9
Ġtranslok iÄĿis
Ġde venis
ier re
Ġbru o
Kom preneble
ĠAzerbajÄĿ ano
9 7
Ġen re
ĠF aj
Ġkonvers acio
Ġforpas is
Ġmalhe la
f iloj
Ġper d
ĠH i
Ġsuper as
Ġkar to
y e
in ario
ti te
Ġre vo
ĠA k
Ġbon dezi
Ġaper inta
Ġdekla ras
Ġtomb ejo
ĠA pri
Ġgra tu
ĠFor umo
Ġregion aj
ä º
Ġe x
ran to
Ġkonser vis
esperan tistoj
Ġhistori isto
Ġb ron
Ġle ksi
Ġbri la
ĠAnt ver
c ino
â Ķ
Ġdis don
Ġta m
Ġkompren ebla
Ġtele vid
Ġvolon tuloj
ĠBos nio
Ġ: -)
Ġpra ve
teg ia
Ġmalfer mo
Ġtrin k
j es
Ġen ig
Ġkri tika
Ġrakon ton
far ado
Ġmult nombraj
Ġallo ga
ĠPl uraj
le kto
ig his
ĠM c
Ġmal gra
ĠOrgani zo
m aro
Ġde von
Ġm m
Ġesper on
Ġbri l
Ġtranspor to
Ġstatu to
Ġj o
Ġser von
Ġba ga
ĠdaÅŃ ra
ÄĿ antoj
Ġres to
mar ko
Ġr um
kapab lo
ĠBrus elo
Ġa fa
ĠPro fes
ĠVer ÅĿajne
Ġkatoli koj
m uloj
Å ¼
Ġvi zita
ĠL ar
Ġor an
Ġbe leco
ĠÄµ a
Ġkonvin ki
e ga
f esto
t ulojn
w ar
ĠK lubo
va t
ĠF ettes
pa Äµo
Ġka ver
men taj
res pon
Ġam uzi
Ġplan edoj
h ismo
em ajn
ĠU ru
Ġgra f
Ġvian do
Ġkura ci
Ġdol oro
ĠSinga puro
A B
Ä «
Ġd ras
Ġven dis
Ġrenkonti ÄĿon
Ġeksplo dis
Ġmedic ino
kipedi on
ti kisto
Ġkor up
Ġstu dado
Ġpli al
Ġakti veco
ĠDis kuto
mi th
Ġak ra
Ġku rio
Ġpozi tiva
Ġreali go
dol f
ĠStan is
Ġn esto
Ġh ier
Ġmalsu pre
Ġdisvas tiÄĿis
Ġiden teco
V D
Ġp ilo
Ġen or
Ġkomun istoj
Ġfeli Äīe
Ġagnos kas
Ġgus to
ĠPres kaÅŃ
Ġabsolu ta
ĠTogo lando
ĠR ed
Ġro z
Ġtradi cioj
Ġinternaci e
Ġalpor tas
ĠÅĿata ta
Ġs onoj
ĠE fektive
âĢ ĳ
Ġpa pa
cen tra
Ġpens ado
Ġkru co
Ġse ka
ma lo
Ġcer b
ĠMon t
jar iÄĿo
Ġapu da
german a
K araj
O M
Ġp las
ĠMi aj
Ġkam paro
Ġ190 8
Ġdiale kto
es tron
ĠT ol
Ġun d
Ġtra ktado
Ġfa las
ĠJu an
Ġalvo ko
ko lon
ce go
Ġno cio
Ġvar mo
Ġpopula cio
i el
Ġa gis
Äī en
Ġf ero
ĠÄīe valoj
Ġrus oj
ĠMedi teran
s x
Ġb y
Ġli poj
ĠLi cen
ba zo
Ġpriskrib ita
ĠaÅŃtor itato
Ġdetru is
ĠK le
ĠÄľ in
Ġsor Äī
ĠEks ter
ĠVa ÅĿing
Ġd ron
st ina
Ġparo Ä¥
Ġuzi taj
' '
ci r
vi v
de kaj
ĠW in
Ġ6 5
Ġaser to
9 6
t ter
Ġs hi
ĠR ek
Ġver kado
Ġmalri Äīaj
Ġdokumen ton
Ġdokumen tojn
Ñģ ÑĤ
e p
ni k
Ġtra fiko
Ġtri um
Ġnask ita
ĠÅĿton oj
Ġ @
ĠM aÅŃri
da d
Ġroman oj
Ġkonkur en
UN K
n an
Ġne ÄĿ
Ġele mentojn
Ã© r
ĠJa pana
Ġ197 6
Ġ ulo
te blas
Ġb ord
Ġg his
ĠP r
Ġnom itaj
Ġpen traÄµoj
pro fita
ĠSvis io
!! !
ĠreÄĿis oro
em or
pa trino
pi lo
par ta
ĠEk zem
ĠÃ ł
Ġblo gon
Ġ198 2
Ġrapor toj
Ġekstre ma
Ġatribu i
e tojn
Ġ qu
os ta
ĠG il
Ġgran dio
Ġfra zojn
Ġrifuz as
Ġkategori on
Ġlogi ko
al l
Ġba lan
Ġ12 0
Ġkona tiÄĿis
Ġen landa
ĠK var
Ġpa gis
tin e
his torio
g ono
Ġeb los
Ġspeci faj
Ġregi onon
Ġspi te
ĠKar tve
Ġarb us
ĠÄµurn alistoj
Ġkon forme
ĠT eri
ĠLa go
Ġtu ÅĿas
Ġorigina le
ĠKongres oj
a da
Ġp r
ÄĿ eto
pi ro
Ġak uza
Ġfin ita
ĠbedaÅŃ ras
ĠÄĪ am
kom ple
Ġmala mo
la te
Ġen vi
Ġf le
Ġre formo
Ġser pen
flu as
ka taj
Ġvi voj
ĠB ol
Ġka ÅĿi
ĠkontraÅŃ a
Ġof t
j aroj
ko to
ĠA R
ĠP ie
pan e
ĠÄīef an
paro l
Ġ197 8
ĠKul tura
Ġarte farita
Pe ter
s h
Ġe o
Ġde ko
ĠM ajo
ĠVi an
Ġdev igis
Ġordin are
Ġkvali ton
k vankam
Ġa Äµoj
ÄĿ inte
Ġno kton
Ġnova Äµ
Ġkar no
Ġpriskrib a
ĠBel orus
l la
el don
Ġb v
Ġelek tu
pres s
ĠLitera tura
Ġe tan
te ca
Ġtelefonvo koj
Ġte sta
Ġfor a
Ġfunkci i
ĠHa i
z es
Ġunua vice
h ere
li ÄĿo
Ġpermes iloj
Ġtradu kitaj
ĠMon tri
ĠMalaj zio
j araj
Ġre zon
ĠP rojek
por ta
ĠKi m
ĠW ol
Ġplen igis
Ġprogra mojn
tek ni
ri ÄĿis
ĠaÅŃ ten
eble co
F akte
Ġfa kaj
Ġinteres iÄĿis
Ġ198 3
ĠÅĿanÄĿ iÄĿas
Ġli mojn
vi la
Ġfor iri
pro gramo
mal s
Ġ198 4
ĠHa zar
Ġstre bas
Ġrevolu cia
u ta
Ġvi ra
Ġvi kipedio
ĠD or
Ġka pi
Ġmin er
Ġtrin ki
Ġalvo kon
Ġsing ar
li ga
am aso
Ġo vo
ĠN ek
oni ko
Ġekzis ton
Ġorigin alaj
ĠTur k
Ġkr ono
f ig
ton io
pren o
Ġam bi
Ġes troj
Ġre ktan
ĠÅĿ te
ve j
Ġpermes o
Ġeta ÄĿo
Ġregistri taj
ç¤¼åĮħç¤¼åĮħç¤¼åĮħç¤¼åĮħç¤¼åĮħç¤¼åĮħç¤¼åĮħç¤¼åĮħç¤¼åĮħç¤¼åĮħç¤¼åĮħç¤¼åĮħç¤¼åĮħç¤¼åĮħç¤¼åĮħç¤¼åĮħç¤¼åĮħç¤¼åĮħç¤¼åĮħç¤¼åĮħç¤¼åĮħç¤¼åĮħç¤¼åĮħç¤¼åĮħç¤¼åĮħç¤¼åĮħç¤¼åĮħç¤¼åĮħç¤¼åĮħç¤¼åĮħç¤¼åĮħç¤¼åĮħ ç¤¼åĮħç¤¼åĮħç¤¼åĮħç¤¼åĮħç¤¼åĮħç¤¼åĮħç¤¼åĮħç¤¼åĮħç¤¼åĮħç¤¼åĮħç¤¼åĮħç¤¼åĮħç¤¼åĮħç¤¼åĮħç¤¼åĮħç¤¼åĮħç¤¼åĮħç¤¼åĮħç¤¼åĮħç¤¼åĮħç¤¼åĮħç¤¼åĮħç¤¼åĮħç¤¼åĮħç¤¼åĮħç¤¼åĮħç¤¼åĮħç¤¼åĮħç¤¼åĮħç¤¼åĮħç¤¼åĮħç¤¼åĮħ
u ton
z in
Ġal tran
ĠS ier
for d
Ġ18 87
ĠÅľ a
Ġfinan caj
Ġkonten ta
Ġpejza ÄĿo
ĠJoze fo
a das
Ġgvi dan
ĠLat vio
Ġek va
Ġrespon deco
igx as
ĠfiÅĿ oj
Ġkonker is
ĠNapole ono
u an
Ġen ter
Ġt run
Ġke mia
ĠMi ka
Ġkor ea
Ã© n
Ġkuti mas
Ġoper acio
ĠFranc ujo
pe ton
ĠF R
ĠR enato
ĠkontraÅŃ as
ĠRe ÄĿa
bur ga
Ġ197 5
Ġkarakteri za
Ġsova ÄĿ
li aj
Ġes enco
Ġre toj
um aj
stru k
ĠMon to
Ġtag manÄĿo
ĠpoÅĿ tele
Ġ# #
Ï Ĥ
Ġsa vo
Ġmembro ÅĿtatoj
E ni
ĠK aÅŃ
ren kon
Ġrespon doj
Ġesperantis taj
ĠRich ard
is ton
ĠD el
ĠH TML
Ġpi edo
tik edoj
Ġzor gi
Ġeksplu ata
Ġapara toj
Ġdezajn o
ĠKali for
P IV
j ono
ta gon
ĠP lan
zan io
Ġnaj baroj
ilvan io
k ris
Å ¬
Ġ que
Ġk ino
ĠP h
Ġpost las
Ġkam arado
Ġkoordina tojn
ĠBarcel ono
âĢ ķ
de z
ĠI l
ÅŃro paj
ĠZ im
In ternacia
ĠDis trikto
kolor aj
ĠFeder acia
ĠK va
ĠP DF
Ġeble coj
Ġ193 8
Ġpan on
9 3
ĠkontraÅŃ le
Ġcer emoni
Ġankor aux
Ġpoliti ke
Ġd ig
Ġpa ÄĿ
pan o
Ġins tigis
Ġkonstru itaj
Ġpropon ojn
ĠRus a
Ġmaljun ulo
No va
Ġin vado
ĠS ab
Ġsu fo
Ġpre m
Ġkons iloj
Ġtrans doni
Ġdetru i
ĠReÄĿ lando
Ġfon di
Ġsa ÄĿa
Ġ195 6
Ġ192 2
Ġobser vi
** **
ĠS ia
Ġcivi la
Ġmontri ÄĿas
Ġfundamen ta
Ġstatu o
tin taj
Ġtur ismo
Ġjapan aj
Ġkanta do
Ġt ren
Ġkomen can
Ġter ure
ĠMar kso
Ġru ÄĿaj
Ġva gon
Ġris ko
Ġesen ca
Ġ( âĢľ
ĠA g
po z
ver bo
Ġmo le
tin to
Ġangla lingva
Ġradi kojn
ĠAma zon
is a
Ġo leo
ĠEs per
Ġlern ejon
Ġkontribu o
Ġdiferen cas
komen ce
Ġretpo ÅĿta
Ġtrakta to
Ġdeba to
8 2
g edio
Ġsen ÅĿan
ĠÄīef ur
Ġnor moj
Ġprofun dan
Ġkontribu as
f ing
Ġka pelo
Ġmals ato
ĠMa x
Ġsukces aj
Ġobser vis
ĠNeces as
s uba
tan io
Ġinter reta
voj oj
Ġbe lajn
Ġcxi am
Ġ197 4
U r
te a
Ġel vo
Ġkoncern aj
Ġ193 1
Ġtito loj
Ġanali zi
ĠKrako vo
b anoj
ĠG la
Ġmo vo
Ġmals ek
g oro
Ġsi e
ĠLi broj
ĠkaÅŃ zi
Ġkunlabor on
Ġduon on
Ġrezolu cio
Â ·
Ġpri pen
ol do
). [
Ġduon insulo
Ġmontran te
or gio
Ġt ono
es tra
kam po
Ġating ebla
Ġkar es
Ġ194 9
Ġmalj us
Ġekstre me
" -
O L
ĠS krib
ks e
ĠH eb
Ġpa troj
ub e
Ġkre itaj
Ġliber igi
Ġsol ena
Ġkonsider ataj
Ġrus an
Ġaran ÄĿ
Ġtea tra
Ġinter lingvis
Ġeks i
Ġnor ve
Ġtur ka
th er
ĠDu olingo
Ġmedi oj
Ġescep to
Ġheb rea
d ron
t ulon
Ġs istem
en ton
Ġli kvi
ĠAl poj
Ã³ r
Ġprakti ki
ĠY ou
Ġresponde c
ĠFes tivalo
0 8765
P l
u f
Ġre ganto
Ġpo lus
ke do
Ġ198 1
Ġfavor a
Ġspa con
ĠEgip tujo
Ġafri kaj
Ġnas kis
Ġunuso la
ra don
Ġpro mo
Ġneni uj
ĠÅĿta ton
Ġmuzi kistoj
Ġkomer c
kal ku
Ġmedic ina
p pe
ka Äµojn
ĠS ri
Ġmo toro
Ġlern anto
Ġsignif is
Ġkura cistoj
Ġakti vis
cx o
ĠPe tr
Ġ193 6
ĠOn line
Ġambas ad
x ojn
Ġs kol
Ġvi do
ÅĿ ar
Ġsur voje
Ġle ter
en ojn
da lo
Ġap laÅŃ
ĠO ra
Ġsci vole
anta ro
Ġfra kas
ĠaÅŃskul t
ĠSta lin
Ġnukle a
Ġprefi jo
Ġs ala
um eno
ĠP UNK
Ġha vante
Ġlan Äīita
Ġlon go
ĠSi an
ĠmanÄĿ aÄµoj
ĠGra m
Ġpaf mor
Ġarkitek turo
Ġmin orita
Ġsci igis
Ġdekla ro
ĠBar bara
ĠGeor go
ĠJu gosla
Ġtrankvi l
Ġkampar anoj
Ġbonven aj
ĠAntver peno
Ġal men
Ġre ak
Ġfiks ita
Ġrezign is
Ġne mal
ĠL os
vi to
Ġun uj
man ier
Ġapu de
g lis
li kon
us pe
ga le
Ġmo tivoj
Ġmor tas
ori enta
Ġmalfacila Äµoj
Ġtavo lo
E ks
la don
Ġdan co
Ġating o
Ġmalfer mitaj
Ġega la
RAT IA
ĠI am
Ġha vanta
ĠkontraÅŃ e
Ġmalri Äīa
ĠDom ino
Ġ oma
Ġa cido
di ko
pi oj
Ġpa ca
Ġor n
Ġnun an
Ġima g
Ġgrama tika
ĠinterÅĿan ÄĿo
c say
z ul
te stro
Ġpo etoj
kondiÄī oj
ĠIn formoj
Ġhistor ie
gx oj
Ġkr uroj
Ġkongru a
Ġmal plen
Ġmal plena
vers aj
Ġkole goj
Ġmedi kamen
Ġvirin ojn
Ġideo logio
Ġdisvas tigo
ĠGa ze
Ġfing roj
IR RATIA
ĨįãĨįãĨįãĨįãĨįãĨįãĨįãĨįã ĨįãĨįãĨįãĨįãĨįãĨįãĨįãĨįã
ĠPUNK IRRATIA
g vo
k ron
l om
Ġa kri
Ġb aro
Ġh eg
po loj
Ġc a
Ġpost ul
ĠÄĿus tan
Ġhej ma
Ġprele gis
ĠMongo lio
D A
à ´
Ġsu pro
ano v
ĠTaj lando
datum oj
Ġin stin
var m
Ġlu dantoj
Ġflu o
Ġbi blio
jara ÄĿa
Ġ193 4
ĠKartve lio
Ä ±
ci lio
Ġle ÄĿon
Ġpen traÄµo
cx e
v us
Ġon do
Ġpru vis
201 8
Ġchi u
/ ,
p rojek
× Ļ
Ġf lus
ĠA S
ĠI do
Ġating os
Ġprofun d
Ġarkite kto
la pu
zi la
Ġku i
Ġmili ono
eri kaj
Ġrez igni
Ġdor s
o vo
Ã ¥
is tino
Ġse pa
ĠaÅŃ g
Ġver karo
ĠIn c
din toj
Ġtele fono
Ġalvo koj
ÄĪe fa
Uni vers
E P
k vin
li mo
Ġma gi
ling vajn
ĠÃ ģ
Ġfer m
Ġret paÄĿo
d ing
ĠÅĿ tel
Ġpa trio
Ġkomen ton
pen na
Ġstu das
Ġ194 7
Ġsemajn ojn
Ġforma le
Ġkongru as
Ð ³
ĠB lu
men oj
ĠMez oriento
Ġmi to
Ġba k
ener ala
Ġsufi Äīa
Ġarme on
Ġdivi das
Ġpostu li
Ġinsta li
Ġm un
Ġv osto
Ġak um
Ġkomple tan
Ġsubstan tivo
s ci
ti mis
Ġvi van
pi e
Ġpl is
ÄĿi taj
Ġjun an
Ġfran coj
Ġkamara doj
Ġne a
ĠIn vers
Ġho dia
ĠVoj o
Ġheb re
Ġadministran to
ĠK er
Ġekle zioj
Ġin klin
ĠK alo
pa ÄĿon
Ġkontra kto
Ġplan is
Ġkov ris
Ġpronon co
pa tr
Ġap re
Ġbu ÅĿ
Ġinten ce
Ġkon o
du a
Ġap liko
Ġle gadon
Ġele kt
Ġba ze
Ġet no
Ġekskur soj
V oj
Ġa mata
ĠP len
ĠT j
Ġmul tan
ĠO ceano
Ġokaz igi
Ġekster lande
iste mon
Ġfunkci ojn
cer to
Ġkompar i
ĠdanÄĿ er
Ġklu boj
ĠHen ry
in f
ce o
Ġpre taj
Ġ19 12
Ġtrovi taj
Ġkap t
un ua
ĠS kot
Ġpri orita
ĠC la
Ġdu b
Ġna vig
ĠAÅŃ tuno
Ġgas to
Ġmeze poka
Ġfre ÅĿa
Ġdistribu i
Ġcifer oj
Ġa bo
ĠaÅŃ da
kto s
gra moj
Ġeb loj
Ġdirek tis
ĠNeni am
ÑĢ Ð°
Ġhispan aj
Ġhero o
ĠEtio pio
Ġs una
ti oj
le tojn
el s
Ġprezen titaj
Ġjen ajn
ĠÄĪe f
Ġple jo
grafi on
Ġtr ar
ĠEsperantis tojn
Ġteg mento
b ala
ci te
Ġre puta
ĠSe ulo
Ġstra t
Ġon line
Ġfizi ko
Ġsubstan co
Ġafri ka
ï¼ ģ
Ġporno grafio
ĠAlban io
s istemoj
pa tro
Ġparo los
Ġce tera
ĠÄĪi am
Ġvizi t
Ġprofi to
Ġtribun alo
feli Äī
ĠS ho
ĠJ una
Ġkan tisto
Ġkunlabor is
Ġras o
Ġforges i
Ġ192 8
Ġkoti zo
h um
Ġen danÄĿer
Ġsen a
Ġraj t
Ġdistri kta
Ġ196 9
Ġsuges tas
ĠFri ed
B ra
T ri
en z
Ġkor tu
Ġ192 1
ĠBoli vio
R i
iÄĿ antaj
Ġor el
ĠW ord
Ġmalvar me
Ġfig uroj
Ġkonfir mis
Ġfortika Äµo
ĠB angla
Ġsci u
Ġplu aj
Ġarg umento
Ġe uro
Ġpre mio
mp is
Ġ197 3
Ġeviden tiÄĿis
Ġarte far
INVALIDINVALID INVALIDINVALID
as a
ĠA gen
dustri o
ĠVilhel mo
v eloj
in ia
ĠS p
man ieron
ĠJ i
ĠKa za
Ġuti laj
Ġstran g
Ġkatal un
âĢ ³
ĠAr ki
Ġzor gis
Ġsove tia
ĠTan zanio
h aro
Ġ aj
ĠS ha
ĠD ra
Ġlo kan
den t
Ġma turi
ĠTi es
Ġsci on
ĠKon diÄī
Ġtur isma
Ġkondu k
teks toj
ĠeÅŃ rojn
S er
Ġb uro
Ġte s
il lo
Ġpermes on
Ġkuti moj
Ġinfan on
Ġadres on
re giono
Ġre gantoj
ĠI st
Ġfor igis
ĠÄīar ma
Ġmar on
Ġplibon igo
Ġ190 7
Ġamik ino
Ġtraj tojn
Ġinstr umen
liz ab
ĠJako b
k estro
ĠK utime
Ġo dor
Ġad mon
Ġti pe
ks ig
Ġver tika
kor p
Ġmalpu ra
v igis
la t
Ġin te
ĠD er
ĠI pernity
ce la
Ġmon teto
Ġdu e
Ġami ka
pos ed
Ġkos toj
Ġtito lita
Ġmeto don
Ġpritra ktas
Ġflugi loj
g ho
p om
Ġvi tro
ĠS V
ĠG ron
ĠMi an
Ġam uza
Ġsigni fa
Ġdisku tis
ĠAlÄĿ erio
Ġele f
bri ÄĿi
Ġstri oj
ĠFon duso
oo d
Ġekkon i
german e
ĠToki ponon
h Ã¡
w ell
Ġpri mi
po se
ĠMi li
Ġso laj
Ġpla Äī
Ġ192 9
Ġsolda to
Ġenme ti
Ġlicen citaj
Komun ejo
Ġkon to
ĠÄīe valo
Ġson on
ĠFre der
Ġsove ta
Ġfak toroj
Ġal proksi
Ġh aj
di men
ĠS ene
ĠM eto
Ġfar us
Ġtu ÅĿis
Ġbon ÅĿan
Ġeks kluzive
fo lio
Ġsper tas
Ġmas o
Ġhun doj
Ġdosier uja
Ġseku ra
Ġresponde cas
Ġpoe zi
ĠPa ÄĿo
Ġneces is
Ġbaz an
Ġ190 6
Ġu to
Ġmaksim ume
d reso
Ġno t
ĠO kcidento
res pe
ĠÅľ tata
Ġurb ojn
Ġmalkon ten
Ġmi rinde
ĠB andar
Ġka fo
ĠNi co
Ġaten ti
Ġsan ktaj
Ġvol umo
Ġjen an
Ġpu go
Ġparame tron
v Ã¡n
Ġser ion
Ġprezen t
ĠZamenho fa
Ġkonsis tanta
ĠRes pon
Ġstari gas
ĠRom an
cego vino
ĠÄīi aj
ĠG va
Ġsal ut
Ġarme a
Ġgri za
igh as
ĠIns ulo
ĠK is
me a
ed ro
rin ta
tic le
ĠOli mpi
e w
er t
or an
Ġre cep
ni kov
Ġmem ori
ĠÄīees ti
cz y
ĠdisÄīi ploj
s igni
Ġli mas
Ġj uraj
Ġpro s
il do
Ġbel ulino
Ġgub ernio
k ler
Ã «
Ġa gres
Ġkon vena
ĠS tel
ĠÄīi ela
Ġfa ÅĿ
Ġsa vis
Ġmur dis
Ġ195 9
ĠBer no
= =
er to
ĠI vano
Ġalpor ti
Ġakompan is
Ġtum ul
I P
Z amenhof
ĠT en
ten a
Ġaten t
Ġprojek tojn
nom on
o pera
Ġkon so
os eo
ĠEsperan tilo
Ġfil mojn
Ġofi cisto
ler ni
Ġmalbon an
kro m
ĠNAS A
te jon
ĠÅĿ ve
eb lo
Ġeks tra
Ġro ko
ho o
Ġhon ora
Ġkoncep toj
Ġmalpermes is
ĠNord ameriko
Ġ## #
Ġo ce
Ġ1 01
ĠN ask
Ġali uloj
ĠSvis a
Ġal tru
Ġper dita
Ġka pri
bu la
Ġmals ana
Ġkri tik
Ġedzi ÄĿis
8 1
a go
ĠÄī eloj
ĠÅĿ al
Ġsufi kso
Ġliver as
y l
Ġe timo
ĠS uno
Ġle ÄĿojn
igi tajn
Ġhel pu
ant ino
Ġbezon on
Ġsom era
" :
Ġde koj
Ġal mo
Ġplen aj
Ġdon aci
Ġsuper re
Ġsa v
Ġdeci dojn
Ġvide blaj
ĠÅľan h
? ...
E st
in das
Ġre al
po vo
ĠLi bio
Ġnun tempaj
Ġparo lu
Ġskrib itaj
Ġreda kcio
Ġvoja ÄĿon
Ġfal s
ÅĿu tita
ĠBul ler
ĠNiÄĿ erio
Î µ
Ġv ag
Ġan oni
Ġpublik igitaj
flan ka
Ġpied ojn
Ï ģ
Ġi dio
Ġli mon
ze lo
Ġkultur an
ĠAntaÅŃ a
Ġfes ti
Ġvek is
Ġpoem ojn
a per
ta blo
Ġde ka
ĠN as
Ġven do
ĠDo c
Ġvirin on
Ġeston taj
ekz amen
Ð Ķ
Ġ za
Ġre pa
ĠLa penna
ten ojn
Ġgru pojn
Ġeston te
ĠIm peri
Ġekzempl eroj
Ġakci dento
Ġeksterordin ara
ĠRenkon tiÄĿo
z el
Ġes taÄµoj
Ġel pa
ĠI T
Ġsen d
Ġpublik an
Ġses a
ĠSte fan
Ġkopi i
Ġafi ÅĿo
ĠTeks toj
ĠD ol
Ġko don
Ġplan ita
Ġobjek tojn
Ġmalkov ro
Ġ190 9
Ġbibliote koj
Ġsever a
Ġteror ismo
Komen ce
Ġnesu fi
' re
x as
Â Ŀ
Ñ ľ
Ġde pon
Ġin va
Ġuz ebla
Ġregis tris
ĠKa zi
un uo
ĠM ON
ĠMon a
ĠSek va
Ġbaz ajn
ĠPrus io
ĠZuri ko
k lojn
va Äµojn
Ġekz akte
tin daj
Ġrila tajn
Ġkura cis
Ġsper ta
Ġaspe kt
ĠPli e
Ġsign ojn
ĠvoÄīdon ado
ĠDek lara
ĠLuksem burgo
ĠE vidente
po t
Ġha lo
Ġcer tan
Ġprinci pojn
Ġmina co
Ġsever e
gua ge
ĠL am
aÅŃ l
Ġka ze
Ġtran o
Ġintern an
Ġinstitu to
Ġfan far
Ġsemin ar
Ġp ing
ĠNi aj
Ġrez isto
Ġperson on
Ti al
Ġrus ia
Ġesperantis taro
Ġdefen das
Ġokup ita
Ġinstr umentoj
Ġtertre mo
ĠA ni
Ġkun venis
fi zi
ĠEn gel
Ġfru ktojn
Ġmalfaci laj
Ġfamili anoj
ĠpoÅĿ to
ĠkaÅĿ as
Ġdemokra tia
Ġbalo toj
D on
i lu
Ġs kolo
Ġb rem
ĠVi kipedia
Ġtri boj
Ġapo gis
Ġmallon gan
Ġdol Äī
Ġeten dis
Ġbab ilejo
ĠBur undo
ti vojn
ĠA mo
fa con
Ġ194 1
ĠÄīees tantoj
Ġmiz ero
M A
k tanta
Ð ·
Ġkon for
st ria
Ġ19 00
Ġme tita
ĠPre paroj
ĠEst u
ĠLas ta
ĠS mith
Ġunu iÄĿo
fer a
Ġme tio
Ġbri taj
b s
p Ã©
Ġ Ù
Ġver boj
Ġdetru ita
kapab lon
ç ļ
nom oj
Ġprinci pe
Ġmomen ton
ĠTon kin
Ġpro vos
Ġmul ti
Ġbi eno
Ġpoliti kajn
Ġresponde con
Ġli gon
Ġeldon aÄµoj
Ġvila ÄĿon
Ġesper is
Ġkoncep ton
Ġleci ono
Ġfar ante
mon do
Ġkonf uzi
ta t
ro c
Ġo vojn
ale co
ĠÄĿener alaj
Esperan ta
Ġb uso
Ġg las
Ġgra doj
ĠloÄĿ ata
ĠEk vadoro
Ġaki ras
talo go
201 6
in fo
Ġa gojn
Ġro mpi
Ø ±
ĠS el
tu alaj
Ġso cioj
por toj
pro pri
ĠHun gar
Ġgla vo
Ġdirek ton
ĠMem or
J u
ĠS ara
kon tro
Ġra cia
Ġsia tempe
Ġlern eja
Ġhistor ian
âĢĻ .
Ġmalno vajn
Ġreligi on
Ġlingvis tiko
ĠOs mo
d omoj
Ġ zo
Ġe ra
ĠÄī o
ĠS hi
ĠI tala
ĠG ali
Ġtro a
Ġkre don
Ġtri bo
ĠserÄī ado
Ġres ta
raj toj
ĠMa t
Ġdor mi
Ġrapor tas
Ġ194 2
Ġopor tuna
ĠUru gvajo
Ġa dek
Ġsek toro
Ġspeci alajn
Ġflan kon
ĠPer mes
Ġgas t
Ġplibon e
Ġ192 3
ĠÄĿen ti
Ġneaten dite
Ġde mis
ĠâĢ Ļ
ĠB ron
Ġhav igi
Ġvirin a
Ġstari go
ĠSer Äīi
O n
ĠKi pro
Ã¡ h
ĠMa y
Ġrimar ki
Ġstri kte
Ġremem oris
Ġkonklu do
P R
Ġtransfor mas
Ġdiman Äīo
Ġsalaj ro
Ġpartn ero
d ge
ä »
aci ojn
ĠH ej
me jo
Ġle ga
Ġeb lus
Ġpe co
Ġklari goj
In stitu
Ġsab ato
Ã¨ re
ĠKalo csay
H A
Ġbezon os
Ġsoci ala
Ġmod eloj
Ġtekni kaj
ĠBan ko
k foje
Ġkri terioj
Ġinten c
Ġbaz itan
Ġima go
Ġdisting as
je v
ĠEvange lio
Ġs pri
en aj
Ġh ela
ĠG anao
ir ka
Ġju daj
Ġprof ilon
Ġpru vo
Ġrekon is
Ġspiri ton
ĠSil fer
bab vo
ĠMun keno
k il
ti tajn
ar ch
Ġen ka
Ġku ketojn
Ġkomuni kadon
Ġlong ajn
KOKOKOKOKOKOKOKOKOKOKOKOKOKOKOKO KOKOKOKOKOKOKOKOKOKOKOKOKOKOKOKO
lo si
di tan
ber go
Ġmili tistoj
Ġins tigi
ĠSu dano
ĠPl ena
Ġkoin ci
Ġsen li
Ġsan ktan
ĠLe vi
ĠLo uis
Ġb ara
Ġka b
ĠantaÅŃ di
Ġsankt uloj
da ux
Ġling vajn
Ġmo tor
Ġkre iÄĿis
Ġfra pis
bi taj
Ġpres ti
Ġvizi toj
Ġ194 6
ĠpreÄĿ ejoj
ĠTri a
âĹ ĭ
Ġpole mi
Ġin v
Ġneni om
Ġves tojn
Bon volu
R ila
ĠM anu
Ġdis e
Ġ6 4
Ġas embleo
Ġekle zia
Ġbes tojn
Jun ularo
ĠJose ph
ti toj
Ġmal hon
mi lita
Ġdu ko
lin ioj
Ġcivi tano
ph p
Mal graÅŃ
ĠPala co
ma po
Ġ19 11
kta taj
Ġsup raj
S ta
di kto
Ġg ala
ge co
Ġbe ko
Ġsignif e
ĠSen depen
Ġ195 8
Ġkoncen trejo
Ġaviadi loj
Ġhezi tu
a o
ĠA pud
pe k
Ġpa pi
Ġven das
min i
Ġprodu ktita
Ġdok trino
Ġmontri ta
Ġmomen toj
Ġb oj
ĠÄīi an
ĠV era
aÅŃ de
ma teri
ĠEn tute
Ġkomun ista
Ġpe tro
wa y
ĠÅĿan ÄĿon
ĠX i
ĠÅĿtu paro
ĠAu gus
ĠMinis terio
aÅŃ a
fi do
Ġma gis
ĠZ o
Ġlu danto
ĠKaro lo
le kso
da gas
Ġta belo
Ġesper eble
ĠPre cipe
fin an
Pol lando
Ġk ran
Ġde voj
Ġsen kom
Ġno be
Ġsupo zis
Ġstran gaj
Ġkoncer toj
Ġesta blis
Ġparen coj
Ġo le
mp ro
rin oj
Ġsek vo
Ġna fto
Ġfran ce
Ġkole kton
ĠHazar da
ĠKondiÄī oj
ĠJu doj
Ġban koj
digi taj
ĠKen jo
kam pan
Ġkar bon
Ġab oni
Ġkapita no
Ġspekta klo
Ġstatus o
Soci eto
Ġal tajn
ka Äµon
Ġre ganta
tr in
Ġkomen tojn
uo kaze
Ġbra ko
Nun tempe
ET V
ĠrifuÄĿ intoj
g un
al ta
taj pu
Ġkun vi
ĠB ele
kci on
Ġkol um
Ġfer mis
Ġmalno v
Ġ193 7
su pre
Ġmalaper as
Ġmemsta ra
ĠKonstan tino
ĠJugosla vio
G o
h ing
Â ĵ
Ġe la
Ġp anta
Ġs ko
ti el
Ġkon jek
ÅĿ ir
va torio
pe toj
ke t
Ġra cio
par e
ĠMar gar
ami ko
Ġsimp l
Ġfaci lan
Ġvide ble
Ġstatus on
gma il
R us
Ġe mis
Ġd am
li koj
va taj
Ġsub it
Ġres taÄµoj
Ki e
Ġâ ĸ
Ġaran ÄĿon
ĠÐ ¿
ĠeÅŃro panoj
Ġpan or
ĠKam bo
Ġgus tum
Ġkomis ion
E C
an ier
Äī ado
ki r
Ġkre dantoj
Ġfi das
Ġatmos fero
J or
d ur
en ca
Ġpar oj
Ġtro vig
tiko loj
Ġfa ktojn
Ġplen umo
Ġins tigas
Ġprodu ktojn
ĠDum e
cri pt
Ġmontro s
ĠBelorus io
ĠSkot lando
Ġre le
Ġsu pozi
pi c
Ġpe coj
Ġsuper flu
Ġkar iero
Ġsemajn on
Ġaser toj
ĠUN ES
Ġfan tas
ĠZim babvo
Ġde te
ti lio
Ġne di
ĠS enato
uz is
Ġkel ka
ĠW it
Ġprefer is
Ġ196 6
ĠdaÅŃri gas
Ġkontin entoj
Ġpreter las
Ġinstr umento
Ġpropri eto
Ġekha vis
V o
ka ÅĿ
us t
aÅŃ to
go lo
Ġtra gedio
Ã¡ l
ĠDi ego
Ġzor go
Ġsilen te
Ð ¿
Ġmal dika
Ġkun igi
ĠTi ele
Ġsin tenon
Ġam ba
et te
ĠÅĿan co
Ġsoci on
Ġson ÄĿo
Ġmalkov rita
Ġanon ci
Ðµ Ð½
pel is
Ġelektroni ka
Ġjud ojn
Ġm amoj
do zo
Ġpre ÄĿi
Ġaper igis
Ġurbo centro
Ġinteres ojn
Ġscien cisto
ĠKar i
Ġimp lik
Ġrekon as
Ġkunsi doj
ĠLern ejo
m ina
ĠE lizab
Ġali maniere
kaj a
Ġko doj
ha vas
Ġplan ko
Ġ9 9
ĠDi e
Ġkris tnas
Ġvesper manÄĿo
Ġlar moj
ph y
Ġestab lita
H ejmo
f alis
rin toj
tin toj
Ġindi kis
Ġordon ojn
ĠBen ino
ĠAra bio
Ġlegen do
Ġk g
ver a
Ġspeci ali
Ġlogi ka
es s
ĠÄĿ oje
Ġpri ju
Ġhom amaso
ĠAl ta
Ġrezul tis
Ġmalfer mas
Ġamas oj
Ġkoman danto
Ġkaf ejo
ĠBangla deÅĿo
! Â»
k ing
ĠS ci
Ġo kci
tan aj
Ġpa fi
Ġpa pera
so cia
voj aÄĿ
Ġâ Ī
Ġlar ÄĿe
Ġefektiv igi
Ġfervoj a
ar bo
ĠI tal
ĠVi aj
vin oj
Ġkonstru as
vor taro
Ġkonson antoj
zam bi
L Y
x u
pa la
ĠNo vaj
ĠUnivers ity
Ġmez uro
Ġfoj foje
Ġchi am
Ġmaljun uloj
ĠKos ovo
Ġklasi fi
Ġkontras te
Ġgeedzi ÄĿo
ĠVladi mir
ĠB ru
Ġfor tik
Ġkor poj
Ġtrans loÄĿ
Ġvin ber
ĠKun e
Ġgeo grafiaj
ĠA ir
Ġpost tagmeze
Ġkov ritaj
ĠA ri
Ġspe kti
ÅĿi ma
Ġ192 5
Ġfaj ron
Ġfut balo
ĠLis bono
ĠK y
ko di
ĠA aron
Ġmal re
Ġma gn
ĠRe giono
Ġaten tigis
Ġekster landanoj
mul taj
Ġmalbon on
Ġeksperi men
âĹĭ âĹĭ
Ġor eloj
din ta
Ġeldon i
Ġlitera turon
ÅĿan ÄĿ
Ġspor to
Ġsk emo
x e
ĠM ur
Ġkonta kton
Ġpalestin anoj
es taj
Ġmi ras
me zo
Ġpen tr
Ġkomun isma
Ġmalfer miÄĿis
kondu kis
Ġapo gi
Ġkorek ti
ĠSimp le
F ederacio
K E
ĠÄĿ er
ĠR emo
Ä¥ an
Ġlito va
Ġita laj
Ġ `
Ġkom plik
Ġkons cien
Ti un
Ġmez uri
ffi ce
Eni ru
di ÄĿi
Ġmi ris
ĠEsperan te
be zon
Ġdisku ton
Ġbo tan
Ġfu ÄĿis
bata lo
tegori oj
g ha
ri me
ĠK ab
ĠS tran
ĠP Ã©
du be
Ġdispon igas
ĠNi kara
Ġrapi do
Ġakti vas
Ġiden tigi
Ġcifer eca
Ġtrapas i
Ġi lojn
ĠF lori
ĠBa vario
Ġamas a
ĠVer duloj
ĠSek retario
Ġdiferen con
ĠtaÅŃ gan
Ġara boj
ĠGram Trans
d k
Ġal tern
Ġver kitaj
Ġra ÅŃ
Ġso lan
Ġkontro lon
ÅĿan ÄĿo
Ġ196 2
Ġmur do
C C
L igiloj
Ġli tur
Ġg aja
zi ÄĿis
ĠF ut
Ġmor tos
ĠUnu iÄĿo
Ġeben aÄµo
Ġkom paro
ce lo
Ġsen tojn
ku ri
Ġle s
ĠAn dal
Ġide aloj
Ġprogra mado
Ġpres krib
Ġsignif oj
Ġampleks an
ĠVarso via
te br
Ġre gxo
ĠH ab
par i
Ġkole ktas
Ġmaj us
Ġanon co
ĠKalifor nio
B i
k tro
ĠF esto
ek do
ĠJ em
ol d
Ġliber igis
Ġrigar data
ĠSi berio
ĠanstataÅŃ igi
ĠIs la
temp an
Ġsoli dareco
ĠT uni
Ġpli vas
Ġtra f
Ġsan ktulo
Ġsti lon
k vanto
l umo
Ġm uz
Ġl en
Ġri pozi
Ġkor te
Äīe fe
Ġdom ojn
Ġgaranti as
faci l
E Äī
Ġri Äīe
ve turo
Ġgvi dado
Ġ24 0
Ġ192 7
Ġleg ebla
ĠIS O
ta doj
to do
pe o
ek de
tro po
Ġuz os
ĠO b
Ġmor tigas
Ġto tala
Ġ197 2
ĠKam er
Fran cio
S A
lo w
Ġre kor
ĠR ub
pre zento
Ġkomun umon
son e
ĠSu pra
Ġstari gita
up r
ta b
ĠÄī em
Ġvi rus
Ġek is
Ġfa li
Ġbi cik
ĠSu do
Ġmis io
Ġblan kan
kompren eble
ĠHer cegovino
ĠJos ef
Ġleci onoj
C h
ajn is
Ġpri paro
ĠT V
Ġmon daj
ĠÅ ģ
ĠPa trino
Ġab rup
Ġbo ato
ĠTa g
su kces
Ġstatis tiko
Ġbud his
Ġdestin ita
f ama
p ento
Ġor den
Ġneces an
Ġflu gas
Ġmemor u
ĠÐ ²
201 0
Ġmalsu pra
Ġsti mu
ĠUz bek
Ġfron to
ta le
as e
re gi
ĠM eso
ĠaÅŃ toj
ver ko
ĠÐ Ķ
kondu ko
ĠKongres on
ĠJordan io
gan a
Ġdo g
por tis
ĠÃ ī
and ro
Ġpoten coj
Ġvetur as
Ġepisko poj
Ġi es
ĠS va
ĠG en
Ġpoten ci
Ġata k
Ġ192 4
Ġjarde ko
umenta tion
p ti
pe z
Ġek parolis
Ġkor oj
Ġankor a
Ġsan gon
Ġalvo kis
Ġhispan an
II I
Ġtraj to
ĠEdu ardo
ĠVaÅĿing tono
V I
t l
in amo
es an
Ġne for
Ġg ento
Ġkomple ksa
Ġvesper on
ĠY o
Ġgar di
Ġates to
ci Ã³n
de mo
aÅŃ skul
ĠH omo
Ġkiam aniere
ĠÄīef ro
ĠRe in
Ġperson an
ĠBa ch
Ġeven ton
Ġnatur on
ĠAkade mi
ĠFrancis co
Ġdenas ka
n ar
s as
w ig
ri gis
Ġvi gle
Ġlim igi
Ġmaljun aj
Ġform iÄĿis
Ġfabri ko
ĠJohan n
A d
or t
Ġf olk
gu e
Ġprof eto
vita vy
Ġdosier ojn
Ġre gadon
tis ma
ÅĿ in
ĠMa dagas
Ġkru ela
ĠÄīa p
Ġtransi ro
Ġplejo fte
L and
c l
i am
Ġs fero
Ġaldon ita
Ġrespon dojn
kos taj
pub lik
Ġvesper man
Ġkomenco s
Ġagnos kis
ĠÄĿen as
Ġmomen te
Ġteori on
ĠBata lo
h oma
mo va
ĠF ebruaro
pren antoj
lon ga
Ġkie lo
ĠSta tu
Ġreprodu kti
Ġa ÄĿ
ĠN an
ĠAn dro
Ġminu to
Ta go
Ġafa ble
Ġs ume
li brojn
per fek
Ġsen kul
Ġsen uti
Ġkla var
ĠKvin petalo
ka dis
va la
ĠB ene
Ġfar ata
Ġka co
Ġcer teco
Ġkres kon
Ġmil da
ĠPoÅĿt kodo
a p
Ġvi dante
Ġo ksig
ĠA Ä¥
Ġna d
ĠPa tri
Ġevolu as
ĠSu fi
Ġbu ÄĿeto
ĠZam TV
Ġpod kas
ĠHai tio
Ġ \
Ġs ino
Ġal kuti
Ġi l
Ġvi ron
lan tojn
ĠH as
Ġsci ante
Ġ196 5
Ġapo go
ĠMol da
Ġekzek u
s son
Ġg eni
Ġsen dos
Ġrila t
Ġmod esta
Ġ195 4
fre d
ĠinÄĿeni ero
P ra
Ġp uno
Ġmal favor
ĠH A
Ġnom umita
... "
Ġspe gu
Ġmar ko
kom o
Ġ196 4
ĠMika elo
k li
ĠÅĿ tor
lan a
ren o
Ġme tu
Ġang laj
Ġraj tis
ĠSi mile
201 2
m pa
Ë Ĩ
å ı
un e
ĠN ami
ia do
Ġar ti
Ġkla ran
Ġperson ajn
eg ro
Ġfu ÅĿ
ĠkaÅĿ ita
ĠCx u
g r
le do
Ġvi vos
Ġmi gran
Ġli kva
ĠT el
Ġka toj
Ġsoci ajn
Ġrakon tojn
Ġrezul te
Ġ197 1
Ġimperi ismo
Ġara baj
Ġtaks is
Ã§ o
dres on
p ing
gran daj
ĠMon ato
Ġfo tilo
Ġflan ken
Ġduon e
Ġfal sa
ĠBal ta
in ujo
ĠL igoj
ĠA L
de c
ki es
Ġkonsi las
alis ta
mem broj
Ġalvo kas
Ġron d
Ġvenon t
Ġhistori istoj
Ġa ba
Ġel las
tro p
ĠantaÅŃ ju
org aÅŃ
ĠBer lin
Ġem ble
landan o
Ġstul ta
Ġnub oj
N or
Â Ĺ
te ko
ĠT al
ĠI F
uz io
ek zis
Ġlern adon
Ġliber igita
mul te
Ġ196 3
Ġfes toj
200 4
ĠpaÅĿ ojn
Ġpose daÄµo
çļ Ħ
a Äī
or gano
ĠK em
Ġkun fan
van oj
Ġpermes into
Ġprakti kaj
igu el
ĠWi kipedia
Ġagra ble
Ġsimpa ti
Ġfem in
y i
Ġf lo
ĠG r
Ġro las
Ġer aron
gh as
ĠDis er
Ġher bo
Ġfundamen taj
Ġalu das
eb ro
Ġgra co
Ġ195 7
Ġtr um
V ia
v uloj
Ġc ind
Ġsur loke
Ġ6 2
Ġekster en
Ġdev igas
ĠBo hem
Ġprofes ie
Ġkona tiÄĿi
A b
R im
Ġi al
Ġg ard
Ġg iganta
vi co
Ġek lo
ge o
Ġfil inon
Ġkomple ks
Ġkov rilo
Ġprinci pon
ĠAle x
ĠindiÄĿen aj
Ġm amo
Ġin tri
Ġkun a
Ġfor mita
Ġor gen
tur no
ĠBo ur
ins uloj
ĠNikara gvo
) [
Ġal to
Ġta buo
kte jo
Ġeldon on
Ġfaci ligi
Ġeston tecon
Ġnatur an
Ġvenon tan
Ġsurpri zo
Ġprokla mis
ĠNom spaco
v ina
Ġ æ
vi Äĩ
ĠPar is
Ġvun di
Ġfenomen oj
E le
Ġla i
Ġkun venon
Ġfor vi
Ġpen son
ĠÅ ½
Ġkunlabor as
ben aÄµo
iuj n
Ġpsiko logio
Ġstan dar
Ġeksta ris
ĠDoc umentation
Ġv is
em ent
Ġlo ÄĿi
ch es
Ġofici roj
Ġnum er
Ġsom er
Ġagnos ki
unda tion
d erna
ke ton
Ġhel pa
stra to
Ġgaze ton
Ġhal t
Ġemin enta
Ġslova ka
ci ÄĿis
Ġre kt
ĠA ktu
Ġmal vas
Ġinter no
Ġven tro
ĠKa tedralo
Ġses io
Ġklopo do
Ġmalpermes ita
Ġkvi eta
Ġtrapas is
man to
ĠAn ta
ĠKomun ista
Ġsan g
Ġsitu o
Ġden s
ĠÄīefe piskopo
Ġlim igoj
ĠAra baj
Peter burgo
G a
Ð ±
ĠM embro
Ġnaci ismo
In stru
Ġeli ras
B A
Ġk s
Ġli ge
ĠP ierre
Ġfar m
gan do
ĠMi lano
Ġ196 1
Ġbra koj
Ġmalvar m
o ku
ti ÄĿoj
Ġal paro
ĠS vitavy
Ġg el
Ġpe te
Ġkonta ktojn
201 1
Ġsupoz iganta
Ġsalu tas
ĠKore a
Ġoperaci umo
ĠWiki Trans
k m
Ġt ris
Ġli gna
Ġg amo
ini taj
Ġob sta
Ġpu ÅĿ
Ġcxiuj n
Ġisra ela
g aro
di t
ĠD r
ten egro
Ġ19 01
ĠRe zul
Ġforlas as
ĠAntaÅŃ e
Ġsor ton
Å į
ka o
Ġta pi
Ġno bel
Ġsci oj
Ġplen igi
Ġpartopren antojn
ĠUni on
ĠRo y
Ġprezento s
Ġrit mo
Cer te
G vineo
e y
e ven
Ġa eron
ĠM ed
ĠR ad
fer e
Ġnom atan
ĠÄīu ro
ser io
Ġprepar as
Ġron doj
Ġenspe zoj
ĠAbra ham
w ald
in en
Ġre don
âĢ ĺ
os aÅŃ
Ġprele gon
ĠmaÅĿ inoj
Ġaver aÄĿa
Ġpek oj
Ġbol ÅĿe
Ġekspedi cio
al to
Ġre ton
ĠP hi
bu ro
Ġakti vado
fri ko
Ġeni ro
Ġ195 3
Ġpubli kon
Ġkompro mis
M S
em is
ĠG uj
ver e
dan oj
Ġspeci f
Ġlas te
ĠFo undation
Ġmateri alojn
Ġteori oj
Ġtr ono
Ġsoli d
akti va
Ġrimarkin da
D L
Ġpo lan
ĠÄīi es
tu be
Ġsol voj
Ġve ter
Ġas is
Ġ192 6
ĠBu tano
Ġvalor ojn
200 9
ĠPan amo
ĠFu ku
p ris
ĠE mir
Ġsuper is
ĠMal supra
skul tu
Ġmenso go
Ġetn aj
e Äī
Ġ á
Ġo voj
ĠV I
ver boj
me co
Ġven dejoj
ling von
Ġmili taj
Ġaten tigas
Ġbata lon
Ġriver on
Ġbri lis
Ġaga dojn
ÅĻ ÃŃ
Ä¥i vo
ĠinaÅŃgu ro
O kaz
U EA
Ġ Ñģ
el j
ÅĿ tono
ĠA po
Ġpen d
Ġori ent
Ġperio doj
ĠaÅŃskul tas
ĠOrgani zaÄµo
ĠaÅŃton om
F un
ro po
ÅŃ ten
ko p
bo lo
Ġhom ajn
ado s
Ġge ome
stra te
tradu koj
, ,
Ã Ħ
Ġin dul
ran oj
du o
laj a
Ġkompren on
Ġliber igo
Ġride tis
ĠSri lanko
Î »
Ġi pernity
il d
Ġsek undoj
ĠÅľ tu
cer te
Ġde komence
Ġre form
ĠL ando
ĠÄīef ajn
ĠRe da
Ġmalri Äīeco
Ġaktu alaj
ĠUS D
H O
Ġne ÅŃ
Ġka ÅĿis
Ġkons cienco
Ġmor ta
Ġba tis
Ġmar nivelo
kom puti
Ġvoj ojn
Ġkur as
ĠAleks ander
Ġom aÄĿe
Ġukra ina
ar meo
Ġ19 13
Ġpa tri
Ġda tiÄĿas
Ġbon on
ĠW ind
Ġaten tu
ĠÅĿta lo
ĠMon tenegro
Ġfo kus
Ġamas e
Ġinten sa
kva lita
Ġpol vo
[ âĢ¦]
Ġen am
ĠT r
Ġfor Äµe
Ġku iri
ir kaux
Ġpres ita
Ġpatr inon
Ġgas o
foj a
ĠJor ge
Ġdistingi voj
n acia
Ġti mu
ĠL ub
Ġpatr ujo
Ġkomer cistoj
Ġprofi ti
Ġkvali fi
ĠMadagas karo
A mi
g xi
Ġsin ta
Ġspe gulo
tema lo
Ġisla manoj
Ġslova koj
I s
Ġi tin
Ġpor tu
kon traÅŃ
ĠF ami
Ġno toj
Ġfra p
Ġ9 5
Ġsal on
Ġdor mis
Ġprepar ita
Ġrea ki
Ġgrande gaj
Ġintele kt
Ġcivili zo
fami lio
T U
Ġen korp
ĠN ata
Ġman k
Ġhav igis
Ġregu laro
ĠEst us
Ġekkon is
' ll
K an
m ulo
Ġpre t
ĠJ amaj
Ġapar tajn
Ġkap tas
Ġinflu i
Ġkriti kis
t j
Ï Ħ
Ġla goj
Ġre ferenco
par on
Ġins u
Ġspeci ojn
Ġve turo
ĠGol fo
ĠĠĠĠĠĠĠĠĠĠĠĠĠĠĠĠ ĠĠĠĠĠĠĠĠĠĠĠĠĠĠĠĠ
ĠSekure co
ĠKaza Ä¥io
ĠS S
kon kurso
ĠVi zito
ali go
Ġrila ta
Ġ7 00
ĠMal granda
flu gis
Ġordin ar
Ġbalo tado
Ġhi p
Ġavanta ÄĿojn
ĠKongres a
Ġares tita
ĠWal ter
Ġte amoj
Ġsek von
pro kras
Ġkontro lis
bir doj
Ġa sek
lo kon
ĠF S
ol on
Ġkons pi
ĠKom ita
Ġju ÄĿo
Ġdona c
Ġinvi to
ĠpaÅĿ on
Ġeventu ala
f ara
Ġki lo
Ġo pozi
pren u
ĠEn landa
Ġpe ton
Ġgvi data
Ġpren ita
ĠJu ven
Ġnig ran
Ġdol Äīa
Ġner vo
w is
to ma
ĠS tre
Ġkun pre
Ġkom pen
no to
Ġci taÄµo
Ġsignif ojn
Ġadres oj
Ġkalku las
Ġmembr aro
Ġvidin daÄµoj
f eld
o d
s z
Ġli bre
ter no
Ġneni e
ĠMar x
daÅŃ ra
ĠX XX
Ġperio daÄµoj
ĠPara gvajo
Ġhim no
ti gado
Ġo pozicio
ĠP io
ĠT am
Ġang lo
Ġesplor istoj
ĠIsra elon
Ġinvers e
ta vo
ĠÄī inoj
ĠC is
Ã© e
Ġop tim
Ġvid vino
Ġkapab lojn
IN A
Ġseks umi
Ġreale co
Ġmalven ko
Ġtrej na
K vin
ĠD as
ĠÅĿi pon
ĠW as
ĠPor talo
Ġhal tigi
Ġega laj
Ġapro bita
Ġkategori igi
A C
c ka
de ma
Ġha ven
ĠPa pu
ĠJo Mo
Ġden tojn
201 3
Ġbalo to
ĠVa tikan
Ġreprodu kta
Ġtelevi da
Ġprovizor a
Ġprovizor e
T e
to v
ĠS tar
ĠlaÅŃ dire
Ġmo tivo
Ġparo lante
Ġkor tego
Ġkompren os
Ġce tero
Ġsigni fi
ĠÅĿta tan
ĠRo bin
Ġgrand ska
Ġeksplo do
Ġsova ÄĿa
Ġvikti mo
Gran da
Ġrubri ko
H er
b es
tis tojn
ĠH il
Ġamas on
ĠBo c
tina to
inter es
Ġtea traÄµo
Ġripe ti
Ġinform iÄĿi
Ġpromen i
Ġpal pe
bir do
ĠmalÄĿus ta
peran ta
Ġdi ino
tre to
Ġmala pro
Ġmala vanta
spe ci
ĠFran co
Ġmas ak
Ġhor on
Ġekle zi
d n
ta goj
Ġa stro
Ġak ces
Ġfin as
ĠDan k
ĠtaÅŃ gaj
Ġsom ere
Ġtermin on
f ado
Ġsi diÄĿis
ol ing
Ġor deno
Ġaldon an
ba t
ale s
Ġreda ktor
Ġobser vas
Ġcir klo
bre co
ĠSam uel
Ġlib ero
ĠCX ar
E ÅŃro
Ġi aj
ern ak
Ġbi ci
Ġler ta
Ġmesa ÄĿoj
Ġmalhel pis
× ķ
Ġ ).
ta bulo
ĠA risto
Ġse ÄĿo
ma don
Ġta ba
kti ko
Ġem eri
Ġkli entojn
teli taj
ĠFern ando
ĠJem eno
" ?
ÅĿ ojn
pre cipe
Ġfi del
Ġbri le
Ġamp lekso
Ġgrama tikaj
Ġmallar ÄĿa
Ġb er
Ġsi me
ve t
ĠC he
Ġrapi dan
ĠÃ ¸
Ġmod elon
Ġreda ktis
Ġesplor as
200 6
Ġbul teno
Ġornam ita
Ġsinsek vaj
Ġbabi lado
Ġes eo
gi aj
ck er
ĠmanÄĿ aÄµon
Ġorien taj
rigar d
Ġsekreta ri
Ġkr oni
Am eriko
Institu to
ĠMolda vio
K lubo
ĠG Ã¶
Ġpa ten
Ġno cioj
Ġpe z
Ġpren os
Ġfeli Äīon
Ġapo g
Ġprezidan ton
b ero
c c
s ing
ri l
Ġak voj
Ġfon tojn
Ġfun do
Ġfil ojn
Ġkonser vado
ĠFon daÄµo
Ġsab ate
Ġbas ton
ĠTrans ilvanio
Ġnukle aj
kole kto
Ġgel ern
B O
V enon
ĠM y
Ġpro vu
ĠB eli
ĠU gando
Ġno tis
Ġkro ata
Ġflu ti
Ġimp reso
Ġokup iÄĿi
Ġembar as
ĠFried rich
s at
in kluzive
ĠA h
ajn a
Ġdi k
Ġmo do
Ġiom a
Ġlu don
ĠvoÄī dono
ĠKru co
ĀĀĀĀĀĀĀĀĀĀĀĀĀĀĀĀ ĀĀĀĀĀĀĀĀĀĀĀĀĀĀĀĀ
ĠBandar Q
o kaz
Ġb eb
Ġpo lojn
Ġpre ven
ĠF ron
Ġsen ar
ki on
ni ca
Ġaten tigi
kon tra
Ġmin us
Ġrenkon to
Ġprakti kas
Ġordon on
Ġvoja ÄĿas
Ġparla menta
ĠSal vadoro
ĠPla co
Ġsuver en
x a
Ġf ia
ran ko
lu b
ĠÄĪ a
gra da
Ġvo kas
Ġmor tigita
ĠMa lantaÅŃ
Ġpi an
vor tojn
ĠÐ ½
ĠIntern acian
Ġefi kas
ĠTa ÄĿi
ĠCen tr
Ġ195 5
Ġrekon i
ĠGron lando
ĠGva temalo
i va
p df
Ġti r
Ġkam pon
tun e
Ġvali di
Ġunuo pa
Ġinstruis tino
ĠBona ero
Ġpafmor tigis
g run
en kov
ĠVi kimedia
Ġkomen con
Ġmis i
Ġaran ÄĿita
Ġinten se
Ã¤ n
ĠLin k
Ġescep toj
Ġkomunum aro
F o
c ina
f el
g ine
h oro
ĠK ura
ĠE EU
ig ajn
Ġha ve
Ġkre deble
Ġfi ki
Ġ194 3
Ġvali da
Ġarm ilojn
ĠEr n
Ġtrar igar
Ġburo kra
ĠJamaj ko
V E
h aÅŃ
n una
ĠL KK
ĠA men
vis toj
âĢĿ )
Ġserio zaj
fra to
Ġforma la
igh t
Ġfron te
S cript
ka pabla
Ġven t
ÄĿa don
ĠNa tura
Ġdor mas
Ġdosier on
200 8
ĠES PERANTO
Ġfek un
Û Į
ĠM iguel
ĠA tribu
Ġper sa
ĠD enove
Ġven dejo
ĠAn golo
Ġlin ion
Ġplan lingvo
Ġkapab laj
ĠMo zambi
ĠMos kva
Ġeten di
Ġeksperi mento
ĠKas telo
ĠFrank fur
C on
i pernity
us ence
de ci
ĠO pen
Ġtro tu
Ġlan go
ĠIn dekso
Ġvo kalo
Ġam ori
Ġparola doj
Ġenke to
Ġtenden coj
ĠTea tro
ĠKambo ÄĿo
e don
Ġvi vaj
pro fes
et h
Ġna z
Ġmals ame
ĠGi orgio
C A
Ë Ī
vi vis
ma tiko
tro pi
ĠC al
Ġmulte ge
ĠSa haro
ĠRi vero
Ġdetru o
Ġagnos kita
Ġgri z
Ġbor doj
ĠJac ques
B al
z ek
Ġi ra
ĠA si
Ġtra ktis
ĠMi chel
pu ra
Ġci tas
Ġve turilo
Ġapo gas
Ġvaria Äµoj
Ġkonkre taj
Ġâĸ º
S em
Ġe go
Ġre taj
Ġmal ÅĿa
ĠLa u
Ġpar ado
Ġor bi
Ġko li
Ġfi dinda
ĠÅ ¬
Ġdezi roj
Ġmuzi kisto
Ġreda k
Ġcx irkaux
Ġdefen dis
ĠTra di
ĠÄīes igi
produ ktado
Ġnekon ataj
ĠAmi ko
E O
on aj
Ġa kura
Ġre alaj
ran kvi
ĠÄīiu okaze
Ġcen troj
Ġkar t
Ġ0 24
Ġprofun do
ĠHel sin
D a
b os
p y
Ġen u
Ġel fos
Ġpre si
Ġar Ä¥
ĠO to
âĢĿ ).
Ġtri ono
Ġkan tono
Ġplan ojn
Ġdisting o
ĠMan if
Afri ka
ðŁĺ¨ðŁĺ¨ ðŁĺ¨ðŁĺ¨
e oj
ĠB ras
Ġek ri
mp oj
Ġevolu igi
Ġefi koj
Ð¾ ÑĢ
Ġscen oj
ĠKri meo
ĠmalriÄī uloj
Ġdiskrimin acio
wit ter
3 00
Ġa zen
Ġali ris
Ġeks hibicio
Ġaldon ante
Ġpron omo
ĠVen u
Ġsalu tis
Ġavan gar
ĠTrin i
% ,
s ulo
Ġo ceano
de fen
ĠkontraÅŃ bata
ĠUnu iÄĿinta
Ġcivi l
Ġscen o
Ġmovi ÄĿas
Ġabun de
T R
T ER
b eno
s igno
Ġti mig
Ġkun vo
Ġko ali
Ġpen tra
Ġplen dis
Ġdan ki
gita n
ĠRus lando
proksi me
Ġposed antoj
Ġakompan as
tari ko
Ġato m
Ġastron omo
Ġhospita lo
haus en
âĢ ĭ
Ġeks pon
ĠMar ie
Ġtiam aj
ĠÄīirkaÅŃ e
Ġeven tojn
Ġimp ul
ĠBah Ã¡
Ġvok aloj
ĠÄµa zo
ĠNami bio
ĠMozambi ko
% .
Ġa daptita
Ġli gojn
ĠM Ã¼
ĠI sa
ern e
Ġci coj
ĠPa tr
vor ton
Ġhej mon
ÅĿi p
ãģ ®
Ġfian Äī
ĠSene galo
ĠTuni zio
a ki
s che
u ch
v d
ĠE L
em ia
tu do
ĠI V
Ġpen o
Ġfin aÄµo
tre o
Ġmuzi kaj
Ġon klo
Ġmallong igo
Ġmid zi
en g
di ro
Ġar ÄĿen
Ġsin joroj
Ġsin ago
Ġci co
Ki om
far ejo
Ġiam aj
Ġ195 2
Ġmiks aÄµo
ĠfraÅŃ l
ĠSinjor ino
ti en
om ojn
Ġkons tern
labor is
Ġves tita
br un
Ġespri mojn
ĠkaÅŃ zita
Ġdiman Äīe
ĠDeklara cio
h ora
Ġdis par
ga la
Ġme talo
kul turaj
Ġkul pas
Ġcen z
Ġnaci ajn
Ġmis tera
Ġpoten caj
ĠÐ ¡
ĠPre ÄĿejo
ĠDan ke
Ġkov r
Ġdoni taj
ĠRu ando
Ġado les
Neni u
Ġtu taj
ĠVi c
Ġfi don
son aj
Ġmemor on
Ġfing ro
Ġse kaj
ĠN enio
iÄĿ adis
ĠF e
ĠH ero
Ġdu bo
Ġno kta
rus e
Ġpu goj
Ġprofes io
cern e
Ġpri zono
ve c
pa go
Ġka bin
tor aj
Ġkri moj
Ġaso cion
ĠKol on
ĠEdu kado
ĠaÄī et
ĠIst vÃ¡n
ĠKamer uno
Ġkom i
Ġte oria
ĠC y
Ġar gen
ĠÅĿi ajn
Ġmar ki
ĠSi mon
Ġsilen tis
Ġparola don
Ġavanta ÄĿo
Ġekzempl ojn
Ġromp is
Ġful mo
Ġkondamn ita
ĠJuven tus
V V
om bo
ĠI ma
Ġinter ple
Ġpre tigi
ca ya
Ġsci vo
Ġflu gis
Ġsubten antoj
Ġedu k
ĠKor tumo
Ġampleks as
ĠMem broj
ĠMem briÄĿi
Ġretpo ÅĿ
ĠKos tariko
scien ca
Ġspon tan
Äī ilo
Ġper i
Ġek funkci
Ġali ÄĿo
Ġfar oj
ĠKon ser
Ġjun eco
Ġkonsider ante
ÅĿi poj
Ġtag man
poli tiko
Ġera o
n ojn
ma taj
tri taj
ĠÂ ĵ
Ġparo lanto
Ġkap tita
Ġ13 0
Ġelekto s
ell s
ĠTrini dado
D io
m uni
ta cio
Ġne pra
va Script
Ġri Äīeco
Ġblo goj
ĠDan iel
Ġmer kre
Ġbab ili
ĠHon duro
Ġvio lon
Ġglute oj
ĠUzbek io
ĠEmir landoj
g g
er ia
en tan
Ġal kla
ĠÄīi esulino
pa ÅĿ
no logio
Ġle gos
Ġofici ro
Ġtab l
Ġkondam ni
Ġemfa zas
Ġjubile o
A ten
t ch
Ġi z
ĠS ES
Ġno velo
Ġven igis
Ġci klo
hi en
Ġpi Äīo
Ġsper taj
Ġmond mapo
Ġanon cas
Ġrevolu ci
Ġfro ma
Ġmalsanu lejo
Ġm ed
Ġf est
Ġt h
ĠG vi
Ġtra fas
Ġra ba
Ġfa ktoro
ec t
Ġdezi rus
ĠÃ ¢
Ġesplor isto
Ġr ul
Ġgaranti i
Ġglute o
ĠTesta mento
c xi
Ġ oj
la taj
Ġde post
ĠK ER
de ven
ven dejo
ĠAl bert
ĠMa k
ĠFran caj
Ġim post
val or
Ġarme oj
Ġobjek ton
ĠSove tio
Ġrespekti vaj
ĠProjek ta
P ala
i den
o fici
di r
ĠLa oso
ĠI ru
Ġri din
ber ia
Ġko kri
Ġkomen ti
Ġform ulo
Ġ189 0
Ġsinsek vo
Ġfanta zi
kie wicz
ĠteÄ¥ ni
I F
ĠC ho
Ġme tal
Ġsuper rigar
ĠloÄĿ loko
Ġspeci fita
tiga ta
ĠKas tilio
Ġkolon io
ur boj
ĠS anta
ĠÄīi elon
Ġpi ano
ĠTo ba
Ġokul vi
Ġteritor iojn
Ġhero oj
ĠJako bo
Ġde kor
ÄĿ ajn
ĠA kvo
Ġunu oj
ma le
Ġkol oron
Ġmona ton
Ġreda kt
Ġhon ore
Ġer ojn
ãĥ ¼
ĠÄīeÄ¥ aj
Ġinsek toj
Ġkon venas
Ġsu den
tra di
Ġpa ÅĿis
ĠO ber
pan te
Ġero tismo
Ġelsta ras
Ġsh ang
Ġvizitan tojn
Ġkapi tula
in ing
re volu
Ġv oje
ĠÄī eno
es io
Ġin a
dis trikto
Ġmem bri
Ġsa kra
ĠPor tala
Ġaser ti
Ġvalor aj
ĠSte fano
Ġkavali r
Ġmat Äīo
in dan
Ġel pe
Ġek lernis
Ġlo s
Ġsa lo
Ġregis tara
Ġinstru adon
ĠDu on
Ġlitera turaj
ĠOr deno
Ġpaci entoj
Ġtrajn oj
Ġentuzias mo
Ġj uris
Ġpro gno
ĠO ficiala
lik an
Ġsufi Äīan
Ġhon este
ak cep
ĠRa pi
Ġepo koj
Ġmuze on
T eks
Ġe tajn
ti ÄĿu
da tigita
ÄĿa taj
Ġge filoj
Ġkonsider u
ĠKo le
Ġkal um
ĠTo pic
Ġroman on
Ġspiri t
Ġpan jo
Ġmalsukces is
ĠMaj stro
ĠKir gi
San kta
ĠInvers igu
f oni
Ġno to
ĠVi ktor
ĠO kciden
Ġforges as
Ã¡n dez
Ġtab ernak
Ġmalrapi da
ĠScien coj
ĠMeksi ka
Ġlingvis to
Ġmid zo
Ġadvo kato
n eto
li tan
ĠMi r
ĠPo vas
fo li
Ġpi Äīoj
Ġnu daÄµo
ĠÃ Ħ
Ġrespe ktas
Ġfes tis
ĠOkaz is
ĠItal ujo
S O
g hi
w ska
te ton
Ġdi e
Ġno ti
ĠO k
cen ton
Ġmar kita
Ġekster lando
Ġuti lajn
Ġses deknaÅŃi
Ġripo zo
Ġen kar
Ġki ajn
Ġre ÄĿon
Ġg ek
dan tojn
Ġlan gumi
Ġba t
ĠMa lio
ĠPro du
Ġevi tas
Ġhon esta
Ġcir ku
Ġima gas
Ġkalkul is
Ġplimul ton
Ġmame go
Ġmame goj
. âĢĶ
j en
Ġb ebo
de ta
Äµ aro
ĠF ara
pa ca
ĠTi an
Ġtre m
pl ene
Ġvar iaj
ĠSeb as
i anoj
Ġa le
ri go
per as
ĠP ren
ĠD ub
ĠI vo
bor do
Ġdev igita
ĠAr to
Ġscien ce
Ġbata las
ĠVer sio
ĠY ork
ĠLon g
Ġliver i
____ ____
V ir
f eto
t ta
li kaj
ĠÄī in
kon ata
Ġman kon
Ġpoli c
Ġfil meto
ĠdaÅŃ ros
Ġkro man
Ġ8 5
Ġkonsi lio
Ð° Ð½
Ġmalpermes as
Ġagra blan
Ġs um
ti ca
po v
ĠF is
ĠG DR
Ġsan kti
Ġeldon oj
ĠLe ono
Ġata ki
ĠLon don
Ġlingvis toj
ĠJesu on
as t
ru e
Ġfar iÄĿu
Ġno bla
Ġnor m
Ġuni kan
Ġbu tonon
scien co
Ġmid zumo
Ġafab la
Ġkuire jo
K I
K re
Ġn eri
lu doj
Ġha vaÄµo
Ġka ta
Ġar ticle
par ton
Ġvo lu
et z
ori e
Ġekster landa
Ġnu bo
Ġrapor tojn
ĠserÄī ante
ĠFo iro
ĠKu vaj
ĠJun g
Ġokazon ta
Ġdeven aÄµon
Ġneo logis
lov skij
t ti
Ġ ^
Ġre zi
Ġpen as
br ajn
Ġkar dina
Ġ193 5
Ġkarakteri zas
Ġekstre m
Ġplez ur
ĠHom aj
Ġne po
per caya
Ġg eno
us s
ĠG and
Ġka du
Ġma terio
ras truk
Ġren ask
Ġkro ma
ĠaÅŃskul tu
ĠSer ge
Ġrime don
eso to
ĠPoli tiko
ĠPaci fiko
ti ÄĿos
de go
ĠÅĿ pru
gan tan
Ġven en
Ġko dojn
bur gio
ĠSu pera
Ġmina cas
T ag
w an
ĠA pen
Ġse moj
pe c
ĠaÅŃ diÄĿis
ĠVi la
Ġra ci
ĠAl menaÅŃ
c ks
ÄĿis to
Ġter oris
Ġpartopren anto
Ġbezon ataj
Ġbo v
ĠvoÄī doni
Ġtrin kis
ĠLen in
b lon
ĠK E
for ta
Ġdeta la
titu do
ĠSa uda
ĠLu is
int us
Ġ; )
Ġreprezen tis
Ã¤ r
ĠKul tur
Ġmira klo
Sin joro
p ton
Ġes te
ĠK ub
ĠF ind
Äīe f
ĠMar io
Ġfra ton
Ġscien can
Ġbu ÄĿe
Ġkunlabor e
Ġvas taj
ĠSud ameriko
inde x
Ġsendepende con
ãĢ Ĥ
ĠFal k
Ġkon ce
ĠÄĿ erman
man taj
Ġbon vena
ĠAn a
Ġating ita
Ġban k
Ġknab on
Ġmeto dojn
radi k
ĠVoj aÄĿo
Ġfilozofi aj
ĠGuj ano
Ġ zonoj
Ġa c
Ġmal plej
Ġper tur
Ġfor bru
Ti e
Ġuti ligas
fon to
ĠNa turo
ĠFa koj
Ġbur ÄĿa
Ġrekla mo
ĠFra kcioj
Ġbr una
Ġgratu las
K ri
S peci
Ġ ..
Ġs umon
Ġpens u
ĠUnivers ita
ban do
inter faco
ĠvoÄīdon is
Ġintele kta
ĠFeli Äīe
Ġk ami
in er
Ġa i
Ġa us
Ġen ten
Ġne videbla
Ġka pa
Ġokaz u
Ġindi gn
Ġ9 78
ĠÄµurn aloj
Ġlerno libroj
ĠSem ajno
ĠGub ernio
Voj aÄĿo
u kso
Ġs aÅŃ
li r
ci go
es anco
Ġmi tologio
ĠA zor
Ġsub skribo
Ġesti ÄĿas
Ġbri toj
IN O
Ek zemple
Ġpose do
Ġteori e
Ġkomb ino
ĠPapu o
Ġes tanta
Ġen s
Ġne esperan
ĠD oro
Ġali igas
ca don
Ġtie a
ĠÅ »
ĠMa ksi
ne ÅŃtra
ĠÄĿoj is
Ġkvadra taj
è¡ĢèĺĩæľĪè¡ĢèĺĩæľĪ è¡ĢèĺĩæľĪè¡ĢèĺĩæľĪ
Ġguberni estro
m el
Ġ q
Äµ enkov
ĠÅĿ aÅŃ
ĠN ATO
ga Äµo
Ġver soj
ĠKi uj
Ġdispon o
cen o
cen co
Ġdon ante
ĠEÅŃro paj
Ġer are
Ġapro bo
Ġaktiv ulo
ĠfraÅŃ lino
Ġnego co
ĠZam bio
Ġgita ro
r ho
le ma
ĠL F
Ġkon ton
ĠB ala
il la
Ġlo kajn
Ġsuper i
Ġvar marko
Ġpra va
Ġrea goj
Ġreali gis
Ġgre kaj
ĠPi ron
Ġkonvers aci
Ġbla zono
Ġalkoho lo
ĠÅľanh ajo
a c
ci ita
tu ko
Ġ7 2
Ġkonsi dero
Ġ15 00
Ġvidpun ktoj
Ġimpos toj
re o
Ġ19 15
Ġpa vi
Ġpost tagme
tribu tion
Ġcer tigas
Ġer ara
Ġestr aron
Ġdifin is
ĠAmeri can
ĠKristnas ko
lan dajn
Ġra bo
ksi do
ĠKon stru
Ġci lin
Ġfon e
ĠAl t
Ġmulte kosta
Ġkur b
ĠÄĪe fe
Ġkunlabor ado
ĠTo po
ĠBon venon
Ġfilozo fia
Ġkomputi lon
Ñģ Ðº
http s
Ġf ana
Ġne kla
Ġmal kom
ce to
ĠH ere
Ġlabor isto
Ġpe zaj
Ġbu ÅĿon
Ġmez ur
Ġklasi kaj
Ġfrene za
Ġprole taro
tebr uloj
Ä ¤
ro v
Ġre v
Ġdis doni
ĠÄīiu foje
Ġmar ÅĿis
kur son
Ġperio don
ĠWil hel
Ġerar as
Ġargumen tojn
Ġdro go
Ġf aro
ĠP rem
ĠO bser
ĠBa ha
Ġrea lan
sk Ã½
Ġkolekti va
Ġorgan ismo
! ).
b loj
Ġl oj
de blaj
Ġdi ame
ĠF AR
ĠG ren
Ġba ha
Ġvir ojn
ĠEl don
Ġkonfes as
Ġprodukta don
l ujo
u er
á ĥ
is tan
Ġf legis
Ġha veblas
Ġkons isto
ĠKomun a
Ġtur koj
tras te
Ġkontro las
ĠGran daj
ĠOri gin
Ġkonfes i
Venon ta
a tribuite
ali igi
Ġmar kis
ĠAr Ä¥ivo
ĠAm ster
Ġalt nive
Ġjapan oj
ĠEkonom ia
Ġfakul tato
/ .
b estro
aj xo
ĠK lo
ĠÅĿ nu
ing hien
ma d
ĠAn der
Ġsek vu
Ġfun goj
Ġrenkonti ÄĿas
201 7
ĠpreÄĿ ejon
Ġinicia tis
hon e
Ġabun das
ĠvilaÄĿ anoj
Ġepizo do
C o
pa ce
so ft
ĠTi moro
Ġlabor ejo
Ġkul po
anu a
Ġprote ktas
Ġpira mi
Ġne ima
ran tan
kon sen
mo toro
Ġsen fina
ĠJ in
Ġfa ÅĿis
ĠJu li
ĠRa fa
Ġefi keco
Ġsubstan tivoj
Ġadop tis
Tra du
opini e
R iko
T ro
h ero
i x
an galo
am an
tan taro
ĠR imar
Ġfor mu
ni e
ĠlaÅŃ t
Ġpoliti koj
ign oj
ĠMul t
ĠBah amoj
ĠRegis taro
S R
e konom
ton e
ĠD ro
ze jo
Ġkol onoj
Ġminis terio
Ġripe tas
Ali aj
ĠBud ho
ĠMalfer ma
vi za
Ġmal tra
ĠF A
uz oj
dis ko
Ġkons cia
ĠantaÅŃ eni
Ġnun e
Ġmor tigitaj
ĠKon tro
ĠMa ps
Ġnu traÄµo
Ġsol vojn
Ġfer mi
Ġevolu igo
Ġpromes as
Ġmiks ita
Ġdikta turo
Ġadjek tivo
M I
T uj
e du
j ana
Ġm eb
Ġn arko
âĢ °
Ġide ala
Ġvar maj
Ġami kon
ĠÅľ ajne
Ġhar monio
Ġskla vo
Ġperfor te
ĠCez aro
Ġape la
c ra
Ġan as
Ġmor alo
Ġedu ka
Ġfabri kado
German io
Ġdeputi toj
ĠBrun ejo
p ran
aci Ã³n
tra dio
Ġelek tr
Ġcx io
Ġgrama tikon
Ġelsen doj
Ġdesegn ita
aspe caj
ĠApri lo
or ig
Ġne ordin
ig ebla
vi c
Ġmon umen
Ġka li
Ġda toj
-- -
ĠFon to
Tem as
ĠTaÄĿi kio
ĠToba go
B ri
K u
Ġa bor
ĠV el
vin tus
Ġvizi ton
Ġbi ciklo
Ġkondu ton
Ġmodern an
konstru ita
Ġavanta ÄĿon
Ġebli gante
ĠGab ri
or n
Ġki ras
ĠÄīi um
ĠT ul
Ġce lante
Ġpi k
Ġprezi den
Ġskla v
Ġhazar da
ĠmonaÄ¥ oj
Ġalterna tivo
Ġrecen zo
ĠRej no
Äľis datigita
ĠBoc vano
a ko
Ġa vino
Ġne bulo
Ġvi coj
Äµ eti
Ġeks kluzi
Ġlabor ojn
inter facon
Ġindustri aj
fin ita
ĠSub ite
Ġinteligen ta
Be daÅŃrinde
Ġkorid oro
lo ka
Ġmal vir
de oj
Ġsub ita
Ġsukces oj
Ġfo lio
Ġkomer cisto
liber a
Ġbab ila
ĠLas te
I u
s kri
Ġpri ta
ĠB io
Ġmon tetoj
Ġpartopren intoj
ĠSen naci
ĠBon an
ĠSur inamo
Ġbrus ton
ĠPu erto
Ġmam uloj
ĠBeli zo
I G
I r
Ġla ca
po zio
ĠC xi
Ġpar on
Ġta ble
ĠKon ven
ĠEk va
Ġkam para
tes to
gh oj
Ġmedi on
Ġrea gis
Ġaga d
Ġtutmon daj
Ġkonten t
ĠTh onon
ĠUr ba
Ġtab lon
s p
man ÄĿ
tor e
tor y
Ġaper igi
Ġurbo domo
Ġkompren u
Ġmala pero
Ġperson eco
Ġkonsider ita
Ġfeder acio
Ġservi lo
ĠÄĿisda tigita
Ġsele ktado
ĠKana da
Ġfrun to
ĠEri treo
ĠEven tualaj
t ten
el is
Ġl ist
ĠJ anuaro
ĠLi an
Ġvin tre
Ġfil inoj
ĠPro ksi
Ġviza ÄĿoj
200 7
Ġrekomen do
Ġkontin enta
ĠHe in
Ġfoli um
Ġelpens is
r ing
Ġk esto
Ġre ten
vis mo
Ġ19 16
Ġven kon
Ġmalmul tajn
ĠeÅŃro pan
Ġaktu ale
Ġaver tis
gor it
Ġmarks ismo
i b
Ġa Äµojn
Ġen sem
Ġne tuÅĿ
Ġ( Â«
Ġo sta
ĠA las
Ġel kres
Ġdi rita
ĠD in
Ġsen pere
Ġmon ton
tr us
ĠW el
rus a
Ġsa ti
Ġstu dojn
Ġsimp to
Ġoku pi
Ġproksime co
ĠKor Äµenkov
ĠKonsi lantaro
lari um
i j
un de
Ġf us
Ġdis koj
Ġdispon eb
Ġtradi cion
Ġfen estr
Ġprogram ero
Ġprizor gas
Ġaktive coj
Ġmalfeli Äīo
I U
Ġs tro
li ÄĿi
lej on
ke don
Ġeks pan
Ġvin tra
ĠAr tikolo
Ġgen roj
ĠTem po
ĠmallaÅŃ te
Hun gario
Ġkardina lo
K ale
d ler
p rojekto
la Äµojn
Ġk amen
Ġal um
eb er
Ġfor mul
Ġkons ilojn
âĢĿ :
far i
Ġtradi cian
ĠFo toj
hor lo
Ġbonven igas
ĠOS M
L ER
en daj
Ġin jek
ĠS tras
Ġpro pre
Ġsen ditaj
tr y
Ġtu tajn
Ġlo gx
Ġem er
ĠAtlan tiko
p raj
z ano
ti pa
Ġf los
ĠI R
kan alo
Ġindi koj
Ġprofes oroj
ĠmanÄĿ aÄµojn
Ġsti loj
Ġiden tecon
Ġmalpermes o
ĠEks pozicio
ãĤ «
Ġkir ur
Ġhelpan toj
A F
G S
Ð ķ
ä ½
Ġa lar
re con
Ġv u
Ġpor doj
ĠR em
Ġdu bin
Ġaplik as
Ġju ÄĿi
Vi kipedion
ĠBra tis
Ġregn on
Ġkomencan tojn
Ġmal pra
Ġri ve
for mon
Ġven kas
Ġsci igi
Ġ201 9
Ġter uraj
ĠÄľi aj
Ġna zi
Ġna zia
Ġmen son
Ġkres ki
ĠNa tional
gh y
Ġsufer o
kato lika
Ġdeks tren
ãĥ ĳ
kura ÄĿ
ĠVo lapu
fil umo
Ġprun te
rho den
U L
Ġkon di
ÅĿ ita
Ġmi lojn
Ġven d
Ġsek vos
ut sch
Ġsper ti
Ġ190 4
Ġripe tis
Ġdese gni
Ġinterkonsen ton
Ġato mb
Ġdro goj
O kaze
an io
ul inon
Ġsen prokras
Ġkre du
ĠW h
ĠKon f
Ġkompa t
klas o
Ġelmon tri
Ġrobo to
Ġimpli cas
Ã§o is
Ġa men
Ġre tradukoj
Ġmo viÄĿo
ĠAn tik
pen e
Sam e
wi ec
Ġetern an
ĠAleksand r
ĠVol ley
Ġinterkonsen tis
Jo h
ĠNiko laj
Ġb ala
ĠE bur
ĠP el
ĠV aj
ĠI K
Ġinter veno
Ġ4 80
Li cenco
cx oj
Ġon klino
Ġkru da
ĠÄĿoj on
Ġinvi ti
ĠMul te
ilu zi
ĠRemo val
M P
Ġa fek
Äī es
da ur
ĠR ss
fi ks
Ġsa ÄĿo
Ġgrand urbo
Ġdiferen caj
Ġsup ran
Ġblin da
Sek cio
ĠStel larium
ĠKuvaj to
U B
h io
pre mio
Ġneces us
val on
ĠVin cent
ĠVes per
ĠtaÄī mentoj
ĠAtribu te
ĠS ti
de ka
Ġak toroj
Ġkla raj
Ġnu traÄµoj
ĠMe ta
Ġbata lantoj
Ġmemor is
Ġkunlabor anto
Ġflor ojn
Ġsx ang
Ġnordo kcidente
ĠantaÅŃen igi
ĠLand sat
# ?
la go
Ġek zilo
ven ant
Ġplu ra
Ġrila tis
gos lovskij
Ġ0 8
Ġsim ilis
Ġsufer oj
ĠÅĿanÄĿ ita
Ġ190 3
Ġran gon
kap ita
ĠQ ui
ĠAt tribution
ĠBre tonio
anua tuo
I am
U nio
n ing
t ha
Ġp aj
Ġre fer
di an
Ġ4 50
ĠÅľ tatoj
Ġdif inoj
kos te
Ġfinan ce
a ti
e po
z ata
Ã »
Ġo pero
tu li
ĠD VD
vers io
si oj
ĠkondiÄī e
Ġna ÄĿ
Ġprezen tiÄĿis
fon so
Ġus e
Ġdekla ri
Ġhal tejo
Ġturn as
Ġmeze po
ĠKata ro
Ġforpas o
ĠJud ujo
B ordo
b ino
Ġg is
ĠP L
ĠT E
Ġali ri
Ġmon tru
Ġfar tas
Ġbo voj
kar toj
Ġkru ele
Ġrespe kton
Ġordon oj
Ġproce do
ĠÄīiuta gaj
Ġnorma laj
Ġgrun don
Ġpale stina
Ġtavo loj
Ġaktor ino
litera turo
â ĵ
Ġa ÄĿaj
Ġf aÅŃ
ka la
de ca
Ġdu ona
ĠO kaze
Ġofi co
Ġfer mitaj
Ġespl ora
Ġdire kt
Ġani moj
Å¡ ek
teria lo
ĠÄ¥ a
Ġveturi loj
Ġregn oj
ĠChris tian
D ek
on bul
Ġf is
ka i
ĠA teno
ĠP ere
ol oj
Ġta bu
Ġta bulo
tem pon
Ġsan on
at h
Ġgerman lingva
Ġvian don
ĠAÅŃ ton
ÃŃ k
Ġprovin ca
ĠÄĪar to
Ġcir kvi
Ðµ ÑĢ
ĠHer oldo
Ġduo ble
Ġfe ÅŃ
âĹ Ħ
ĠAzor ÃŃn
in eto
Ġkaj o
Ġi di
Ġse tle
ed ojn
Ġuz antojn
Ġmili tista
Ġdisku tado
kar do
Ġprele gojn
Ġplenum ado
Ġekvi li
ĠEÅŃ geno
n elonge
å ¸
ti es
ra Äµoj
Ġb os
Ġpri zon
ĠT es
Ġeble cojn
Ġfi ksitaj
ĠSo ft
ĠRo berto
ĠÄīes as
ĠKol um
Ġpose di
Ġmalproksi maj
Unu a
Ġabun da
ĠTeri torioj
×Ļ ×
H e
T er
ĠE N
ĠEs pl
Ġfor mado
Ġcen tron
Ġdef aÅŃl
Ġrapor ti
Ġfinan ci
ĠLing voj
Ġsign on
Ġinsta lis
Ġplez uron
Ġorto grafio
Ġsekure con
ĠFlor enco
Ġjubile a
Ġvidpun kton
b ejo
u le
ĠS kan
vi er
ĠF lan
Ġtrans skrib
Ġaspe ktojn
Ġkonklu dis
Ġminim uma
ĠNiÄĿ ero
Ġplat formo
Ġf res
ĠN er
ve con
ren ia
pre m
Ġindi kita
Ġinklu de
Ġmur dita
proble moj
e lan
g acio
ka pa
Ġpost ulojn
Ġmo la
Ġsufi Äīis
Ġreprezen ti
Ġporde goj
ĠRein hard
, âĢĶ
Ġf ata
Ġkun fon
ĠB ill
pa ÄĿa
Ġsub spe
Ġbon vole
Ġsam on
kom pan
ĠloÄĿ ejon
Ġtur ismaj
ĠDu e
Ġsubskrib ita
Ġgelern antoj
Ġa si
Ġmi grado
Ġpri deman
ĠD eb
ĠÄīe lo
Ġres en
ĠEÅŃro p
Ġsetle jo
P rin
on ta
ĠV anuatuo
uz as
ki to
Ġres p
Ġfi ÅĿo
Ġdispon eblaj
Ġins pe
ad re
Ġspeci fan
ĠpaÅŃ zo
Ling va
Ġinfana ÄĿo
win ki
Ġkapitalis ma
glis h
ĠKirgi zio
ĠFind vej
J O
b reto
n eni
ti ano
Ġsu ker
las i
Ġfor iras
ĠO ktobro
ab el
se e
Ġofi cis
KO N
Ġlonge co
lar ojn
ĠÅĿar ÄĿo
ĠGam bio
I uj
ï ¸
ĠA parte
ej aj
Ã¡ k
ĠÄīiam aj
Ġevolu igis
tik ano
ĠBa den
ĠJe hu
Ġdokumen ta
Ġtab loj
ĠFer din
an ino
Äī irkaÅŃ
om ia
ĠS tri
ig xo
ĠF land
Ġsub ÅĿtato
ĠInter tempe
Ġkal end
ĠÄīees ton
Ġturn iÄĿis
Ġtekni koj
Ð½ Ð°
Ġdra mo
ĠBab el
Ġnega tiva
) âĢİ
k lando
ĠL uno
ĠG es
ĠC ro
za k
ha vaj
Ġro koj
Ġtradu kistoj
Ġposte uloj
Ġkura ÄĿis
ele k
ĠaÄīe tas
ĠTiuj n
ĠCo un
Ġkonson anto
provi zo
Ġsudori enta
ĠAndro id
Ø ¯
li gu
un blog
Ġo pon
dis tan
Ġar taj
mar k
cx as
Ġprofi ton
Ġinicia toj
ĠScien co
ĠVil no
Ġinven tis
ĠBus h
c le
g ento
l Ã³
Ġn ud
ĠS van
zi lando
Ġfor igitaj
Ġgran do
ab lo
Ġlu ktas
Ġ6 3
ĠÄµ eti
ĠIli aj
Ġkar ieron
Ġet na
Ġgeed zoj
Ġpripens is
Ġparale le
ĠMag gi
Ġeksi dis
b esto
u ÅĿ
Ġn ene
ĠR y
Ġmar koj
ĠAl b
aran ÄĿoj
ph rey
Ġmalfacila Äµojn
No to
Ġpropor cio
ĠSalom onoj
z hou
es k
ĠL esoto
Ġek dor
ve ta
ĠR oma
Ġkro kodi
ĠEÅŃro pon
Ġves taÄµoj
Ġval uto
Ġdisku tas
Ġreda ktojn
Ġbru lo
ĠBri tujo
kin toj
ĠBu dap
rapi d
Ġeko logia
Ġhipo kri
ĠBr no
R es
r ino
Ġp int
Ġen reta
Ġti mi
Ġre vela
st ran
ĠH ind
ĠMi Ä¥a
Ġmul ta
kti ka
Ġesperan tajn
Ġkomun ajn
Ġinklu dis
ĠÅĿlos il
ĠPrezi dento
Ġmalagra bla
I om
R en
o la
t Ã©
ĠÅĿ losi
Ġka te
Ġdeta laj
Ġna zo
ĠmalantaÅŃ en
Ġkonklu di
Ġkampan jon
ach im
? Â»
Ġv ak
Ġre ga
ĠM O
ĠG run
Ġdis sol
Ġeks entis
mon a
Ġsek voj
Ġ18 0
Ġrezul tan
ĠaÅŃskul tantoj
Ġata kojn
ĠMala vio
Ġdelegi to
hun gar
M or
P I
h omo
Â ª
Ġe fem
in is
don g
ĠD un
ĠG usta
ĠJ Ã³
Ġfar uno
Ġling ve
Ġuz anta
Ġaper u
Ġdeci da
Ġpopo laj
ĠBo goslovskij
Ġproce zon
Ġvek iÄĿis
ĠinaÅŃ g
ĠjuÄĿis to
ĠSva zilando
Ġb in
tis tino
ĠÄīi us
ĠN ome
Ġsen iluzi
erman n
Ġnov eloj
Ġakcep tebla
gx a
Ġses dek
Ġlar ÄĿaj
Ġradio akti
Ġanarki istoj
Ġdelegi toj
gaze to
ĠFundamen ta
? !
m ora
Ġh u
Ġsu daj
Ġle ono
Ġres ur
âĢĿ ),
Ġter oro
bi oj
Ġmen sa
Ġstu dio
Ġkonsider oj
Ġpriskrib itaj
Ġfeli Äīaj
Ġ195 1
fra zo
Ġron da
Ġsolda tojn
A G
å ®
de toj
po voj
kon si
mi er
Ġar ko
van i
Ġesti gis
Ġposte ulo
th on
ĠDi rektoro
Ġekonom ion
Ġbazi taj
ĠÅĿlos ilo
ĠlaÅŃle ÄĿe
Ġal logi
Ġg am
ĠB y
Ġpar tik
Ġtu ÅĿi
Ġtre zoro
Ġkomun uma
Ġba pto
Ġdok tr
Ġgaze tara
ĠÄīa pelo
Ġbur ÄĿaro
Ġargumen tas
Ġarbi tra
ĠManu el
Ġe co
al s
Ġre ktaj
di rek
Ġpo emon
pro vinco
kci ojn
Ġpas igi
ad ojn
Ġpopo lojn
Ġeldon itaj
Ġden t
ĠKy renia
di e
Ġl istoj
Ġmon ta
Ġsci ojn
Ġmen s
Ġ7 7
Ġkuti mis
ĠkaÅĿ e
ĠKol orado
Ġpromes o
Ġminis troj
Ġkriti kas
Ġmedic in
ĠKos mo
ĠLen ino
onbul ismo
2 000
B ar
c ante
Ġin da
Ġpre tigis
ku o
ĠO mano
Ġfon tas
Ġ0 9
Ġlim igas
Ġfizi kaj
Ġafi ÅĿoj
gor ia
Ġsova ÄĿaj
ĠTurk menio
ĠHab s
p ronon
Ñ ħ
Ġs va
ĠM uro
Ġel teni
iÄĿ ado
pon to
Ġsur ter
Ġor kestro
ĠO ce
Ġho teloj
Ġkonser v
ĠSek elj
Ġia foje
Ġmodi foj
Ġvarme ga
l le
m Ã¡
Ġe g
Ġe cojn
Ġp intoj
an e
Äī eno
uz on
ĠÄµ al
mar on
Ġtuj a
ĠY a
Ġremem oras
ĠÅĿul das
Ġmilit kap
Ġkomita tano
ĠEd ward
ĠLabor ista
ĠWar inghien
k ena
å ¤
Ġp ig
ĠG xi
Ġar mitaj
pu ri
Ġekzis tado
Ġuti l
ĠCh am
Ġalt lernejoj
Ġkriti kon
Ġsurpri ze
Ġisla mo
Ġos toj
Ġmalof taj
Ġsindika toj
ĠMediteran eo
P aÅŃ
j aj
al b
ĠO leg
rin to
Ġapar t
ĠSan ktan
Ġdek re
Ġklari gon
id el
Ġfinan can
Ġstran gan
ĠPi p
ĠVen is
Ã§ a
Ġeltro vis
---- ----
Ù Ī
Ġv et
ĠK res
Ġj ul
va Äµon
fi ce
Ġma tri
par u
Ġam b
Ġele kta
". [
ĠMon te
ĠTo ledo
Ġpun kton
flan kaj
Ġata kon
Ġfavor aj
tiv aloj
Ġplifor tigi
Ġintervju on
ĠlaÅŃle ÄĿa
maÅĿ ino
? âĢľ
lo kaÅŃ
us se
Ġsen naci
ĠÄĪ ado
Ġtrans dono
and el
ĠanstataÅŃ is
Ġson is
Ġtemp loj
kin s
Ġpromes on
Ġkolon ia
ĠVatikan a
E tikedoj
e tis
Ġa Ã½
Ġne el
ĠEsperan tio
ki un
ki am
Ġ3 20
Ġko pio
ĠRe ven
cer oj
Ġinten con
Ġkoncern an
Ġdisvas tiÄĿo
Ġgen toj
Ġkunsi don
Ġsuges tis
Ġteror istoj
Ġsankte jo
Ġpasint jare
Ġekspluata do
d ujo
i ajn
Ã ĸ
Ġ roj
Ġen miks
le ca
ka toj
du kto
pa ÅĿis
tor ojn
Ġta kso
Ġlabor ado
tur an
pro cezo
Ġba zoj
Ġang uloj
Ġaten du
ĠMa h
Ġ12 5
val ora
Ġrekomen dis
Ġkona tan
ĠÄīa pe
Ġrela tiva
ĠCar los
Ġinterpre to
Ġelspe zoj
Ġdelika ta
O ffice
n aja
am ple
Ġor aj
Ġkons ilo
ĠTi bor
igi te
Ġfon daÄµo
ĠSo li
Ġdisvol viÄĿis
Ġkomuni kiloj
Ġresponde ca
Ġunuo p
Ġpriva te
ĠTom aso
Ġtal ento
num ero
Ġmalpe za
Ġsenprokras te
w y
on is
li gado
ar kio
Ġmo de
Ġpermes ite
ĠMar so
Ġnor daj
Ġnask iÄĿas
ign on
Ġkonkur enco
Ġreligi an
Ġmalo be
ĠVa tikano
sub e
Ġemo ci
Ġprodukti taj
Ġkonk ero
ĠLicen se
ci ÄĿo
Ġt us
ĠP in
pa to
Ġka poj
... ).
Ġvin on
bi la
Ġ6 6
Ġinstru on
ana da
ĠLe ÄĿo
ĠBra zila
Ġreferen dumo
P ub
n ajn
s un
om bar
ĠV alo
kci aj
tin de
ĠMar to
ÄĪ io
pos te
uma tene
Ġtag libro
Ġpozi tive
Ġprogres on
bil do
Ġfide laj
Ġkonkre te
Ġintelekt uloj
Ã ²
Ñ Ī
Ġ Ã©
Ġa pa
Ġj an
Ġ1 10
Ġel tenas
ĠG ala
Ġtu ton
Ġkre pus
Ä¥ u
ĠSi lezio
Ġstra ton
Ġstra tegia
Ġkapab l
Ġgas tojn
tia go
Ġmallong ajn
Ġdiman Äīon
estr aro
ĠBlan ke
C i
U C
b lia
g ul
la to
Ġfor esto
ĠC u
Ġci ti
Ġaten tis
ĠMa teo
ĠEk le
Ġsitu is
Ġorganiz aj
Ġras ismo
Ġgla cio
Ġkonvin kita
Ġapli kado
Ġbul gara
ĠtaÄī mento
Ġa gos
Ġpri lum
ĠloÄĿ antaj
Ġim pe
ĠÅĿa f
Ġalian canoj
ĠRa y
Ġprofun daj
ĠTiam aniere
Ġalvo kojn
Ġmatema tikisto
Ġdatre venon
ĠindiÄĿ enoj
or ld
ĠK A
di ga
kon go
Ġmon tara
ĠC ama
for mojn
Ġko ver
ite co
Ġfra teco
Ġmen di
Ġating oj
Ġeldon isto
Ġfaci ligas
hel p
Kon traÅŃ
Ġgajn as
Ġmalo bser
Ġmalfor taj
Ġrenov igo
Pres s
Ġalmo z
ĠPermes ilo
s istemon
Ġi P
Ġpro pe
ĠJ im
ale ono
ĠFran ce
Ġkol ere
ec k
ĠTiu tempe
Ġsoci etoj
Ġkura ÄĿo
jor dan
Ġunuan ime
Ġsab aton
Ġsudo kcidenta
ĠÄĿusta tempe
Ġmalof ta
b it
n en
â ĸ
Ġm el
Ġm ure
Äī itaj
fi ÅĿo
pa per
Ġpe con
Ġpoli tik
Ġbone gan
ĠAr n
ĠÄľ ardeno
Ġkole go
Ġdisvol vo
Ġkal kulo
his tor
Ġkonkur son
Ġkonten tigi
ĠTh eo
Ġadministra cio
ĠCar lo
Ġmanif es
Ġdispu to
Ġenspe zo
Ġimpon a
Ġciviliz acio
daur inde
p ul
Ġde fici
Ġkon form
Ġfor iro
ĠG y
Ġpen dis
Ġkor t
ĠÄīiu kaze
Ġinf rastruk
Ġfilozo foj
Ġblu aj
Ġnas ki
rum p
ĠMaÅŃri tanio
ĠWilhel m
. Â»
j k
k em
k hol
ti ris
ĠK O
st en
Ġmon eroj
Ġpar tion
Ġlabor antoj
Ġ[ [
omo uc
Ġfoj oj
blan ka
Ġretiri ÄĿis
blu a
ĠUNES KO
ãĥĳ ãĤ«
M er
e e
ti am
ĠM S
ĠR as
Ġmon dan
Ġjar milo
kom itato
Ġkul tiva
ĠLe e
Ġfer mo
Ġkonsci is
Ġprizor gi
poli tika
Ġmodif itan
Ġjuris di
M T
ĠS ÅĤ
vi da
vo lon
ĠR ab
ĠR et
vis to
Ġar toj
Ġser vantoj
ali a
Ġ0 6
Ġgeo grafi
Ġnordo kcidenta
ĠVir tu
Ġhorlo ÄĿo
Ġtam bur
ĠFalk landoj
N O
d ris
j una
ĠF EI
Ġno ktoj
mon to
Ġsoci e
Ġ0 5
Ġnaj baro
Ġkompa to
Ġris kas
Ġpreten das
Ġsincer a
Ġretum ilo
ĠDec embro
v re
z anto
Ġk erna
Ġvi ki
Ġli gis
Ġan ekdo
ĠA ro
Ġel pensi
ĠVi rinoj
Ġnu tri
Ġag ro
Ġreferen cas
Ġromi anoj
ï ¾
ur u
ka zo
es per
Ġre formoj
ĠK AJ
ĠP edro
Ġpl umoj
ej s
Ġaldon a
Ġskrib e
Ġprof etoj
Ġproce d
ĠriÄī an
Ġstri o
Ġagnos ko
ĠSte pan
Ġstar ti
Ġinterpre tado
ĠinterÅĿan ÄĿi
Ġner ek
Ġlib reto
v ujo
Ã ī
to ler
Ġan tis
ĠA gado
Ġdi kaj
Ġmem bron
Ġser vado
Ġpermes os
Ġspe con
Ġci fero
Ġrila ti
Ġ6 8
ĠMe za
th al
Ġkomuni ka
Ġpriskrib on
Ġpru den
ĠSove ta
194 5
rez ul
Ġalmen au
ĠBohem io
% )
B S
P arto
z ig
ra l
ĠA c
Ġdis ÅĿi
Ġtra gi
Ġtra iris
Ġmar kante
Ġmulte gaj
Ġsa te
Ġekster an
Ġab sor
Ġokciden t
Ġrespe gu
ĠNor do
ĠFo to
Ġfizi kisto
Ġesperant lingvaj
ï¼ Į
Ġmetro o
Ã± a
Ġlecion ojn
b ligi
ar baroj
ĠÅĿ vi
Ġdivers econ
se h
Ġkru d
Ġapo gon
Ġmer it
ĠSta tis
Ġkresk igi
Ġdefini tiva
ĠÅĿar ÄĿ
Ġfanta zio
ĠSier aleono
ĠEkva tora
M uzeo
S ch
n ama
Å Ī
per sona
de mi
cep to
ho f
Ġapar tigi
Ġvar bi
gen a
kov Ã¡
Ġbal da
Ġkial on
ĠDa venant
ĠJun io
Ġuson an
Ġmalfeli Äīa
Ġsto ma
Okaz is
Ġen ciklopedio
vo k
Ġmon go
Ġtro veblaj
Ġur so
ĠKom en
Ġplen das
Ġplu v
Ġplan tojn
Ġcen so
Ġelek tron
ĠPost tagmeze
ĠDi versaj
ĠÐ ¸
Ġfam iÄĿis
ĠEle k
ĠGab ono
ĠPoz na
ĠpasaÄĿ eroj
Ġbonkor a
Ġinterromp is
ĠPhi lip
Kale donio
Å «
Ġen glu
ĠM ek
ce a
Ġha veblaj
fer ojn
sta do
Ġser vu
et y
Ġves ti
Ġfla gon
Ġfab elo
Ġhispan oj
Ġkonfir mas
ĠOl omouc
ĠEkonom io
Ġkabin eto
ĠGand hi
Ġs tum
Ġm ol
am eni
ĠE va
Ġinter komuni
ĠO z
pre ci
Ġkompren ata
ser voj
ĠKa ÅĿi
kos toj
Ġdona cojn
naci aj
Ġdras te
muni ca
Ġk raj
ti er
al ti
ĠL ig
ĠM ara
po von
ĠD anu
Ġsen kulp
Ġsek vantaj
Ä¥ in
ĠNi tra
ĠÄľi bu
Ġjun ajn
Ġrespon dos
ĠPa v
Ġkura ÄĿas
Ġhav igas
ĠEU RO
Ġabon antoj
Ġdekli vo
F a
É Ļ
Ġre gata
Ġfor aj
Ġmon at
Ġdu cent
Ġres taÅŃ
Ġser Äīa
kul ojn
Ġkla varo
ĠPro vinco
Ġeldon as
ang ulo
mal fer
Ġprovi zitaj
Ġfes ton
Ġpozi tivan
Ġalt nivela
Ġprofi lo
cha ft
Ali flanke
Ġinterparo lo
Ġefekti vig
le gu
il in
ĠH U
Ġma tura
Ġir landa
Ġkvi e
Ġmask loj
ĠBela r
manier oj
s ame
in ala
re ÅĿ
ci l
Ġal gorit
do ws
ĠS telo
Ġdis kre
pa troj
tor es
ĠW est
Ġide alo
Ġpens maniero
Ġvizi tos
ĠFa e
Ġreali gita
Ġeta po
fin aj
Ġdiskon igi
gvi dantoj
Ġekspli cite
Ġh ek
ĠD res
Ġmo viÄĿis
Ġakcep tos
ÃŃ s
Ġprakti kado
ĠIsra ela
ĠEgip t
Ġmask lo
Ġsuk ero
Ġgimna zio
ĠindiÄĿ ena
ĠHum phrey
Ġambasad oro
K ul
M L
Ġs ar
Ġne ebla
Ġb lon
Ġpro bab
Ġse par
ha i
Ġplan lingvoj
Ġprin tempa
Ġflug ha
Ġkonk eri
Ġastron omio
Ġemin ent
ĠBern ard
ĠaÅŃtomob ilo
I a
e ka
i daj
ĠS ig
Ġel ten
st or
Ġdi ÄĿita
ĠMi los
gu ro
ĠMar ian
Ġskrib ite
Ġdan cis
Ġelek traj
Ġsiste me
Ġpris tu
ĠBa ghy
ĠRus ujo
Ġinflu ita
ĠLiber io
Ġhar ojn
ĠCol le
Ġalko hol
Ġekspozi cion
sam kondiÄīe
poz eble
Jor ko
Ġne dis
Ġ( [
Ġan tologio
Ġl undo
Ġvor ta
ba tis
Ġtradu ka
Ġvesper a
Ġprofi t
Ġbel ga
ĠloÄĿanta ron
Ġanti cipe
Ġhorizon to
ĠPon to
ĠÅĿil do
Ġzo o
ĠÅľtu b
M em
k turo
Ġ ),
Ġa kso
don aj
Ġfor kuris
tor ita
sta cioj
Ġfi kcio
Ġskrib os
ĠInter kultura
ĠLu doj
ĠEtern ulon
Ġeksperi mentoj
Ġkolon elo
P E
Ġla mpo
Ġti ran
Ġne gra
Ġan eks
ĠA so
Ġkun igas
Ġkun disku
Ġfor igas
ĠG ros
Ġsen mor
Ġsen inter
Ġspe ktantoj
ĠKon certo
ĠFran z
Ġkonsi li
Ġim posto
ĠvoÄī ojn
Ġeston to
Ġinfan eco
Ġreli ef
sk Ã¡
ĠarÄĿ ento
V in
e fi
Ġmal mun
Ġkons cion
Ġins ulon
Ġfinan coj
Ġkonkur soj
Ġkriti ki
Ġskan ilo
ĠFreder iko
K or
] ).
Ġre foje
Ġh inda
ĠI o
Ġsen do
Ġokaz us
Ġorgani zitaj
ĠloÄĿ ejoj
Ġdif inon
pun kton
ag no
Ġprote kton
Ġkolekti ÄĿis
ĠPl ur
Ġmerka toj
ĠTj umeno
c re
Ä ĥ
on do
ÄĿ ardeno
Ġal ter
Ġb las
ĠP et
ĠB ulon
Ġdi ven
Ġnom umis
Ġplu vi
ĠKa p
Ġlibro servo
Ġprofi tas
ĠTri bun
erotika Äµo
Ġtabernak lo
R u
Ã ģ
ĠM I
Ġda ux
for toj
Ġsta dio
Ġmor alaj
kor pa
Ġter uro
ĠÄīirkaÅŃ as
Ġsendepen diÄĿo
Ġgar dis
fici alaj
Ġgol fo
r d
re go
Ġti mon
Ġfor tajn
ĠEsperanto Land
den s
Ġaldon itan
por naÄµo
Ġpen et
tre joj
Ġdispon igi
Ġ18 48
Ġru inoj
th ur
Ġlaboris taj
Ð¾Ð »
ĠBur kino
Ka tegorio
Ġekha vi
Ġofice joj
ĠÄľibu tio
k p
Ġt his
ur ch
Ġkon toj
ĠA j
ĠU TC
ĠÄµ az
Ġfunkci anta
Ġbi bli
Vi kipedio
wi ce
IN G
Ġskla veco
ĠBro ad
B u
p hi
â Ļ
Ġd ar
Ġal is
ĠM AS
zi te
Ġsen te
dan ton
Ġmo ti
si e
Ġokaz igas
Ġlabor anta
Ġtri foje
kan tan
Ġkar bo
Ġmona Ä¥o
Ġdekla ron
ban on
lern ado
ĠNeder landa
Ġsubstan coj
ĠAd ministra
Ġteo logio
Ġinstan co
ĠAristo telo
R espon
p al
Ġe mon
Ġde kon
li t
ĠÄī inan
ĠT ru
Ġkom p
Ġkons cie
Ġsub tito
Ġvo los
Ġekzis tus
Ġekonom ie
Ġgx ia
Ġmalhe laj
Ġadop tita
T ut
« ï¸
ļ «ï¸
Ġf umo
Ġin ti
Ġmal dun
ĠH y
Ġven tum
ÄĪ irkaÅŃ
ĠAl fred
Ġpens adon
ne ces
fon on
ĠÐ º
Ġkos tojn
ys ÅĤaw
Ġvun dita
Ġkonsul ti
Ġkana bo
???? ????
nombra do
Ġpanta lon
ÅŃten anto
C om
is majn
ĠA feroj
Ġsen kons
por ti
Ġmar kas
Ġrapi daj
Ġkomer con
Ġfavor as
Ġch io
ĠKel kfoje
Ġpardon u
Ġtaj pi
K ris
t ÃŃ
in tern
ra taj
di kato
ĠR Ã©
ĠG ale
Ġpa gos
Ġpl umo
Ġko her
Ġsek reto
ĠkontraÅŃ is
bon e
Ġtur oj
Ġpozi cioj
Ġproce duro
Ġfas ado
ĠCama cho
c n
m uzeo
æ Ī
la ron
al do
ig xi
co ln
Ġpre zon
ĠR an
Ġkomen tis
Ġser pento
Ġvol umoj
ĠSan tiago
Ġkar ika
aÄĿ aj
su per
Ġkultur ajn
Ġrif uzi
Ġsolda t
Ġhistori ajn
Ġavanta ÄĿoj
Ġ188 9
Ġtalen ton
Ġtrio po
Ġmunici poj
C Y
V ere
z Ã¡
ra kon
tis taj
ĠS ten
Ġper eo
me t
ĠÄĿis nun
ĠW ang
Ġkan aloj
Ġorganiz anto
ĠHo dler
Ġprogram istoj
aso cio
Ġkonfir mi
Ġlogi ke
c ul
c ÃŃa
Ä ĵ
Ġa zi
Ġvi con
ig ho
lan tan
Ġfor pu
ini on
ĠÄīirkaÅŃ ita
Ġkole gio
ĠInter reta
Ġrenkonti ÄĿi
Ġpriskrib oj
Ġesperantis tino
Ġ189 8
Ġinspi ris
Ġnordori enta
. (
à ®
ĠS P
ĠP le
ĠN em
Ġek rigardis
ĠC ity
ĠLi ve
Ġest ris
Ġkre doj
Ġmar ti
ho ven
Ġkan cero
ĠJo achim
Ġdek du
Ġsemajn fino
Ġata kas
Ġmes o
ĠVladi miro
Ġinterlingvis tiko
S tu
Ġmal ben
mo vadon
Ġfar anta
mon ia
Ġfra tinoj
se p
Ġce dis
tran si
Ġblo ko
ĠÐ ´
Ġradi k
ĠaÅŃtor rajto
ĠCas tro
Ġpartn eroj
Ġalire bla
b estoj
d E
e da
i elo
Ġa risto
Ġre tan
Ġfor pelis
Ġsen proble
ke e
ĠEn ciklopedio
ĠRe to
ĠPro f
Ġkvar on
Ã¼ ck
Ġfrem duloj
Ġfes tas
Ġima gis
ĠdediÄī i
ĠÄĿarden oj
Ġtend aron
Ġekzisto s
Ko lekto
! ),
h aj
t ja
Ġb it
tu i
Ġtiu rilate
Ġda ton
ĠO tto
ha vo
volu o
Äīi uj
Ġmalfaci las
Ġsendepen di
Ġtransi ri
Ġprotes toj
Ġsekre taj
premi on
ĠSom era
sign oj
Ġferi oj
Ġegip ta
Ġbord elon
I ta
K ia
M en
po doj
lin oj
ĠAn ge
Ġplen igas
Ġro ta
be ka
Ġbezon us
ĠMon taro
Ġobser v
Ġtru o
Ġates tantoj
Ġmalmulte kosta
Ġmalsan uloj
ĠFilo zo
Ġrum ana
ĠAndal uzio
M AN
T AS
Ġm y
ig hi
Ġke mio
Ġpli igi
Ġap r
Ġfi di
Ġkura ÄĿa
Ġkura cado
An koraÅŃ
Ġ0 7
Ġdor son
ĠBi alistoko
Ġhal ti
ĠÄīas ado
Ġpuri gi
Ġbud hismo
ĠRej nlando
D ie
T ia
di ris
Ġan ser
tu ale
ĠV roc
Ġdis falo
ĠC H
Ġnur aj
Ġob lik
Ġpublik ajn
Ġkompar as
ĠGre en
Ġlatin an
Ġservis to
Ġanarki ismo
ĠSho w
Ġe di
li gos
ti kistoj
Ġf Ã¼r
ĠS tano
Ġj uran
Ġmo k
Ġokaz igo
Ġ6 1
Ġkvar an
Ġprofi tis
ĠÄ¥ or
ĠnaskiÄĿ tago
Ġmalkon sen
ĠDomini ka
ĠSÅĤ up
ĠMilos lav
Ġde leg
en as
Ġi dojn
ĠK ON
Ġdi am
Ġtra fa
Ġplej e
Ġ3 000
Ġres umo
Ġter p
cen te
Ġproksi man
Ġaparten antaj
ves pere
Ġreven u
Ġsp uroj
Ġekle ziaj
ĠRam zes
Ġortodo ksa
Ġtrej ni
Ġdiligen te
todo ksa
k itan
ĠN ar
ĠEn konduko
ĠKaj to
Ġ18 70
be ta
ne ÅŃ
ĠIntern acio
Ġimp ro
Ġokul fra
Ġekvi libro
Ġmaten on
Inter tempe
ksim ume
Ġita lan
Ġpedago gio
ĠenloÄĿ antoj
EÅŃro po
l Ã©
Ġde mo
le gita
Ġne forma
da toj
ĠN O
Ġek bru
Ġvor tum
Ġam erika
ling veco
Ġmult lingva
Ġorgan ismoj
Ġoper acioj
Ġbio grafio
fil mo
ĠAmi ke
Ġmiz era
Ġmuze oj
Ġopera co
F eli
e zio
tan ton
Ġdi veni
Ġte ler
Ġam eri
ĠanstataÅŃ i
Ġreda ktado
graf oj
Ġkomer can
Ġinflu oj
ĠSek cio
ĠGo gh
lar ÄĿ
Ġmatema tika
Ġekonomi ajn
Ġdungi toj
Ġleksi ko
ĠAg laja
Ġnorve ga
ĠfaÅĿ ismo
B ir
Ġs ka
ko wski
da tre
Ġmal p
ĠP ir
ĠÅĿ n
ĠI P
Ġali ÄĿas
Ġpa ce
Ġkons tantan
Ġinf la
gu pta
Ġbra kojn
Ġplenum ita
ĠdaÅŃri go
Ġanon cita
Ġkontin u
Ġkondam nis
Ġpie de
ĠVene cio
Ġfias kis
ĠPozna ÅĦ
Ġs ali
Ġa z
ri laj
Ġo kto
ĠP un
de legi
Ġka le
voj aÄĿo
ĠMa ce
194 4
Ġhum oro
instru ado
F i
K omento
l una
li tajn
ti gaj
Ġkas isto
Ġseks per
Ġpron omoj
Ġscienc fi
v skij
on as
Ġs kra
Ġv jet
po ta
ĠB ut
Ġfor e
ĠG un
Ġc un
Ġme Ä¥an
Ġfa kulo
Ġhon oron
Ġgas tejo
Ġbri lo
mem a
Ġkonkur s
teks ton
Ġenme tis
ĠStu doj
Ġevange li
Ġkoti zon
Ġkombin ita
Ġgaj e
Ġmalmo la
Ġadek va
Ġfolk lor
ĠDanu bo
K e
is ion
Ġi ron
Ġse man
ĠB ara
iÄĿ a
Ġsuper aj
ĠDi ru
Ġtele fonoj
Ġcxi elo
Ġobser vado
Ġfal saj
Ġpardon pe
Ġkonek tita
Ġprav igi
Ġkomfor ta
ĠCis jordan
Ġal flu
ĠD em
Ġar ton
Ġso ftvaro
Ġplu an
kte bla
Ġkul to
Ġaten dante
Ġvar io
Ġvir tuala
Ġradi oj
Ġordon as
Ġkontribu on
Ġfrem dajn
Ġr ingo
Ling vo
ĠHol m
Ġsila bo
Ġjunula raj
x t
à ¸
Ġmi zo
Ġ( âĢŀ
da te
vi ÄĿi
Ġdi ÄĿi
ĠF eti
Ġsek vante
Ġorgani zon
zor g
Ġpris er
ĠSa tano
Ġdol oron
Ġfos ili
Ġdeba toj
ĠSep tembro
Ġceter ajn
Ġsuveren eco
ĠStepan ov
e vo
Ġj x
pi ed
ĠIn forma
Ġkor pa
Ġmar moro
min te
Ġhel ena
ĠEÅŃro pan
ĠDi man
Ġdef io
Ġsal t
Ġvari anto
Ġfilozofi on
d l
å ħ
Ġ }
ci gi
Ġpri disku
po ÅĿ
Ġar gi
ĠTi mes
Ġokaz anta
Ġmili on
Ġdan coj
Ġkontro l
Ġprovi zita
ĠmanÄĿ ado
Ġprogram erojn
Ġsilen ta
Ġinterkon a
glo bo
Ġkorespon dado
IM E
Ġmaksim uma
Ġtun oj
B er
i ru
ti ce
Ġt in
Ġb is
ĠE ug
ĠS ala
de a
Ġsci os
Ġeb lojn
Ġdisku tojn
ĠÐ ¾
Ġkos tis
Ġseks on
ĠÄµurn alis
Ġpritra kti
Ġretpa ÄĿaro
ĠSto khol
Ġneevi teble
Ġkortu ÅĿa
B ildo
d omon
i ca
s toj
Ð Ĥ
Ġen ir
ĠÄīi ajn
ĠT witter
kon sider
Ġar oj
ke joj
Ġme dia
Ġpl oris
ab on
Ġur ÄĿe
ĠZ i
Ġaten tigo
Ġob stin
Ġoku pado
Ġsemajn e
Ġmedi ti
Ġ190 2
Ġstri kta
Ġspor toj
Ġekzer coj
Ġalterna tiva
Ġsoj lo
ĠWord Press
m omente
ri e
ĠM ono
Ġver dan
Ġkons ent
ke con
ĠTi m
Ġak raj
Ġsal tis
Ġstari ÄĿis
Ġlim igitaj
ĠVin dozo
pla co
Ġmaldeks tro
ĠÅĿul tro
ĠLitera turo
mez ure
ĠSoft ware
Ġri dis
pren ita
ata ro
Ġfrem dulo
ãĥ ³
Ġmalvar mo
Ġkompon is
Ġhelp iloj
Ġsalu toj
Ġparame troj
Ġtras er
ĠarÄ¥ ite
ĠFeti Äīo
t d
Ġ ðŁĺ
Ġal ÅĿuti
per son
da y
us on
Ġel pro
jo te
mon t
ĠÄīef minis
Ġeb lajn
Ġsa kon
ĠRo dis
iÄĿi oj
Ġkomenc intojn
Ġaktu ali
Ġaver aÄĿe
Ġhungar aj
Ġmales ti
Ã¡s z
kunsi do
Ġnefor ges
Kvin petalo
O fte
g ras
Ù ħ
Ġne farita
Ġre iris
ĠP R
Ġpre z
ĠG EA
ĠC le
Ġbezon ojn
Ġsper t
Ġaspe kti
ĠeÅŃro p
gru pon
Ġkomenc u
Ġpsi Ä¥a
ĠÄĿen ro
ĠLan guage
bil doj
Ġparlamen tanoj
ĠanÄĿ elo
Ġinsis tis
kampan jo
ĠFlori do
X ian
h ojn
Ġre paci
ĠS lovaka
de me
Äµ aj
tu bo
Ġdi agno
pon oj
Ġta u
Ġur ban
Ġko opera
Ġter enoj
Ġnor den
spe ca
Ġmuzi kis
Ġpla ta
Ġbu tiko
Ġtravi vaÄµoj
ĠvojaÄĿ antoj
ĠVor to
Ġesen con
progra moj
a h
u toj
å ľ
Ġm oj
ĠL em
ĠE P
Ġli k
Ġg in
ĠA f
Ġpre ÄĿis
Ġpre pozicio
ĠG dan
Ġc u
Ġlo kita
Ġtro vebla
Ġsci us
Ġsta cioj
Ġdo laro
Ġeb lan
Ġpe zas
Ġlern os
ĠÄĿener al
Ġprakti koj
Ġunue con
ĠSen dube
Ġkona te
Ġares tis
ĠManif esto
Z I
z antoj
ar me
ĠK anto
Ġmal stre
ki aj
kom ita
ami de
Ġpres kau
Ġkole kt
ĠSek cioj
ĠNor th
Ġfu ÄĿi
Ġenkondu kas
Ġnas ko
ãĢ Ģ
Ġbonfar to
Ġmastrum ado
Ġdistrikta ro
Pala tinato
k uso
z ej
â ļ«ï¸
æ ĺ
ta mino
ĠA ven
me ze
Ġar milo
Ġ- ,
Ġnom inte
ĠankoraÅŃ foje
Ġliber ec
Ġfunkci adon
Ġnask iÄĿinta
eg no
ĠLiber aj
Ġversi ojn
kura cisto
ses io
Ġprokla mita
Ġrecen zoj
reda ktoro
Ġartefar itaj
Ġabrup te
Ġkundisku tantoj
C S
b uso
h ang
w al
z ante
Ġa Äµo
ĠP os
Ġdi zajn
Ġkons ilis
kti lo
Ġdeta lan
Ġob s
Ġpreci zan
Ġsoci alaj
gx os
th y
fon io
ĠLu ko
Ġeten diÄĿis
ĠdediÄī as
Ġmina cis
ĠKata lin
Ġreta dreso
ciklo pedi
Ġsekre te
Ø§ Ø
Ġmiliar dojn
f am
s om
v iga
Ù Ĩ
ĠM P
ks an
Ġel de
em ajne
ĠF iÄĿioj
Ġele menta
kul ti
Ġlu po
mas o
Ġuti lo
Ġfab eloj
Ġretpo ÅĿto
Ġmelo dio
F ra
an ti
om bro
Ġti ris
ĠN INA
Ġek pose
Ġdis iÄĿis
ĠO p
Ġesperan tigo
Ġpe cojn
kam poj
at s
Ġdek reto
Ġmemor aÄµoj
sek vaj
ov Ã¡
Ġtutmon dan
Ġfabri koj
ĠEuro po
Ġproto koloj
ejs bu
E B
F oje
Ġla g
en ko
te stroj
al fab
Ġvi zio
Ġver di
ĠVi deo
ĠantaÅŃ vido
ge jo
Ġparo loj
ĠW es
Ġdivers a
ĠRe te
Ġbru ligis
ĠtaÅŃ g
Ġima ge
Ġbele gan
Ġmirin dan
Ġagri kultura
Ġkonsekven ce
ĠelÄīer p
C a
T ube
Ġp df
ĠB ad
Ġfor veturis
Ġha vantaj
Ġman ÄĿon
raj taj
Ġci taÄµoj
kom pu
Ġ6 7
Ġakcep titaj
Ġgas tigis
Ġretpo ÅĿte
Ġsekre t
ĠPu tin
ĠUl rich
Ġskato lo
Ġrego povoj
. ÂĶ
V O
f ejo
er eco
Ġs ha
li goj
Ġmi ro
Ġo doro
Ġsen lima
Ġmon ero
ĠÄĪ EA
gu laro
Ġrus e
ĠJu di
gri za
fes tivalo
Ġbas tono
Ġaven tur
Ġdisvolvi ÄĿon
ĠmalÄĿoj o
Ġhan dika
ĠSÅĤup sk
. ;
s y
u tra
y ou
Ġde du
Ġpri du
ĠT uro
Äµ et
ĠB BC
kor a
Ġter uran
Ġnu trado
ĠÄĿener ali
ĠRo ger
Ġbri las
Ġspiri taj
deks tre
Ġ28 0
Äľ uste
ĠSE O
ĠaÅŃtorita ton
Bon e
Ġsekvan tan
Ġhas te
Ġrestari gi
ĠProfes oro
Ġneima g
' )
K P
S AT
d eloj
ĠD aÅŃ
ĠF it
Ġtiu cele
Ġsen pagan
par t
anoj o
spe caj
vor ta
Ġ9 8
Ġmedi teran
Ġreligi ajn
ĠdanÄĿ eraj
ĠJos uo
Ġref reÅĿ
Ġrestor acioj
Ġtransform iÄĿas
ĠÅĿu oj
Ġpioni ro
Ġoli mpi
Ġinsis tas
Ġnekuti ma
ç Ķ
Ġpre ÄĿoj
ĠG io
gar d
ĠTa goj
Ġinkluzi vita
Ġher boj
Ġbio logia
Ġzorg eme
Ġmanifesta cio
ĠPoz n
ĠBis aÅŃa
Sem ajno
] ]
Î ·
Ġde metas
le bla
ni ce
si m
Ġokaz intaj
Ġsta ÄĿoj
Ġpos tan
Ġmar aj
lis ma
Ġson g
Ġmult nom
ĠNa zia
ĠHa vajo
Ġmalami kojn
Ġmalaper os
Ġhe ar
Ġcentra lo
Ġlatin e
tic s
Ġaven turoj
Ġmalgaj a
ĠÄīefur bon
ĠQui jote
A X
h ajne
y on
ta rio
Ġal tiri
ĠP O
Ġpre teri
ĠR eb
Ġsen fine
ĠkontraÅŃ uloj
Ġspe ktis
Ġbone co
ĠÄµ aÅŃ
Ġdemokra ta
plen an
ĠmaÅĿ ina
Ġkriti koj
nes s
ÅĿton oj
ĠBir doj
ĠGlo bal
mier z
e i
Ġ uloj
Ļ Ĥ
Ġp lon
Ġi g
di en
ĠA ba
Ġek es
Ġek estas
ĠG hi
me dio
Ġfi lio
ĠW en
Ġren om
Ġspeci al
Ġvar ojn
Ġpra vig
Ġcen tojn
Ġakcep tu
Ġkura ÄĿon
Ġreg ulon
Ġfla vaj
Ġras oj
Ġarb ojn
Ġalven i
Ġrespub lik
Ġenmig rintoj
Ġparadi zo
Ġinte gra
C X
z os
in es
to m
ĠK uba
ks ojn
kon ferenco
ĠI lus
ĠH iro
Ġ9 00
Ġmona te
ĠkaÅŃ zon
Ġesper i
Ġbir dojn
Ġspiri tan
ĠLiber ec
fab ri
Ġfundamen ton
Ġerar is
Ġkompli kaj
ĠTor ino
ĠHA LE
A Y
f loro
ri t
ĠK oro
ĠE di
Ġ( -
ver da
Ġtra ge
Ġbon vo
Ġfil tri
Ġsa ÄĿe
Ġdeci du
Ġkar na
Ġmalpli mul
Ġten ante
Ġkondu t
cx a
kondu k
Ġdire ktita
Ġrea gas
zan ca
Ġproce zoj
Ġjus tecon
Ġleg eblas
Ġtransi ras
ĠanÄĿ eloj
Instru kcioj
N ask
T ute
r oni
Ġf el
Ġal ju
al uloj
Ġmal respe
Ġek flor
ĠF ru
Ġta bel
kor ek
Ġaper intaj
Ġkvar taloj
Ġcxi on
Ġmedi tado
Ġkarak ter
Ã¤ l
Ġgar das
Ġmalvar maj
ĠÅĿablon on
Ġkler a
Ġetern aj
Ġincen dio
On line
ĠCisjordan io
y u
en ia
in dustrio
Ġf esta
ci ÄĿas
Ġti paj
Ġi lon
Ġb ieron
Ġek bri
man s
Ġsub tropi
gra phy
ch as
Ġmo vis
Ġlingvo uzo
ĠMar y
Ġprezen tata
Ġkonsider inde
ĠInter alie
Ġfla m
Ġserio z
kap uloj
Ġeksci os
Ġhi per
Ġforma toj
aspe kta
Ġlegen doj
Ġdetermin i
kvali taj
Ġmeksi ka
n ek
ta men
Ġs var
vi zi
pe coj
Ġmem breco
Ġak ordi
Ġku pro
pro ces
Ġlon gas
Ġaten tas
ĠPro te
Ġaparten anta
Ġbal bu
ĠaÅŃto vojo
Ġgaze t
Ð° ÑĤ
pens is
Ġbele con
Ġgre koj
ĠAs socia
ĠSal uton
ĠLin coln
Ġatribu as
ĠIJ S
medi aj
Ġmedikamen toj
PaÅŃ lo
Ù Ĭ
ĠK eb
Ġpro stitu
ĠU zu
Ġar mena
Ġkomen caj
var oj
Ġradi ado
Ġkomuni ko
Ġedu ko
Ġdirek tas
Ġseks aj
Ġbul gar
ĠSuda friko
ĠKva zaÅŃ
. --
ar ano
lo gy
Ġpa gxo
Ġman dato
Ġsta lin
Ġkontra kton
ura do
Ġmalkov ras
ĠbedaÅŃ r
Ġscipo vis
ĠÅĿata taj
Ġretum iloj
Ġtropi kaj
n g
Ġd igno
ĠA kti
ĠN is
ĠN ig
Ġte stu
Ġek umen
Ġpre paro
il en
Ġfor prenis
ĠMi ke
Ġren de
Ġvar bado
Ġkar b
Ġson ojn
ES T
vel ojn
Ġisla maj
ĠÅĿtu po
Su dano
ĠbroÅĿ uro
c ci
m und
Ġen mane
Ġal propri
ĠE ras
ul f
Ġse g
Ġper diÄĿis
em bra
tan t
Ġpost enoj
Ġmo bili
Ġrice vu
Ġve gan
Ġkomple ksaj
str umen
Ġdivi dis
ãĥ Ī
Ġbab il
Ġtransdon as
194 1
Ġske p
ĠpseÅŃ doni
Ġeklo ÄĿis
p siko
å °
Ġin dekso
Ġin vadis
di aj
ĠS la
Ġsub tera
Ġbon as
Ġma pon
Ġpe tu
Ġalian co
Ġmur m
Ġlim igo
ĠCar l
Ġsamide ano
Ġarbar on
ĠJoze f
Ġvendre de
Ġpreterlas ita
ĠStras burgo
i ano
Ã ¾
æ ĸ
ra dio
Ġin un
Ġmal pro
Ġkom e
gi e
Ġmon umentoj
Ġka fon
Ġsek cion
ling en
Ġinteres is
Ġ8 8
Ġofici alajn
Ġadminis traj
Ġlar ÄĿan
Mal fer
Ġmort pa
Ġglor on
ĠBro wn
ĠLern u
Ġkonferen coj
Ġdete kti
ĠAmster damo
G I
U K
f ta
Ï ĥ
ĠK in
Ġmi toj
Ġver ÅĿ
Ġor elo
Ġtro vu
Ġmor tigo
Ġins ularo
Ġnu tras
Ġprin coj
Ġfrem dan
ĠSch war
Ġmanuskri pto
ĠPub lika
ĠWin dows
ç¤¼åĮħç¤¼åĮħç¤¼åĮħç¤¼åĮħç¤¼åĮħç¤¼åĮħç¤¼åĮħç¤¼åĮħç¤¼åĮħç¤¼åĮħç¤¼åĮħç¤¼åĮħç¤¼åĮħç¤¼åĮħç¤¼åĮħç¤¼åĮħç¤¼åĮħç¤¼åĮħç¤¼åĮħç¤¼åĮħç¤¼åĮħç¤¼åĮħç¤¼åĮħç¤¼åĮħç¤¼åĮħç¤¼åĮħç¤¼åĮħç¤¼åĮħç¤¼åĮħç¤¼åĮħç¤¼åĮħç¤¼åĮħç¤¼åĮħç¤¼åĮħç¤¼åĮħç¤¼åĮħç¤¼åĮħç¤¼åĮħç¤¼åĮħç¤¼åĮħç¤¼åĮħç¤¼åĮħç¤¼åĮħç¤¼åĮħç¤¼åĮħç¤¼åĮħç¤¼åĮħç¤¼åĮħç¤¼åĮħç¤¼åĮħç¤¼åĮħç¤¼åĮħç¤¼åĮħç¤¼åĮħç¤¼åĮħç¤¼åĮħç¤¼åĮħç¤¼åĮħç¤¼åĮħç¤¼åĮħç¤¼åĮħç¤¼åĮħç¤¼åĮħç¤¼åĮħ ç¤¼åĮħç¤¼åĮħç¤¼åĮħç¤¼åĮħç¤¼åĮħç¤¼åĮħç¤¼åĮħç¤¼åĮħç¤¼åĮħç¤¼åĮħç¤¼åĮħç¤¼åĮħç¤¼åĮħç¤¼åĮħç¤¼åĮħç¤¼åĮħç¤¼åĮħç¤¼åĮħç¤¼åĮħç¤¼åĮħç¤¼åĮħç¤¼åĮħç¤¼åĮħç¤¼åĮħç¤¼åĮħç¤¼åĮħç¤¼åĮħç¤¼åĮħç¤¼åĮħç¤¼åĮħç¤¼åĮħç¤¼åĮħç¤¼åĮħç¤¼åĮħç¤¼åĮħç¤¼åĮħç¤¼åĮħç¤¼åĮħç¤¼åĮħç¤¼åĮħç¤¼åĮħç¤¼åĮħç¤¼åĮħç¤¼åĮħç¤¼åĮħç¤¼åĮħç¤¼åĮħç¤¼åĮħç¤¼åĮħç¤¼åĮħç¤¼åĮħç¤¼åĮħç¤¼åĮħç¤¼åĮħç¤¼åĮħç¤¼åĮħç¤¼åĮħç¤¼åĮħç¤¼åĮħç¤¼åĮħç¤¼åĮħç¤¼åĮħç¤¼åĮħç¤¼åĮħ
ĠAlas ko
a tojn
d Ã©
Ð ¶
ti que
Ġsi dejon
Ġte on
Ġfor no
me tita
Ġtie aj
ali zo
ĠÄīir kau
Ġkondu tas
Ġaki ro
Ġalfron ti
ĠMora vio
ĠdiÄĿi tigi
" [
F ar
N G
P O
o bjek
p ino
ÄĿ arden
ri gas
ĠC seh
Ġgra vu
Ġve turado
ĠRo diono
Ġreda kto
Ġ0 2
esta po
igu re
ĠLo d
ĠÄĿu u
200 2
ãģ Ħ
Ġmalsan on
Ġinterna tional
Ġemfa zis
dosi ero
Ø§Ù Ħ
ĠJehu da
g nu
Ġa gu
ur ba
Ġin fero
Ġ1 12
ĠR EU
Ġver as
no kte
Ġsam o
ĠÄīiuj ara
Ġteks t
Ġpermes ita
Ġju re
Ġcen time
ĠPro gramo
Ġespri mita
far iÄĿas
Ġrimar koj
Ġmas on
Ġpozi tivaj
ĠPas ko
ĠÅĿpar i
Ġpioni roj
German a
V or
Ġ um
le d
ÅĿ tu
ĠP ris
ĠH X
Ġra ti
Ġkre ante
der s
Ġfon dintoj
Ġvar bis
Ġplan ado
Ġregis tro
Ġ9 6
Ġuti ligis
Ġden to
Ġkonser vita
Ġdekla ra
Ġkonta ktis
Ġforlas ita
ĠMos k
Ġalpor tos
ĠScien ce
Ġpardon on
ĠÄīapi troj
Ġskulp tisto
Ġalti ris
Las ta
Ġakuza tivo
( (
× Ķ
Ġa kto
Ġre ele
ĠS y
Ġmal fi
Ġdis cip
Ġver d
ĠC lub
Ġeks per
Ġme tos
ge toj
Ġkor tuÅĿ
Ġinf ini
Ġekzis tantajn
Ġrakon tos
Ġriver eto
Ġfinan cajn
Ġseks e
esperan te
Ġenme titaj
Ġmalsam as
Ġpaper on
ĠZagre bo
P la
P aro
h us
è ª
ï ½
an da
Ġa ÄĿon
ti gan
Äī in
ĠÅĿ elo
ĠâĢ ĭ
ĠN aci
iÄĿ ojn
ĠR ol
Ġra dia
Ġle go
Ġmor fo
Ġkul ture
ĠMon s
Ġves ton
Ġmalpli igi
Ġed zon
Ġaran ÄĿojn
200 3
Äľ ia
rigar di
Ġy o
ĠTer mino
Ġstrate gion
Ġdin ami
ĠÅĿer c
Ġjur isto
Ġpentris toj
Ġgor ÄĿo
Ġp ento
ĠB lo
Ġte zo
pi tro
ĠLi m
Ġplu vas
Ġ18 80
Ġju do
ĠMa uri
Ġkvar ono
Ġ10 2
ĠSa ul
Ġuti le
ĠPri vat
15 3
Ġrespe kt
Ġalpor tu
Ġpriva tan
Ġreferen coj
Ġkonsekven coj
Ġprefi kso
Ġalproksi miÄĿis
ĠFara ono
l ler
u gh
lan den
ve turado
ĠH and
den co
Ġlan Äīi
Ġsta ranta
Ġro lis
Ġpoli canoj
Ġ7 4
ĠBa zi
ĠKar el
Ġdese gno
Ġpoe zia
Ġafri kan
ĠEsperantis taj
ÅĿte jn
Fin fine
Ġkonfor mas
lokaÅŃ sto
v juo
Ä Ĺ
Ġ ujo
ri ght
Ġvi vu
Ġmal ler
Ġsu ple
ĠC ele
ĠKom isi
ĠPo d
Ġ7 68
Ġnu ligi
ĠUnivers alaj
kato lo
ktan taj
ins tein
ĠSch o
Ġleg omoj
Ġform ula
Ġmaga zino
ĠFlu g
Ġgrandio za
ĠÄīem izo
f aro
u oj
ur t
ĠP S
Ġmon s
ĠH ima
Ġpa caj
ĠKom entoj
Ġci tita
Ġlern ejojn
Ġmen uo
ĠAÅŃ gus
Ġto leri
Ġ16 0
Ġflan ka
Ġkris tano
Ġmez lernejo
Ġliver is
ma t
Ġfor sen
Ġnom brojn
ca tion
Ġvo ki
Ġfi zio
Ġparo lon
Ġele ganta
Ġtrans lo
Ġenha vi
Ġflu e
aran ÄĿo
Ġunue ca
ĠFa kul
Ġkarak teroj
Ġhal tigis
Ġdire ktoj
Ġorien ten
ĠÅĿton a
Ġ189 2
Ġradika la
Ġmonar kio
ĠÄĪam bro
ĠWit t
V al
g ren
en con
ci lia
Ġkon tes
ĠM Ã©
Ġkun venas
ĠF ire
vis ion
Ġ3 50
Ġsam temp
kom panio
Ġ9 2
Ġten dar
ĠIs lamo
Ġkonser viÄĿis
kar is
Ġban kro
Ġmur on
ĠBri an
Ġofer o
Ġjus t
Ġkomputi laj
El ÅĿutita
Ġsimbo las
ĠÅĿtu p
ĠTom as
ĠVol on
Ġgo tika
prin co
Ġportre to
materi aloj
ĠA gri
kon io
Ġpar koj
Ġak ce
Ġko ko
Ġinf o
se ksa
ĠAl fonso
Ġkonstru ata
Ki pro
ĠÄĪe fa
ĠKo ffi
Ġokciden ten
Ġeli ro
Ġfla v
Ðµ ÑĤ
Ġsti l
ÄĪe f
Ġkvadra ta
Ġ zon
Ġla c
an an
di vido
ĠM Ã¼n
lu d
Ġek zo
ma il
Ġme lanko
Ġak va
na tura
Ġlin iojn
Ġcer tajn
Ġoku po
Ġvide blis
Ġbir d
tar y
vÃ¡ Äįek
KK A
Ġsuk ce
c antaj
v ul
z ard
Ġre pre
ĠS amo
Ġan ar
Ġkun divi
uz ado
Ġgra don
Ġfi ere
Ä¥ oj
Ġmar oj
pl ino
Ġkonstru adon
Ġ8 3
Ġdev igi
Ġoku pa
ĠSa ÄĿ
Ġmis tero
Ġhon to
urn al
Ġanali zon
Ġkonfes is
Ġset lejoj
ĠLud wig
g ujo
l Ã¡
ä ¼
Ġf lir
Ġre m
Ġri g
ĠF lo
Ġpa k
Ġku iris
Ġser vanto
Ġspe ak
Ġter oj
Ä¥ ejo
Ġdon us
Ġmala mas
Ġsa ko
Ġsukces i
Ġsufi che
ĠPar iza
ĠÃ ¾
Ġscien cajn
Ġ' '
ĠBi bli
tek niko
Ġpromen is
lum in
ĠLan da
Ġofen di
Ġlud ojn
ĠmalÅĿ ar
Ġkver ko
Ġdest ino
âĵ ı
on ado
Ġal kro
Ġne eble
di vers
Ġper man
ĠF EL
for mado
sta dt
cen dio
Ġmalfaci lan
Ġkoncern antaj
ĠOr din
bra do
Ġbab ilis
Ġtravi vi
Ġsus pi
ĠDon ald
Ġdistribu o
Ġentuzias m
Ġoportun e
ĠÅł vÃ¡Äįek
koti zo
Ġade ptoj
×ķ ×
ĠFAR K
ko h
vi ko
ĠR U
ol di
Ġar mita
Ġor elojn
Ġno tojn
for te
Ġpas io
Ġkri as
gx u
Ġreg ul
Ġ0 3
Ġprote ktado
Ġtru oj
vide blaj
ĠHar z
Ġrikol to
Ġmani pu
Ġla v
Ġde bu
ti poj
Ġi d
ĠEsperan tajn
Ġfar igxis
ed z
ĠC re
Ġpar k
Ġsub fos
xi co
Ġsol ene
Ġneces on
Ġ14 0
ĠCh ang
Ġideo logia
Ġfen es
ĠAli an
Ġenkondu kita
Ġkr urojn
Ġsocialis maj
Ġelspe zi
ĠSem inario
Ġfut b
Ġpligran di
Ġherb ejoj
ĠAnstataÅŃ e
amik inoj
Ġabstra kta
rankvi l
z anoj
å Ń
Ġm oni
te blan
ko po
ĠP C
ĠT rump
co p
Ġsu dan
Ġte sto
Ġc aro
Ġsimi leco
Ġto po
ĠÅľi aj
ĠDi re
Ġbo vo
Ġvide oj
ins titu
Ġgla ta
igx os
ĠKris ton
Ġsurpri z
Ġfervor e
Ġfier as
Ġkemi aj
C ar
n os
ur nalo
Ġin time
ĠK li
ĠE ni
ul in
Ġo d
Ġdi ver
Ġtio vani
Ġfa los
ĠÄīef vojo
Ġter en
ĠDe taloj
Ġvide ojn
ĠRi kardo
Ġdekla rita
Åľ ajnas
Ġrevolu cion
Ġmaldeks tren
Ġrekla m
Ġaven turo
Ġelmon tro
Ġmalkres kis
Ġfidin daj
Ġelef anto
Î º
in fan
li ter
Ġne de
Ġvi ve
ĠS ko
ĠD am
ce v
ĠF ero
Ġspe cojn
Ġba to
Ġajn aj
Ġ7 3
Ġsignif aj
ĠJa co
Ġsiste ma
ĠCh risto
." [
ĠSek vis
Ġtru di
200 1
Ġimpres oj
Mo vado
Ġcele bris
Ġesen caj
Ġpripens as
Ġnordori ento
Ġhan di
M uzi
O O
e ko
k laj
Ġe jon
Ġen vol
Ġg rek
ĠM IME
ĠT y
Ġri zo
ĠF eni
Ġra mp
Ġman ov
mon taro
Ġfi ksi
ĠMe tro
Ġofici ali
iga dis
ĠaÄīe to
tigita n
Ġvalor an
ĠÄīes os
Ġdra ko
ĠPra kti
Ġapu daj
aspe ca
Ġadministran toj
Ġalin eo
ĠStanis ÅĤaw
ĠVroc lavo
P alest
ta gan
el le
Ġne cer
Ġi tal
di loj
ton aj
ĠV ento
Ġka tedra
ĠC N
Ġpa fis
ĠlaÅŃ ta
ĠÄīar maj
Ġaldon iÄĿis
Ġpermes u
Ġkla ras
ux ro
Ġ9 1
Ġson regis
Ġkos ma
ĠNov embro
ĠGra va
Ġmale ga
ya hoo
Ġsoli da
Ġarbus toj
Ġreputa cion
ĠFrankfur to
T ur
Ġ ðŁ
Ġe p
ti ÄĿanta
al menaÅŃ
mi on
ĠMi cro
Ġhom aron
Ġplu ajn
Ġkan tona
ĠÄĪi ka
Ġangla lingvaj
pozi cion
nab oj
Ġserio zan
Ġklopo di
Ġseks oj
ĠEgip ta
Ġsk emoj
ĠEr tl
Ġrezolu cion
Ġvendre do
Ġaristo kra
H ol
p iloj
w eb
la m
te orio
Ġti me
es pl
ĠA da
ĠB at
Ġri beloj
Ġsen la
ni ka
Ġle ÄĿaro
Ġak celi
ĠRe li
Ġang loj
Ġfo tis
Ġkam pojn
Ġsimp lajn
ĠBa g
ĠDi patrino
ĠÅĿa foj
ĠÄīam brojn
Ġtrin kas
Ġkonstitu cia
sem inario
Ġdetermin as
ĠParto prenantoj
Ġkaver no
Ġtrotu aro
Ġnene ces
a tion
È Ļ
re ton
Ġf ala
ĠL Ã¶
vi ca
Ġse ÄĿoj
tan ojn
Ġek kompren
Ġesti gas
ĠÅ ļ
it s
ĠMa te
ĠPro men
ĠPar k
Ġfer a
sek ven
ĠSin sekvaj
Ġedu kadon
Ġarb ara
Ġtrin kejo
ĠIS AE
Ġfenomen on
Ġkalum ni
G H
am bro
Ġpo p
Ġpro cento
ĠA T
go l
Ġsur strate
ĠantaÅŃ nelonge
Ġkre a
Ġmar istoj
Ġfra mas
Ġhej moj
ĠUnivers alan
Ġkonf uzo
Ġtradi ciajn
Ġadminis tras
Ġdiferen cojn
Ġarme aj
Ġfamili aj
ĠTem plo
ĠAd minis
Ġkonven e
Ġprilabor i
Ġalven os
Ġpligran digi
P i
ar s
ĠK p
ĠA posto
Ġse mojn
van a
ĠkontraÅŃ aj
Ġvar man
ĠFran Ã§ois
ĠPro to
ona te
Ġprepar ado
Ġdetru itaj
Ġinsta lita
Ġkonklu das
Ġamaskomuni ki
k tinda
z z
ĠL ins
ĠA dolf
ĠF ord
ej ro
Ġgra tul
Ġ18 50
Ġindi kitaj
Ġcen tran
mar aj
Ġ8 6
Ġnaci lingvaj
Ġlaboris tojn
Ġgx oj
Ġmaljun an
Ġekzer cejo
Ġdenas kaj
Ġnai va
Ġgenu oj
Ġla m
Äī eron
so va
Ġma lanta
par la
Ġna zioj
Ġru ÄĿan
Ġvizi tu
Ġrif uzo
Ġvolon tu
ĠPan diono
Ġgim nas
Ġsamseks ulo
ĠtransloÄĿ iÄĿis
ĠFS X
ur b
Ġmi eno
ĠS tr
ĠM jan
Ġan t
ren a
Ġar bon
Ġpa gon
Ġma k
Ġma ku
Ġma gia
ej no
Ġvar b
Ġpra a
Ġproble m
Ġspi r
ĠBo u
Ġbal kon
Ġinten s
Ġstre bis
fin aÄµo
post en
ĠÅĿul troj
Ġlevi ÄĿas
ĠaÅŃton oma
ĠTul uzo
T H
o fte
to le
Äī io
Ġf ame
ĠT at
ĠÅĿ oseo
ĠH uman
bo ur
men te
ĠVi zi
Ġfin aj
Ġfin iÄĿos
Ġrice vita
Ġdan ci
Ġsa ga
Ġob tu
uni vers
kons ci
ĠmalantaÅŃ e
Ġsenpa gaj
Ġhungar e
Ġkvi ete
Ġmall uma
Ġate st
Ġneaten dita
ĠAten tu
Ġvikipedi aj
ĠKE LI
s hi
à ¦
Ġe man
Ġe tiko
ka ter
Ġne bu
Ġi daro
Ġre tur
Ġpo et
Ġali landanoj
Ġfor man
ĠantaÅŃ parolo
pro ce
Ġsep dek
An dre
qu ith
ĠKun si
Ġindustri oj
Ġverkis tino
ys tem
Ġprotes tantoj
Ġsinsek ve
ĠHal ina
Ġnekre deble
k lik
Ġe ri
Ġa ka
ter ion
kon tin
ce co
il y
Ġpa Äījo
Ġor digi
Ġvor tarojn
ba ti
var ma
Ġpas o
Ġprezen tataj
Ġkol ono
ĠserÄī u
Ġsupo zo
Ġdefen d
Ġfamili an
Ðµ Ð»
ĠAng lujo
ĠmalantaÅŃ a
Ġlis tigas
Ġhazar do
Ġekzer ci
ĠUson on
Ġtempera turoj
Ġkolor ojn
ĠHam burgo
Ġanstata ux
Ġsacerdo to
Ġastero ido
ĠMeze poko
deven aj
ĠSkan dina
G F
P lu
u laj
v ro
Ã ®
è ¯
or da
re bla
ĠÄī en
Ġin tui
Ġvi vojn
ĠS kribu
ĠA zia
dan tino
Ġtro m
Ġko la
Ġpen ante
Ġkor ojn
Ġpe zon
Ġdek lin
Ġmalbon ajn
ĠRi late
ĠaÅŃtor rajta
Ġkvan tum
Ġgri mp
Ġservis toj
ĠantaÅŃvi das
Ġanstata u
ĠAÅŃton oma
å¸ Ĥ
ĠStokhol mo
A ra
ta laj
Ġf rom
Ġek ran
Ġfa kt
omo to
ĠRe a
Ġ6 40
Ġnaci on
Ġdisku tejo
Ġefi kojn
Ġmil de
Ġduon jar
Ð° ÑĢ
Ġstuden ta
Ġkunme taÄµo
Ġbom ba
Ġobe i
Ġmek ani
Ġela Äīe
ĠRezul te
F R
h ab
u ps
Ġp uraj
re tejo
ĠT ran
Ġka talogo
Ġkons ilon
ĠEn glish
Ġmo voj
Ġfa ligis
Ġaten co
Ġprof e
ĠInter lingvis
Ġdisvas tiÄĿas
Ġkonvin ko
Ġprizor gis
Ġsenmo va
Ġedzin iÄĿis
Ġfur or
ĠMace donio
b rilo
ta di
le z
es tan
Ġi ajn
Ġvi dita
ĠS ir
Ġpri ra
Ġres umas
Ġmo toroj
Ġsci igas
Ġsek undo
Ġaper on
ĠRe al
19 52
Ġ8 4
kur as
Ġregi onojn
Ġbri laj
Ġfen estron
Ġbele gaj
ĠKonsi der
Ġtranspor ti
ĠLan ti
Ġsalaj ron
ĠvilaÄĿ eto
Ġadjek tivoj
ĠteÄ¥ no
ĠAp ple
ĠMuzi ko
Ġorn ami
Ġnobe laro
u u
â Ĥ¬
ar anoj
Ġne pr
Ġre organi
di es
ĠlaÅŃ vorte
Ġle vas
pre mo
Ġdispon igis
Ġkul min
mar koj
Ġpu to
Ġmez aj
ĠGran dan
Ġspiri te
Ġsurpri zis
Ġfig uron
konstru o
ĠantaÅŃvi dis
ÐĶ Ñľ
S al
Ġ ....
Ġs lava
Ġo kt
ver ÅĿ
bo wski
Ġar mi
Ġme titaj
Ġlan Äīo
si an
par ko
pri zon
ĠRe gi
Ġ7 6
ens tein
Ġmovi ÄĿi
ĠBil doj
ĠLatin ameriko
Ġargen tina
ĠEURO KKA
f lo
li gante
Äī ante
es teco
Ġh ir
ĠL illo
Ġpo ÅĿo
ĠP ens
Ġpri mo
ĠF r
ĠMi ch
dan tan
Ġnun tempo
Ġro ma
Ġdan kis
Ġdan cado
Ġkonstru aÄµojn
ĠloÄĿ ado
Ġregis tra
br una
ĠÄĿus taj
Ġkonta ktu
ĠÄĿoj a
ĠÄīes i
Ġmalfru aj
Ġdipl omon
Ġallo gas
Ġpopol nombrado
ĠRon do
Ġmaga zen
âļ«ï¸ ı
ĠPozn ano
c ze
Ġs loven
Ġal ve
Ġin tima
Ġc in
ver koj
Ġfar ado
ĠTi om
Ġsek vajn
Ġfon diÄĿo
Ġkura ÄĿe
ĠDi k
Ġvila ÄĿa
ĠRa kon
gh on
Ġkas telon
Ġkolekti taj
Ġmaljun ulino
Ġsp am
Ġofen si
Ġeki paÄµo
Ġtera pi
ĠEuro pa
ĠGro up
Ġkrim uloj
Ġaf lik
P G
m Ã¡n
Ġs lan
Ġa bi
Ġb lus
ĠL EE
Ġpor najn
aÅŃ r
tr uloj
ĠC at
Ġra cie
Ġpost res
vin on
Ġpens ante
Ġindi co
Ġ7 1
Ġfran co
Ġsimi oj
Ġbu tono
Ġkonsis tigis
Ġlong tempe
Ġapro bas
Ġalb umon
Ġetn oj
Ġsudori ento
Ġduling va
ĠdeÄµ or
e va
f leks
m ing
Ġ ura
ul ton
zi loj
Ġpli faci
ĠF I
Ġno beloj
ĠVi ctor
Ġma kro
mon tri
Ġfa voro
Ġins tigo
labor i
Ġten do
qu ez
ĠaÅŃto bus
ĠserÄī ilo
Ġfir man
ĠtaÅŃ ge
AN G
Ġdemokra ti
Ġ189 9
Ġkompa tinda
Ġbas eno
Ġvari antoj
Ġekzempl eron
Ġprinc ino
ĠBr uno
Ġkunpor tis
ĠBea u
Ġsubstre kas
ĠAntar ktaj
! ,
f fer
z isto
Ġre d
tis o
ĠE bl
Ġpro kur
ĠA ran
ĠP lus
de kon
Ġel kore
kon ser
Ġpar tia
Ġfunkci uloj
ĠLu ter
ĠBer g
Ġpru v
Ġhal tas
Ġsor t
Ġvek i
Ġatribu ita
Ġsove tiaj
mili toj
Ġstatis tikoj
Ġperseku tado
Ġeltro vi
ĠPrem io
ĠBudap est
H ieraÅŃ
N E
c ula
f ul
i us
v ulo
å Ľ
Ġp eni
ĠD et
ve z
ven to
gu le
Ġpas ka
ĠMar c
Ġlu dado
Ġnova Äµon
Ġkro mpro
are con
kov rita
Ġsper tuloj
ĠGra matiko
Ġhar aro
Ġuniversita taj
Ġmarbor da
Ġekzempl erojn
Ġproponi taj
ĠÄĿisda tigoj
Ġmaga zeno
ĠS uz
Ġkom pens
ĠR E
Ġ" -
Ġuz goj
ĠÄīirkaÅŃ vol
Ġplan i
Ġregis trado
Ġsufi ksoj
Ġ9 4
Ġneces os
ĠSo cio
Ġpu Äīo
fri ka
Ġviv maniero
ĠHa a
flan k
Ġmas trino
ĠX X
ov rilaj
Ġdesegn is
Ġlerno libron
ĠDemokra tio
ĠantaÅŃvi di
ĠÄĮ a
Ġmat Äīoj
wit z
P an
Ġk vo
Ġe c
Ġa zeno
ĠE u
ÅĿ ul
kon fes
ĠD NA
fer aj
Ġtra fe
ku laj
gra mon
tur ajn
Ġfa deno
Ġro zo
Ġren esan
gen tejo
pas o
tive co
Ġaran ÄĿas
Ġ189 4
Ġmina ca
Ġpoem aro
Ġgh uste
Ġlign aj
Ġign or
G ru
e goj
w ood
ko lado
Ġfor flu
Ġar de
Ġtu ber
Ġekz ameni
Ġam fi
Ġ0 4
ÄĿan tan
ĠLin ukso
ĠStu dado
Ġromp ita
Ġ188 8
Ġita loj
Ġemin entaj
Ġese oj
Ġpostula ta
Ġaltran guloj
B el
N eder
s kaja
Ġa teli
Ġal venon
Ġmal simp
zi ÄĿas
ki en
Ġpar enco
ĠÄĪ inujo
Ġcen tre
Ġob st
ĠMal to
Ġefi kaj
Ġkomuni kilo
Ġag lo
Ġkona tajn
ĠKal ining
Ġakade mio
Ġlun de
Ġeldi ris
ĠPlu e
pÃ© ranto
i ros
z al
Ġla t
Ġs kri
re ÄĿo
Ġg rajn
ĠA tana
vi on
de j
Ġsu peran
Ġpre ÄĿas
Ġfor umoj
ĠJ el
Ġsta t
ĠkontraÅŃ ulo
Ġsig nalo
Ġkri zon
ĠPa f
Ġkur ento
nom ata
Ġprele g
Ġmaten manÄĿo
Ġfoli ojn
Ġafi ÅĿi
ĠaliÄĿ intoj
Ġfervor a
Ġinterrila toj
ĠTol stoj
ĠDas gupta
ĠHein rich
G u
Å ¯
Ë Ĳ
Ġk leri
ar ia
ĠS k
de kla
Ġte amon
Ġ18 00
ĠKa pita
ĠLe wis
Ġscien con
Ġedu ki
Ġaga dis
Ġkorek tis
Ġnordo kcidento
kuti me
ĠGeor ges
Ġsuspe ktas
Ġdenun cis
Ġdimen sio
ĠHispan ujo
ĠKolon jo
ĠFland rio
a v
Ñ Ĩ
Ġf eni
Ġne kom
ĠL ille
Ġli teron
las s
ĠJ ubile
pa tio
ĠÅĿi pojn
Ġ18 71
fa kte
Ġmis ter
Ġekonom iko
Ġbar ilo
Ð½ Ñĭ
Ġduo bli
Ġhejm paÄĿon
Ġapli koj
Ġmeta for
ĠkontraÅŃsta ri
Ġsenproble me
T S
te amo
Ġf amo
Ġkom plo
ĠH iz
pa c
Ġma pojn
Ġest inta
Ġdivers maniere
Ġliber ala
ĠEk umena
ĠNo a
ĠDi an
kar ton
Ġtemp l
lus tuli
Ġpopula reco
ĠÅĿanÄĿ iÄĿo
Ġorigin an
Ġkonsta to
viadi lo
Ġhere dis
Ġesperant lingvan
fran ca
Ġkomita ta
ĠâĢİ ((
ĠApen aÅŃ
lustuli mu
! âĢľ
ÄĿ elo
ka di
Ġi rana
Ġ( +
Ġan ato
Ġmal plenaj
ĠN eb
oni ka
ĠH ern
pa ÄĿoj
Ġver ÅĿajn
Ġmin ut
Ġven doj
Ġko k
ĠkontraÅŃ ju
Ġrice vo
ĠMon toj
Ġbo telo
ak tuala
Ġprogres is
ĠJun ularo
Ġ189 5
Ġdun g
ĠNova Äµoj
Ġdin as
ĠKal le
Ġmalsukces o
Gran deco
Ġjur ajn
Ġripar i
ĠFis cher
E r
Ġal pre
Ġre doni
ĠP siko
Ġali vorte
ĠG im
Ġsen re
ĠEn e
ĠAn ato
vin taj
tp aro
ĠÄīirkaÅŃ a
Ġge esperantistoj
Ġkole ktojn
teri ojn
ĠAli vorte
alisto ka
Ġremem ori
ĠBen jam
Ġvun diÄĿis
Or gani
Ġpostlas is
ĠStatu to
Ġtrejna don
ĠMjan mao
A I
E ÅŃropa
S cien
U M
ti tle
mi ra
pi ono
Ġtro mpi
Ġsek toroj
Ġ9 7
Ġpreci zaj
ES PERANTO
Ġban Äīambro
Ġbru toj
Ġrea gi
deks tra
ĠfiÅĿ ojn
Ġinspi rita
Ġski po
Ġkantis tino
ĠHu go
Ġlandli moj
Ġlegan tojn
Rila te
a par
p per
Ġs tern
Ġs feroj
ti uj
ĠG Ã³
Ġka zon
Ġmor ale
kan dida
Ġja ko
Ġkap aci
Ġstu don
ĠÃ ĸ
fon toj
Ġsep tem
nom bro
Ġkomer ce
kar t
Ġenkondu kon
Ð¸ ÑĤ
Ġampleks e
ĠTe ch
ĠAndre as
Ġfut bal
Ġslo gano
Ġsenlabor eco
n gel
p ron
p into
ĠT ren
pe g
ĠI mp
ĠF en
no vaj
Ġmar i
gu laj
Ġkan tistoj
gen e
ĠGerman aj
ÅĤ ad
Ġdetru as
Ġremem oroj
Ġsupren iris
ĠHon ora
sto kejo
Ġtraduk into
Ġkonkre tan
ä¸ į
Ġpropri e
Ġinterre te
Ġbongus ta
Ġneevi tebla
eba ot
h omoj
l ta
Ø ¨
li ght
ci poj
Ġkun uloj
ten berg
Ġkre adon
ĠIn cendio
ze f
Ġiom e
Ġprogra ma
Ġvar so
ĠFran ces
Ġpi tores
Ġplur mediaj
Ġmaj esto
Ġmaj oritato
su fi
Ġdivi ditaj
Ġmalal tan
jar iÄĿon
Ġmenso goj
ĠPas tro
Ġdistan con
Ġkvali toj
Ġperspekti voj
Ġvers hajne
Ġv ang
Ġal prenis
Ġre tajn
tis ton
ĠK laÅŃ
Ġkon ku
ĠS za
Ġmon taroj
ĠH inda
ĠKom panio
Ġkonstru iÄĿis
Ġ8 1
Ġami kaj
ĠMon tre
paro lanto
Ġuzi ÄĿas
Ġevi t
Ġreali ÄĿis
Ġpronon cis
Ġblin duloj
Ġtekno logioj
Ġsalaj roj
}} .
Ġtoler emo
Ġfori ros
ĠsenÅĿan ÄĿaj
L an
Î ¼
Ġkon oj
Ġ( *
Äµ eto
Ġfor veturi
me d
Ġar ka
Ġkons tantaj
Ġ: (
ina lo
cen zo
Ġ8 2
Ġ8 9
tum ado
ĠÐ ¼
Ġpun ktojn
Ġradi kon
Ġvas t
ind ajn
Ġspiri toj
Ġtutmon diÄĿo
Ġkonten taj
Äľ enerale
Ġ189 6
Ġz lo
Ġgh ia
ĠÄµe tas
ĠGar cÃŃa
ĠBudape ÅĿta
ĠBran den
Ġsinoni mo
Ġsingar de
Ġvertika la
Ġantis emi
D emokra
T EJO
g ed
Ġmal be
pe jo
Ġdi eto
ĠD al
ce ton
ĠG ene
Ġno tas
Ġmul ten
Ġsub aj
ĠIn form
ĠÅĿta tojn
Ġnu ligis
alis maj
Ġfla goj
Ġproksim iÄĿis
ĠNor man
Ġkorespon di
Ġflugi l
Ġkonver ti
Sek ve
Ġkuir arto
Ven u
Ġfilme toj
Ġhipote zo
Ġfara ono
c aro
e gis
f ali
s ig
s pa
z are
la tine
Ġv ana
Ġne vo
ĠL td
ĠE t
ĠS co
vi vi
ĠP ale
ĠLa tina
Ġun us
ĠC ebaot
Ġmals a
Ġpres kaux
Ġakcep ton
Ġuni kaj
str umentoj
Ġsufer i
Ġripe t
Ġimpres is
Ġvarme go
ĠUS SR
Ġinsek to
Ġsistem ojn
Pl uraj
Ġkolum no
ĠHolm so
âļ«ï¸ı âļ«ï¸ı
ĠÄĮa pek
. '
u do
Ġen ciklopedi
ĠK P
Ġper dos
Äµ i
Ġdi le
Ġle vig
ĠÂ £
Ġskrib aÄµoj
Ġkri terio
Ġ7 8
Ġnu tr
ĠDo ktoro
sek cio
Ġnum erojn
Ġofer ti
Ġkomenc ante
ĠMan kas
ĠHel en
Ġbalo t
ĠÅĿton on
ĠdediÄī itaj
Ġsubskrib i
Ġdra m
ĠÅĿip estro
ĠKre do
Ġelektroni kaj
Ġprezidan tino
Ġfias ko
Ġaposto loj
ĠSalom ono
o z
v igita
Å Ł
ti t
te lojn
ra t
ĠL ej
Ġg eto
Ġver ajn
ĠC anada
Ġap ena
pren os
Ġsta ÄĿojn
ĠÄĿis nuna
Ġvo ko
Ġpas inte
Ġinstru oj
Ġcen traj
Ġgerman o
Ġmalpli multo
Li tera
Ġrenkonti ÄĿojn
Ġmemor igi
Ġpromen ado
Ġstatu oj
Ġkonflik ton
Ġmalakcep tis
pion ado
ĠEkzem ploj
Univers itato
D omo
v ori
as i
Ġal las
Ġpo lajn
tan ismo
mi e
Ġc ento
Ġfa kta
Ġmar ÄĿ
Ġsa ÄĿaj
Ġnu daj
Ġbi lan
Ġoku pata
Ġflan kojn
Ġuti lon
Ġlar m
Ġkonsen ti
ĠdanÄĿ eroj
Ġfoli umi
Ġhejm paÄĿo
dol fo
Ġbom bo
Ġlun don
Ġeska pi
vila ÄĿo
Ġneniuj n
L on
Ù Ħ
on an
Ġla geto
ĠK Ã¶
ĠA K
de blas
Ġsen nombraj
man uel
Ġka t
ĠO mar
Ġman koj
ĠW eb
Ġfunkci os
Ġinfan aj
Ġofer tis
Ġnatur scien
ĠEU R
Ġminis tron
Ġ189 7
Ã¨ ne
Ã§ Ã£o
instru istoj
ĠaliÄĿ ilo
Ġrezis ti
ĠAndr zej
e ce
Ġp uran
re d
le tero
Ġmal sta
Ġel tiri
ĠaÅŃ tun
ĠC ompan
mon tran
Ġmo tiv
Ġlern antojn
Ġdeci dita
Ġdeci dos
Ġop timis
Ġkomple kso
Ġproksim ulo
Ġdispu toj
Ġkonsekven cojn
Ġpul voro
ĠÅĿer co
Ġperfi do
Ġinterre taj
Ġnutra Äµon
Ġtrun ko
ĠÄīo kola
Bal daÅŃ
ĠOto mana
g esto
w en
is me
ĠP ino
Ġkom ando
ĠaÅŃ t
ed zi
Ġven toj
ĠIn fan
Ġro loj
Ġpe ze
ĠKun veno
Ġinvi ton
Ġanali zas
Ġsom eraj
Ġz amenho
Ġgri zaj
ĠPas porta
Ġnere gis
kum u
âĪŀâĪŀâĪŀâĪŀâĪŀâĪŀâĪŀâĪŀ âĪŀâĪŀâĪŀâĪŀâĪŀâĪŀâĪŀâĪŀ
Äīen ko
. ]
te me
Ġen vio
es i
um itaj
ĠP y
ru lo
ĠD O
Ġver so
Ġaper igas
Ġvar ian
ĠHa go
wi k
Ġlibere coj
Ġsalu to
Ġmeri toj
ĠTele fona
Ġpers is
Ġverk into
Ġdekli voj
Ġimper ia
ĨįãĨįãĨįãĨįãĨįãĨįãĨįãĨįãĨįãĨįãĨįãĨįãĨįãĨįãĨįãĨįã ĨįãĨįãĨįãĨįãĨįãĨįãĨįãĨįãĨįãĨįãĨįãĨįãĨįãĨįãĨįãĨįã
ĠIsla ma
delegi to
G A
la dis
Ġen tj
Ġre pres
ĠS R
ĠI ra
tor itato
for man
Ġpe toj
Ġnov uloj
ec ka
Ġevi tis
Ġklas a
parte mento
Ġfeder aciaj
ĠAs quith
ĠMem fis
konstru ado
ĠJar os
ĠParto prenis
ĠMinis tro
Ġamb igu
b elon
f le
ti le
Ġre voj
di k
ĠA VE
ĠP M
Ġel flu
dis tribu
res se
ĠÄīar me
Ġspe ktan
Ġro mpo
Ġsan ga
Ġfo iro
ĠSi mi
Ġkontro litaj
ĠRa porto
Ġzor goj
ĠÄīees tantaj
Ġprogres as
Ġmortin taj
Ġfiks is
Ġbrus t
Sa ksa
Ġakuz is
Ġpilgri m
Ġplum aro
ĠÅĿte lis
**** ****
Ir lando
ĠKonven cio
ĠFakul tato
m Ã¶
r uloj
Ä ¾
Ì Ĥ
Ð ¢
ta m
is en
ig inte
va di
ĠN ilo
ĠEs ti
men tan
Ġuz us
ĠMi c
ĠMon ta
Ġkam pa
Ġprofes ian
cx jo
Ġproksim iÄĿas
ĠOr todoksa
ĠTur ismo
Ġbio grafi
Ä´ an
ãĢ ģ
Ġmalka ÅĿe
Ġelmon tras
Ġpin ton
Ġrol uloj
Ġmalkla ra
âĶ ģ
ĠYou Tube
ĠLevi doj
) ?
T F
s ud
u tis
Ġ ç
Äī jon
ka talogo
Ġre teni
vo Äīe
ĠI lin
oni do
tra to
taÅŃ ga
Ġtra d
Ġsub meti
Ġak uzo
Ġprezen ton
Ġkap itan
ĠPro vi
Ġkur anta
gx ojn
ĠanstataÅŃ as
eks ter
ĠGran de
ĠtaÅŃ gajn
Ġdifin ojn
Ġurb anoj
ĠSte ph
Ġprotes to
Ġefektiv igo
Ġizo lita
Ġcom munica
Ġnekre debla
Ġsla vaj
Ġetike do
Ġkoali cio
Teks to
G NU
d d
o per
Ã °
te ga
Ġal veturi
Ġin gre
di to
Ġpor dojn
ĠS us
um ero
ĠA ÅĿ
Ġel parolo
ĠV Ã¡
ma laj
ĠH ieraÅŃ
Ġoni di
Ġven kos
za taj
Ġkor ton
tin dan
ling v
19 40
Ġsukces ojn
ĠPa kto
Ġdev ojn
Ġsignif an
ĠAli e
Ġsp urojn
ĠSoci ety
199 2
Ġenme tas
Ġtransdon ita
Ġkana da
ĠÅĿto fo
Ġmeb loj
b b
Ġ zi
Ġa mantoj
ĠL L
Ġkon on
ĠÅĿ ose
Ġfor tigi
aÄµ a
ĠantaÅŃ longe
Ġter enon
Ġkonstru aÄµon
ĠDe zi
Ġgvi dos
ĠMal bor
ÃŃ r
Ġopini i
Ġbo vinoj
Ġfacile co
ĠÄµus a
Ġperfek tan
vide o
ãĤ ¹
ĠVen ces
Ġsimbo la
Ġtelefon is
vÃ¡ r
Ġkompeten ta
Ġparlamen taj
Ġhin du
Ġpalestin aj
ĠLeon ard
Ġsurfa con
Ġrespondec uloj
ĠAugus t
ĠFuku ÅĿima
F er
ci plino
Ġre vis
Ġfor estas
ek zem
ĠH es
Ġka ton
Ġtra iras
kis ta
ĠDe ks
ĠkaÅŃ ze
Ġmur mur
Ġtito lojn
Ġ189 1
ĠAd amo
ĠUson aj
Le gu
Ġgus ton
Ġsuges tojn
ĠFab ri
Ġoksig eno
E H
Ġa fgan
Ġkaj ero
ĠL um
ĠE ko
ten ado
Ġfor preni
Ġtra iri
ĠMar ÃŃa
Ġmals eka
Ġskrib ado
ĠUni ted
Ġprovi zis
Ġkonser vitaj
kar on
Ġrime d
Ġamp li
nova Äµoj
Ġkoti zoj
ĠsaÄĿ eco
ĠEkzem plo
Ġpentr arto
Ġreprodukti ÄĿas
ĠIma gu
f fen
Ġe va
Ġb ek
ĠE ro
ĠS es
tu t
Ġek laboris
ma Äµ
pon a
pa g
ab ela
Ġpas intan
Ġpe zan
Ġlern ebla
Ġves titaj
ĠDe fen
Ġsubten ata
Ġkondu kos
Ġfla mo
Ġr ara
Al done
Ġran g
ĠSve da
KOKOKOKOKOKOKOKOKOKOKOKOKOKOKOKOKOKOKOKOKOKOKOKOKOKOKOKOKOKOKOKO KOKOKOKOKOKOKOKOKOKOKOKOKOKOKOKOKOKOKOKOKOKOKOKOKOKOKOKOKOKOKOKO
Ġens alu
1 01
li ch
Ġv aloj
Ġi ran
Ġj anu
po lon
ĠO omoto
Ġmo ÅĿto
Ġser ba
Ġplen d
Ġaten do
Ġdeman du
Ġkonsider inda
ĠGra vas
Ġnorma lan
ĠBe at
Ġpremi oj
ĠÅĿo foro
Äµe tis
EE EE
Ġdense co
Ġster eo
Ġkoinci das
Ï ħ
Ġde por
Ġal ÅĿu
ĠS ite
ĠN aj
Ġri do
ni j
ub oj
Ġesti ÄĿo
tin ojn
ĠKon cilio
ĠMar teno
Ġtrans preni
rus o
Ġsa k
Ġ7 9
Ġkongres aj
Ġblan kajn
Ġgla te
Ġkoncep tojn
ĠJan e
Ġekle zion
Ġargumen tis
Ġpsiko logia
Ġkolor aj
ĠJar libro
ĠKie vo
ĠmalÄĿoj aj
Ġgal erio
Ġmani pula
Ġlabora torio
ĠAndr Ã©
% ),
* .
B ona
C I
K ur
L ou
M AS
T ion
k ero
ĠL ut
ig anto
Ġse m
Ġmal paci
us oj
ĠÄīi Äīeron
Ġel d
Ġfor igu
pa Äµoj
pa ÄĿaro
ĠO re
Ġaldon iÄĿas
ha vi
Ġlas ante
Ġpla fono
Ġpatr ono
Ġklas on
ĠIntern aciaj
ju k
Ġpopula ri
Ġarki vo
Ġtera pio
Ġsopi ras
Ġebli gos
Ġnigr uloj
Ġfara on
daux rinde
ĠâĪ Ĵ
A D
or de
ĠS ign
de goj
ĠO j
Ġkre os
ĠIn dustri
Ġfi era
Ġpe tante
ĠMar s
Ġmala var
at us
ec ajn
Ġbata lado
Ġkonf is
Ġinvi tita
Ġnatur ajn
Ġstuden tojn
Ġaro mo
Ġpasi va
Ġdoktor iÄĿis
Ġdevi zo
ĠÅĿnu ro
, âĢ¦
: )
T L
Ġa lo
ar ajn
Ġre iri
ĠL j
ĠS X
Ġkun iÄĿis
tu rita
ga doj
Ġpar ali
Ġpar iza
gra ma
Ġko lap
Ġ6 9
Ġdezi ri
ord press
Ġaki rita
ĠRes pub
ĠY u
ts ch
Ġeten d
Ġdemokra tion
kol oro
Ġkonvin kis
tek turo
sal ono
Ġkis is
Ġintegri ÄĿo
ĠJung kee
H ar
p si
Ġen ÅĿo
van ton
Ġhom aran
Ġsam sekso
et he
ĠKomun i
ĠPa c
vor e
Ġkuti man
Ġfru kton
Ġtradi ciojn
Ġkrom nomon
Ġpru voj
Ġmalal t
Ġpala c
Ġpremi ojn
Ġprotes tis
Ð¾Ð ¼
Ġmalsam an
Ġkunme tita
ĠÄĮ esk
Ġkurs anoj
ĠÄĿenti le
A K
b ilo
la h
Ġp ed
Ġn on
Äī ina
Ġvi data
ĠK B
ĠM orgaÅŃ
Ġel prenis
Ġek fla
for ton
Ġman telo
Ġma kuloj
Ġtri onoj
ad minis
Ġang ul
gen s
Ġ8 7
Ġkar ton
ĠMe zo
Ġ10 3
Ġvir g
ĠSu kces
Ġprakti kan
In form
Ġhal on
ĠÅĿton ojn
Ġaviadi lon
ĠAt las
Ġlig iÄĿas
Ġmanuskri ptoj
ĠEsper eble
ĠColle ge
L in
d ney
Ġk ante
ĠK ni
ing oj
Ġun io
Ġak omo
Ġparo Ä¥o
gran ge
ĠAr turo
Ġmuzi ki
ĠPer sone
Ġknab inon
Ġklopo dojn
Ġsor Äīis
ĠÅĿul do
Ġvan goj
Ġbazi liko
Ġekstre man
Ġprecize co
Ġinterparo lis
Ġobe is
emi zoj
Ġellabor is
Ġalkla ki
s tilo
Ġd us
Ġde metis
li me
ÄĿ ele
ro man
di toj
vi ro
Ġper antoj
ĠJ ul
bo ard
Ġekz a
Ġma gne
Ġgra fika
Ġkor por
Ġro zar
Ġmar don
Ġplu ve
ĠÅĿan cojn
Ġhon t
omen ka
Ġunivers alan
ĠSur voje
Ġw e
Ġsign as
Ġagra bl
Ġentuzias me
Bon venon
ĠBud hismo
Ġrimarkin de
ĠarÄĿ enta
Ġsocial demokra
ĠJapan ujo
dimen sia
Ġkomp ilis
k igi
Î ¯
en ne
Ġ1 18
dis tri
Ġmor tp
Ġpen oj
Ġurbo parto
Ġtrans pas
Ġce di
Ġdev igata
cas t
ĠeÅŃro pajn
Ġkial ojn
Ġpropra Äµo
Ġdisting on
ĠPli aj
Ġdifin itan
Ġbran Äī
Ġinterparo li
ĠEuro pe
Ġripro Äī
Ġign oras
âĹĭâĹĭ âĹĭâĹĭ
ĠDiser von
ĠÄĪika go
G O
K la
e poko
re e
Ġal kondu
Ġb am
ĠP il
de d
pe t
Ġdis iÄĿo
ol s
ĠC ra
Ġta ga
ĠVi kipedion
ĠO ran
Ġsta gn
Ġbe lo
Ġliber pens
Ġevolu ado
ele mento
Ġag ordi
Ġtito l
Ġobjek tiva
ĠSer io
Ġmaten a
Ġgeo grafio
Ġaver to
Ġeventu alaj
Ġglor a
Ġgig antaj
Ġdenun ci
Ġheg emoni
ĠÃģ ngel
Ġalkuti m
ĠTribun alo
Ġli ton
um u
ĠA D
Ġman pla
mon ata
Ġbe daÅŃro
ĠPo ÅĿ
Ġinfor mu
ĠÅĿan celi
Ġkri o
Ġgvi da
Ġakti van
Ġhej maj
ord s
Ġaki r
ÅĿan ce
Ġkongres ojn
bra l
str umento
kade mio
Ġfizi kan
mer ka
Ġvun ditaj
Ġgeed zeco
Ġallo gis
Ġdama ÄĿo
Ġtom bon
ĠhaÅŃ t
Ġkolo sa
ĠGas ton
mesa ÄĿon
ĠPren u
ä ¹
te tojn
Ġal klaku
Ġt tt
ĠK laso
Ġli p
uj ojn
ĠÄĿ ena
us ona
tu aj
ĠD re
ce toj
ĠH im
pi r
ĠVi kipedi
ĠO m
voj on
Ġsitu aci
Ġjen on
Ġrimar ko
ĠKo pio
ĠRi je
Ġzor gu
Ġaga das
Ġmaten man
Ġmu ta
ĠTer percaya
kal kul
Ġsubpre mado
ĠelÅĿu tebla
Ġpros pero
hing ton
ĠOpen Office
7 153
u en
Â ¼
Â Ĵ
Â ĸ
× Ĳ
in ton
Ġes tado
Ġf ajn
Ġkon ojn
ĠM ajno
ĠA B
ĠLa ur
ĠB it
Ġhom amas
Ġak cento
Ġmor f
ĠW at
Ġci on
Ġins tigojn
Ġho tel
ĠNo te
ĠKa tegorioj
Ġpu ÅĿis
Ġpla ÄĿo
Ġesper oj
ĠEgip to
ĠÅĿul trojn
Ġben ko
Ġsudo kcidento
No tu
ĠHon g
Ðº Ð°
tradu ko
Ġkontras to
Ġpresti ÄĿa
ĠMicro soft
R igar
Ġa me
Ġen prizon
ci ano
Ġne as
Ġin ko
Ġin done
di rektoro
don on
Ġpli riÄī
Ġpre dika
ĠH anojo
Ġor d
Ġle ÄĿa
Ġsam tempa
Ġkan aj
Ġkompren eblaj
eri taj
Ġkri oj
Ġprezen toj
Ġdev igitaj
Ġfo kuso
ĠÄĪe Sa
Li ber
qu i
Ġmas troj
Ġhun d
ome te
Å¡ l
Ġtaks on
Ġpala con
Ġkv aro
ĠVor toj
Ġdin osaÅŃ
ĠneÅŃtra leco
Ġkorespon das
Ġrenov igita
plej parte
az w
Ġtrafi k
Ġtransform iÄĿis
ĠfiÅĿkap tado
Ġakces oraj
ĠHind ujo
ĠÄĪeSa T
W orld
× ¨
Ġk er
Ġe lito
Ġen pa
Ġi ranta
tis mon
Ġpre mas
Ġmon ata
Ġ" .
Ġfar ataj
ĠC lin
Ġuz atas
Ġlo komo
Ġra ketoj
Ġaldon itaj
por ton
Ġmor al
Ġskrib aj
Ġpra uloj
Ġeldon ado
ĠSo lo
tik uloj
Ġdom eto
ĠMo dern
ĠHis toria
Ġdisvas tigita
Ġpied pil
Ġmina c
Ġbibliote kon
ĠVal le
ĠAra ba
Ġmirin daj
Ġemfa zi
Ġski zo
Ġfilme tojn
Ġgeno cido
Ġensem blo
Ġefem era
Ġcun amo
H en
g inte
n ed
w or
Ġa di
Ġi en
Ġh ele
Ġvi raj
ĠS araj
Ġpro zo
va da
ing er
gi an
Ġri toj
Ġap ri
Ġuz eblaj
âĢĿ ;
Ġven dado
Ġlu ksa
paro lado
Ġdezi rojn
Ġmez uroj
Ġfavor on
Ġfab el
Ġdatum bazo
Ġseks neÅŃtra
AR O
sti la
Ġjapan an
Ġkonven an
Fran cis
Ġplenkres kulo
Ġakade mia
Ġkombin aÄµo
Ġfurio z
Ġkavali roj
Ġsens igni
ĠaranÄĿi taj
Ġinstin ktoj
Ġdiame tro
y an
ti kismo
re li
ĠT ere
Ġali ulo
tri aj
ĠMi rinda
Ġle gante
Ġgra vis
Ġmor oj
ĠÄīirkaÅŃ aj
Ġregis taraj
Ġkro majn
Ġlas os
kov r
ĠBa k
ĠanstataÅŃ igis
ĠRi mini
Ġprefer ata
Ġstre bo
Ġkas tel
Ġaga di
ĠOri ent
Ġprogres antojn
Ġklu b
Jes uo
Esperan tisto
Ġinves ti
ÅĽ ci
ĠÅŃ onbulismo
ĠEngel s
Ġsko ta
% ).
t res
Ġd as
an stataÅŃ
vi aj
ĠP EA
ĠB Ã¡
ĠG E
lon a
kan aj
Ġmalf on
tera pio
Ġdef lan
Ġprakti k
Ġtas k
Ġmalj usta
Ġentrepren is
Ġmalsan ulo
ĠMor to
ĠPrin tempo
Ġkub aj
ĠPaci fika
Ġsenmo ve
Ġsuperrigar don
ĠKontro lu
Palest ina
4 00
j peg
Ġ wa
Ġe kos
Ġa Ã¹
Ġf ebru
Ġan tropo
Ġpri dis
mo vi
Ġte sti
ĠTi beto
Ġso leco
ĠCh urch
hel po
ĠRi b
Ġprefer us
Ġbra kon
Ġtru d
Â« Â»
Ġduo blan
Ä´ A
Ġkonkre tajn
ĠPalest ina
ĠOl ga
Ġmiz eri
komer co
Ġelti ris
Ġentomb igita
Ġpripen su
V e
i ron
Ä ¹
Ġa ziaj
Ġne i
ĠK EF
ĠL ang
ÅĿ tata
Ġkun organi
em bre
du la
Ġ" ,
me ta
tor ion
van ni
Ġmem mor
Ġven kita
Ġak us
Ġesperan tigis
pen daÄµoj
Ġele ktado
Ġprin tempe
Ġuti lan
Ġpoliti kis
Ġviv kondiÄīoj
Ġmur ojn
Ġesplor ojn
bas o
ĠLing vaj
ĠriÄī uloj
Ġkompon istoj
Ġakompan ata
Ġbur go
194 3
dr ono
Esperan tistoj
Ġbrazi laj
Ġretpa ÄĿoj
Ġign ori
Ġliter um
Ġliteratur an
espri mo
d zi
Ġla kton
ĠS L
ĠT un
ver n
Ġka talo
Ġka zino
pi ri
Ġta kti
Ġuz anton
ch y
Ġmontri ÄĿos
his pane
Ġdes cen
Ġjus te
Ġgar distoj
Ġpaci enco
Ġsalu ton
use ppe
Ġfide leco
Ġinterkonsen toj
Ġakuz oj
Ġeka peris
Ġromi aj
Ġseminar ion
ĠOb ama
Fun damen
E fektive
K ol
p lantoj
Ġk uz
Ġde pri
di ri
Ġmi gra
ĠA stron
Ġse mi
de mio
Ġper don
ĠB es
Ġfar itan
ble con
bor o
Ġvalor ajn
Ġgrama tikajn
Ġtea traÄµoj
ĠÄµurn alismo
Ġkonklu dojn
Ġmortin to
Ġvig laj
Ġeko logio
proble mojn
Ġortodo ks
Ġforpe li
Ġekfunkci is
ÅĤad ysÅĤaw
C har
a gado
z ara
ra m
ĠK ordo
ĠS ul
Ġkun igitaj
po si
Ġek tre
ata ko
Ġkons umado
Ġlabor antaj
Ġfi d
Ġindi anoj
ec tor
ĠÅĿa to
kun e
Ġkvan toj
Ġkompon aÄµoj
Ġmina coj
Ġkonflik tojn
celi ero
Ġspecif ajn
y os
is ter
Ġs ho
el la
el lo
Ġmal lum
ĠR O
Ġmon doj
vis o
Ġdu bojn
ata do
Ġsub aÅŃskul
gis to
Ġman ÄĿoj
Ġfa c
son oj
var d
Ġinfor milo
Ġfon t
ĠRe ta
ĠÅĿajn a
Ġab undo
ĠRu ÄĿ
Ġvek as
ĠMor ris
Ġpon ton
yle ft
Ita lio
v igas
ta ran
am eri
es trino
taj xo
ĠB Ã©
gi oj
fi c
zo v
Ġcer tigis
fa las
ĠTa i
Ġkoncern ajn
Ġkru con
Ġnig re
Ġorigin alajn
ĠRu dolf
Ġaparta mento
Ġperfor ta
Ġok dek
Ġreta dreson
199 0
Ġemo cioj
Ġabun daj
Ġtenden cas
Ġinteligen teco
Ġkomfor te
Ġbun ta
Ġdeputi to
ĠPh il
b eo
Î ³
Ġp anto
Ġa simi
Ġal tigi
ko dilo
Ġinter ligo
ĠEs p
gan tajn
ĠKi un
kom an
Ġjun ulojn
Ġmala peri
Ġdeman dos
ĠAr thur
Ġakcep tata
Ġ16 00
Ġâ Ħ
ÅĿan ÄĿaj
Ġfes tivaloj
Ġofer to
Ġaso cia
Ġseks umado
ÑĢ Ðµ
Ġaver tas
Ġbio logio
Ġkopi on
Ġsudo kcidente
Ġkatoli kismo
Ġrimark ebla
Ġalfab eton
hal to
Ġmerka ton
Ġsopi ro
lip so
Ġekzek uti
Ġlernej aj
Ġfaden ojn
ĠBazi liko
K ata
] ),
h in
Ġla men
in joroj
to mo
al tis
ÅĿ vico
Ġpro tagon
ĠD ur
ris toj
Ġmo ÅĿt
Ġsin mor
Ġlabor post
Ġam ara
ĠW andel
Ġinfor mita
ÄĪ inio
fa t
Ġnu la
Ġgas tigas
ĠhodiaÅŃ aj
Ġeten das
Ġprofi toj
Ġkonsen ton
Ġgrande con
Ġemo cio
meto do
Ġmus ko
Ġapara ton
Ġproto kolo
Ġinterrila to
ĠfreÅĿ aj
Ġimpro vi
Ġcommunica te
L ern
u ka
Ġt ronon
ĠL O
ĠE instein
ĠN il
du ko
Ġdis tra
tri c
ĠU R
Ġkons ol
Ġgran ito
et rue
Ġ18 30
Ġfil ma
ĠÅĿan coj
ĠEk zer
Ġkap ojn
Ġenha vanta
Ġpreci p
Ġforlas os
Ġhi bri
ĠPetro vna
Ġinven to
fron t
Ġkron on
Ġmezepo kaj
S P
å Ī
ÄĿ uloj
Ġg er
Ġpro von
kon oj
Ġri dinda
me tu
gan tojn
ĠO ks
Ġsin dikato
ba o
Ġmala ten
Ġofi con
ĠPro ble
Ġrapi dis
Ġscien cis
Ġten sio
Ġprakti kis
ore giono
Ð¸ Ñĩ
ĠSam seks
Ġhere daÄµon
Ġsun on
Mar ia
Ġkonklu doj
Ġafri kanoj
Ġsudori ente
Ġgli t
ĠTeo doro
Ġpodkas to
Ġsate lito
) -
S te
b n
g eblaj
j aron
ci pa
ci anoj
Ġg rum
Ġkun igis
ĠF ir
ga z
Ġor on
Ġpost ulon
Ġter aj
ĠAl l
ĠMa ke
labor oj
Ġdev ige
ÅĿi mo
Ġnaci istoj
aÄĿ uloj
fun damen
ĠTem is
Ġalb umoj
bil don
Ġadmi ris
Ġfing r
Ġgeedzi ÄĿis
Ġegal raj
Ġglo bo
Ġintertra ktoj
ĠKazi mierz
Ġmagn eta
Ġemble mo
ĠKeb ek
o kcidenta
Ġi radis
Ġvi tra
ĠK lu
Ġan e
ĠÅĿ nur
ris mo
Ġpar ta
Ġbon hum
Ġmin oritato
Ġsam opini
Ġtre mis
Ġsci igo
tem bergo
Ġkomen tas
Ġpen on
ba za
Â» )
Â» ;
fo lioj
Ġdan ko
Ġmen dis
feren coj
Ġob scen
Ġsignif us
ĠNa polo
Ġinten coj
Ġadminis tri
Ġr uman
Ġforges ita
Ġjuna ÄĿo
ĠNu kle
Ġdio cezo
Ġvizitan to
Ġizo litaj
Ġflugi lojn
ĠES F
ĠStra tegia
His panio
Ġsateli taj
Ġprocen tojn
emis fero
ĠiP hone
oldi d
I B
c m
e tono
ti ge
al ing
ĠI stan
Ġek lerni
Ġsur metis
Ġta ri
ksi oj
Ġpermes ilon
Ġ5 000
ĠRe c
Ġmen u
Ġstu dadon
Ġkuti mojn
Ġmuzi kan
Ġkole ktoj
Ġoku pitaj
Ġreda ktita
Ġricevi taj
Ġtrankvi lo
ĠQ Q
ĠSpi te
Ġrevi zio
Ġrespekti va
Ġpaci ento
Ġeksplu a
Ġakademi anoj
Ġmoder a
ĠHeb re
ĠSp omenka
Ġmasak ro
ĠEras mus
R D
c lo
o kies
r ar
z ell
Ù ĩ
á ¹
in sta
Ġm ln
le k
Ġi rado
ĠP EN
Ġel turn
zi po
ĠV IN
ĠG eno
ĠH aj
Ġmem bras
ĠantaÅŃ uloj
ĠIn sta
Ġam or
be toj
Ġeni ron
Ġkomuni kas
his toria
Ġstruk turojn
Ġfam on
Ġtravi vas
Ġkonstitu cion
Ġato moj
Ġekspozi cioj
ĠJohan nes
ĠAlex ander
ĠdefaÅŃl te
Ġv aro
Ġb andar
ĠK ras
Ġmi en
ĠÄĿ angalo
go to
ĠJ ana
mi tri
Ġjar centa
ĠTi to
Ġmor tiga
ha vis
Ġmili tan
Ġspeci men
Ġrenkon te
Ġdezi rata
Ġtuj an
gos z
Ġkontribu aÄµojn
Ġlim dato
Ġr araj
uman n
ĠGe org
Ġdistribu ado
kapab laj
Ġtera pioj
time c
Ġmalkres ko
Ġagen tejo
Ġprofesi uloj
Ġfrekven co
Ġkvaza ux
Ġdemis i
Ġfolium iloj
Ġalis pe
Â«Â» Â«Â»
K utime
f ilojn
i Äĩ
s Ã³
Ġe lo
Ġre aran
ĠE viden
Ġmi elo
po laj
ĠB v
Ġpre mon
Ġdis k
Ġak ordo
Ġmor alan
pu t
Ġkomun umojn
ami kojn
Ġprezen tiÄĿas
Ġnu ko
Ġbezon atajn
ĠAr t
sek retario
Ġmez uras
ĠPre fere
Ġblan ke
Ġlegi lon
Ġmalsu preni
Ġokup aci
ĠKel kajn
Ġdikta tor
Ġalin om
M in
h ome
k iÄĿo
v elon
la g
li ca
Ġv d
ci ado
Ġti ri
Ġre kru
ĠT as
Ġdi radis
ĠD ona
Ġdu boj
ch an
Ġdo larojn
Ġsek un
Ġkri pli
Ġgru peto
ĠAr tikoloj
Ġgvi dita
ĠBo b
Ġsim pozio
Ġdivi diÄĿas
Ġeviden tiÄĿas
Ġva ga
Ġofer is
ph er
Ġkompar ebla
Ġmalal te
Ġvolon t
rapi de
Ġiden te
199 7
ĠJerusale mon
Tag s
Ġpenet ris
Ġinternational ly
h y
p tojn
Ġd al
ul inojn
Ġkun iÄĿas
Ġali landaj
ĠlaÅŃ pla
Ġuz oj
Ġku g
ĠAn d
ĠW ÅĤadysÅĤaw
ĠMar ek
Ã¡ z
Ġmulte kostaj
Ġkonstru itan
Ġves taÄµojn
ĠJa ck
bur y
Ġlasta tempaj
kos tan
ĠÐ ļ
ĠJu lia
Ġsimple co
ĠGo ethe
Ġorigin as
aso cioj
ĠÄĿen tila
Ġfizi ke
Ġinspi ro
Ġskulp taÄµoj
Ġful m
ĠHal l
ĠjuÄĿis toj
ĠÄīo kolado
ĠBelar taj
i om
i kaj
Ġk eston
ÅŃ a
Ġal l
Ġmi k
Ġan ojn
ĠA kcep
Ġmal ne
ĠP ÅĻ
ĠÄīi aspecaj
kon a
ĠLa w
ĠÅĿ teli
Ġek umena
ĠF ejsbu
il ler
Ġsur skrib
ĠMi ra
Ġsub mar
kta Äµo
Ġtri deko
pen di
Ġtrovi ÄĿi
Ġskrib oj
Ġsuper sti
ĠMa tt
ĠÄīirkaÅŃ is
ĠloÄĿ anto
ĠPro bal
ĠAr baro
ler no
Ġorig inon
Ġtele fona
les s
ĠmanÄĿ os
ĠLo u
Ne ces
ĠSta tes
Ġekvi libron
Ġsilen tas
Ġapro b
ĠÄĿarden on
Ġpara grafo
ĠGre g
Ġmanier ojn
Ġservis tino
Ġtrakta taj
kel kaj
Ġmalsupren iris
ĠReÄĿ ino
Na tional
ĠJus teco
tea tro
ĠPaf klik
A s
D P
f ren
å Ĳ
ta lon
er gio
Ġa I
ar eco
Ġne ma
ĠM B
Ġel uzi
tan on
iÄĿ intoj
Ġinter ligon
Ġinter aktiva
Ġek flu
Ġfor veturo
Ġven igi
ak vo
Ġvirin aj
Ġgla von
ĠkaÅĿ itaj
Ġlong daÅŃra
Ġvort farado
Ġkoncer ton
Ġhispan e
ĠRen esanco
Ġhumi daj
Ġalterna tivaj
Ġrekonstru ita
Ġbier farejo
Ġgig anto
Ġgasti gantoj
Ġamike con
Ġheli kop
Ġokulvi troj
ĠBaha a
Ġatomb om
ĠFlan dra
you tube
ĠCompan y
I m
S cienco
_ {
c ko
h os
j no
Â ī
Ñ İ
la doj
Ġs vel
ro lo
ig ilo
vi an
Ġri das
Ġkons tela
kti ÄĿis
lon go
ĠantaÅŃ ulo
ab e
Ġku ketoj
Ġlabor os
par ti
Ġju vel
Ġsan aj
Ġfari tajn
Ġsol vita
ĠAÅŃ stria
ĠanstataÅŃ igita
ĠKo lo
Ġeni ros
Ġima gu
ãģ «
Ġmalproksi men
Ġfig ur
Ġgaran tio
194 2
Ġeldi ro
mana ko
soci eto
Ġsateli toj
Ġbuti k
Ġnekompren ebla
Ġstimu li
f ini
m una
t Ã³
u ko
ĠK ler
ĠD ana
ce den
ĠF rem
ĠF ilon
Ġsin don
ĠKon traste
Ġraj d
itan te
Ġrezul tigis
Ġpatr ina
Ġpatr inoj
Ġdisvol vado
An ÄĿele
Ġcivi t
Ġon in
ĠLiber eco
ĠÄīiuta gan
ĠHel ena
Â« .
ĠCe zar
ĠHar ry
Ġtenden con
Ġfron t
dinda Äµojn
ĠKomer co
Ġitin ero
ĠAntik va
É Ľ
li tiko
Ġne mo
ojn o
Ġg amon
Ġsi danta
ĠD eman
Ġfor ajn
Ġser boj
Ġtri cent
Ġkor bo
Ġliber iga
Ġsufi cxe
Ġefi kan
ĠCen t
Ġplibon igas
Ġdisvolvi ÄĿas
ĠinaÅŃgu rita
Ġherb ejo
Ġaplika ta
Ġofice jon
Ġaspi roj
ĠCla y
ĠTE Ä´A
kater in
Ä´an ejro
K TO
S vis
V ar
c am
h ua
k toroj
Ġes p
Ġes tras
ĠK lara
di ÄĿon
ĠS Ã¡n
ĠS yl
ĠA M
vi t
iÄĿ intan
Ġek vali
Ġka z
ĠC aro
Ġpa gen
ĠlaÅŃ vice
Ġtra videbla
no w
ub ri
Ġ: @
lin i
et s
min uta
ĠBo ulton
Ġmemor igis
ĠLo ka
Pro fes
Ġtrin kaÄµoj
Ġdeks tran
ĠRu hr
ĠQ ing
Äīam bron
Ġlingv aro
Ġalte benaÄµo
Ġstul t
lap Ã¼
Ġkunme taÄµoj
ĠLabor o
ĠSpe cioj
Ġforpas inta
Ġring oj
äº º
ĠPr V
lat ko
Ġbudhis ma
oling vo
ĠFron to
hero o
Ġeminent uloj
V a
p es
ÅĿ kin
uj ara
Ġmal gajn
ĠN AB
Ġsub Äīi
ĠantaÅŃ ajn
kis ma
Ġje zu
Ġesti gi
ĠMa lo
ĠPa y
gn oj
ĠCh ong
Ġmemor aj
Ġden ask
ES P
Ġmas tron
ĠmanÄĿ u
Ġstari gitaj
end ar
Ġfam ilin
Ġeko logiaj
fgan g
Ġvul po
ĠSim ono
Ġmallar ÄĿaj
ĠDen nis
Ġinv esto
ĠNata ÅĿa
Ġenkar cer
F I
h oroj
Ġde ÅĿi
um eto
Ġse mo
Ġel sa
ru di
ĠEs pa
ĠH era
Ġplej a
Ġter mo
Ġro lojn
ĠKon ta
ĠPo poloj
Ġfun de
Ġperson aro
Ġkapab los
vig oj
Ġofer on
ĠTri anon
Ġpromes oj
Ġinicia tinto
ĠJer zy
Ġmalliber uloj
Ġripo zas
199 9
Ġtrejn isto
Ġapu dan
aspe ktaj
Ġdenas ke
ĠsenÄī esa
ĠTeks aso
fir mao
ĠMona Ä¥ejo
Ġ:@ :
S om
n eo
li ÅĿ
Ġn ul
le goj
Ġki m
ĠL S
Ġse ÄĿ
ru ÄĿa
ĠEs tos
La u
ĠJ iz
ga o
ĠH ad
Ġka pe
Ġtra legis
cen tojn
Ġro s
ĠZ ara
Ġce lanta
ĠRe ich
Ġlu dejo
ĠMa ch
Ġsol vas
Ġfaci laj
ĠAÅŃ ÅĿvico
Ġbi enoj
ĠBa y
Ġpla to
Ġvolon tulo
Ġir oni
Ġinterpre ti
Ġatribu is
199 8
ĠLas u
Â´ ,
ĠJÃ³ zef
Ġseninter rom
E d
W il
Ġli ri
ĠM EK
ĠÄīi foje
ru etrue
aÅŃ zo
Ġso lo
Ġkre aÄµo
Ġpen tri
Ġplu en
Ġ18 63
Ġcer ba
ĠRe y
Ġang l
ĠDe utsch
ĠJa vaScript
Ġuti leco
Ġtele sko
ĠRi ver
Ġspa coj
ĠWi es
jar centa
Äį ka
Ġste po
Ġstul taj
set ruetrue
proble mo
ĠRegis tro
Ġlegan ton
ĠCez ano
ĠLicen setruetrue
ĠWas hington
ĠJin ping
Ġmulten om
D ia
c Ã³n
j p
é Ģ
Ġ Ø§ÙĦ
Ġp neÅŃ
Ġal preni
Ġne utra
ul u
Ġnom inala
ĠTi mo
Ġso if
... Â»
Ġbi to
Ġklas batalo
Ġeni ru
fab riko
Ġener gia
Ġkonten tiga
Ġform iÄĿas
Ġapro bitaj
ĠVo lo
Ġpritra ktis
Ġekskur son
Gran do
Ġdemon stra
Ġekspozi ci
Ġsila boj
ĠKontraÅŃ e
Ġslo vena
Ġbuti koj
GF DL
G er
K var
f igure
g am
w id
à ¥
la Äµon
Ġa ganto
em ulino
ĠF an
ĠF ul
Ġsen pre
ir kau
fo to
Ġfer men
bar aj
Ġuti ligo
Ġdom a
Ġalta ron
Ġeli r
ĠBon vole
ĠÅĿanÄĿ os
Ġedu kita
Ġrest us
Ġmaldeks traj
Ġspor ta
Ġkonfir mita
ĠDon u
ĠLito va
Ġ188 5
ĠÄīeÄ¥ os
Ġavi ado
ÃŁ e
ĠAla ho
ĠpoÅĿtele fono
ĠHaa ps
s ke
Ã Ĺ
Ġe Ä¥
Ġt ron
ran ice
ĠN K
ĠV y
ĠG lor
bo x
Ġpost enojn
Ġlan Äī
ĠÄīar m
ĠSe arch
kom isiono
Ġkan zono
Ġbone gaj
eri oj
ĠdaÅŃ ran
gen stein
Ġprodu kton
Ġrenkon tos
Ġbil digas
th is
ĠBa za
Ġtemp lon
Ġrea gon
Ġpoe zion
ĠPaÅŃ l
ĠelÅĿu tas
prote kto
Ġkvaza u
ĠpaÄĿ aroj
ĠMON DO
ĠðŁ ĻĤ
aktuala Äµoj
c ur
Ġg var
ĠP tole
zi jeviÄī
ĠB un
ma toj
Ġc ha
tr or
Ġver dire
tor iko
ĠMi kado
Ġtu bo
Ġlo ke
ub ert
kta doj
ĠKon kursoj
ÄĪ ina
lis ton
Ġkol eron
Ġmalkov ros
Ġw as
Ġanon c
Ġste lojn
Ġkonvers acioj
ĠÅĿlos ilon
AM EN
ĠMis sion
ĠFern Ã¡ndez
ĠKristnas ka
ĠGlo be
Ġalmen aux
ĠAtana zijeviÄī
v un
Ġk aro
re toj
di tajn
ĠLa grange
ĠB elo
ĠD Ã©
ia t
ĠF E
Ġtiu kaze
Ġnom u
Ġmem kompreneble
Ġdo gan
raj ton
Ġfin n
ĠW o
Ġplen ajn
Ġ18 60
Ġdeci de
Ġmult jara
Ġedz inoj
Ġsufer ado
Ġfu ÄĿ
ĠdanÄĿ eron
Ġmalpermes i
mer kato
Ġvun d
Su per
Ġhezi tis
Ġkonsekven co
Ġspegu las
ĠBratis lavo
F il
T lustulimu
e aj
Î ¸
an im
ri Äīa
te ori
un io
es is
Ġkon igi
Ġel lerni
ĠI B
Ġsur ben
bo v
Ġpar f
Ġar tifi
Ġneni aj
Ġba ti
Ġci taÄµojn
Ġkul pa
fo x
maj stro
ĠSi cilio
Ġpun on
Ġmas ko
Ð¸ Ð½
ĠSte in
199 1
ĠnaÅŃ a
Ġreprodu ktado
Ġfervoj oj
Ġnega tivaj
prote ktado
ĠarÄĿ ent
Ġheg emonio
ĠKonstantino polo
Ġposttagme zo
Ġaltnive laj
ĠKonf ederacio
A p
u ea
w el
Ġk l
al y
Ġi ÄĿ
ĠT ab
Ġdi bo
Ġdis donis
Ġta li
Ġra do
Ġfin os
Ġsig na
19 39
Ġnor dan
ĠKa ÅĿ
ĠSo ftvaro
Ġgepa trojn
Ġaux skul
Ġelsta ris
Ð¸ Ð¹
Ġmalproksi m
Ġduo blaj
Ġpromen ejo
Ġris kon
Ġaktive con
ĠAnton i
ĠPeter burgo
ĠTar zan
Ġkavali ro
Ġrespub lika
ĠÄĪeÄ¥os lovaka
Ġnutra Äµojn
Ġnordori ente
Ġkunpor ti
Ġdimen sioj
Ge or
horlo ÄĿo
i ti
j ur
ci u
Ġne g
ĠK ard
Ġkon temp
ĠS lo
Ġg laso
ĠA peris
vi k
fi eld
Ġsek vojn
ĠPa pi
kur bo
Ġkam era
Ġge a
Ġevolu i
kvi zi
Ġcir kul
Ġtru on
ĠSvis aj
ĠKol ker
Ġpose daÄµoj
ĠGu ez
Ġalte c
ï¼ Ī
Ġkunme titaj
Ġkampar ano
ĠEÅŃ gen
Ġtom boj
Ġdikta toro
ĠGener al
Ġmali ca
Ġfros to
ĠLasta tempe
Ġcivil uloj
Ġse zonoj
ĠF oj
Ġdeta l
Ġplan kon
Ġfran cajn
Ġprezi dis
Ġrus iaj
In sulo
Ġefi kis
Ġbaz aro
Ġobser vatorio
Ġkomenc anto
ben trop
Ġakompan i
Ġkorek ta
Ġblin d
Ġmira kloj
ĠAmeri ka
Di man
voja ÄĿis
Ġmaleb ligi
Ġtropi ka
Ġpes im
ĠkontraÅŃle ÄĿa
ĠMaksi mo
O s
b ajn
b lin
n Ã©
z lik
Ġa via
am erika
Ġt onoj
Ġg esto
ĠM EP
ĠA z
Ġkom para
Ġfor ti
Ġres tanta
ĠPa ulo
Ġfaci las
Ġvir to
Ġmenci u
Ġkomenci ÄĿos
Ġreali gas
Ġanali zoj
Mar ta
Ġuniversita ton
Re gis
Ġvaria Äµo
Ġparale la
Ġafab l
projek toj
Ġprimi tiva
ĠStre et
ĀĀĀĀĀĀĀĀĀĀĀĀĀĀĀĀĀĀĀĀĀĀĀĀĀĀĀĀĀĀĀĀ ĀĀĀĀĀĀĀĀĀĀĀĀĀĀĀĀĀĀĀĀĀĀĀĀĀĀĀĀĀĀĀĀ
Ã¡sz lÃ³
C hi
R egno
b rio
g ina
n s
n ÃŃ
Ø ª
ta u
ti do
lo kojn
ĠÄī eri
Ġb eno
ĠM ig
Ġo to
ĠÄ į
dis ma
Ġdis ciplino
ĠO f
ĠKi t
tin enta
Ġmar k
Ġmar kon
ĠRe vi
kla vo
mul on
sa k
ĠLe a
ĠBa p
Li to
Ġokciden tan
Ġdekla roj
Ġpopula cioj
Ġesperantis mo
Ġnatur kura
ĠSal va
Ġpublika Äµoj
Ġsx a
Ġvun doj
Ġpropagan di
hom aj
Ġsul f
ĠinÄĿeni er
Ġkonci ze
Ġagen toj
Î¿ ÏĤ
ĠOce anio
ĠHiz bula
âĶģ âĶģ
" ...
[ ...]
a a
o lo
u rio
Ġp inta
li ono
Ġal ÄĿus
Ġvi dus
ĠS et
de tru
ĠD aÅŃri
ĠG au
Ġven disto
Ġmo za
Ġaplik ebla
wa in
din de
Ġnor mojn
Ġob se
ĠÅľ in
Ġbru on
ĠaÅŃskul tos
Ġfamili eca
viadi la
Ġkomputi l
ĠGi useppe
ev na
198 9
Ġpercep tas
Ġchiuj n
ĠdisÄīi pl
Ġspon s
Ġmilitis taro
ĠDomini ko
ĠTeri torio
ĠGio vanni
ĠAssocia tion
à µ
is er
is mojn
Ġs koloj
Ġen radik
ÅŃ o
ra da
Ġmi re
ĠS ej
Ġper ple
ve y
ĠG EJ
Ġsen hel
ĠJ Ã¡n
ver kisto
pa t
pa ti
ge lo
Ġesperan tigi
ĠAn ne
ĠZ u
Ġpe c
Ġliber iÄĿo
Ġrigar dos
ula do
ĠambaÅŃ flanke
Ġnig rajn
ĠFor t
ãģ §
Ġprogres antoj
Ġhar monia
stre am
Ġrezer vitaj
Ġdiploma to
Ġinsek tojn
ĠSpeci ala
poten co
Ġsenes cepte
ĠZagre b
e coj
k ja
s ano
Ġk uzo
ĠM ana
da ton
Ġmal bela
ton ojn
ĠD Ä´
ĠC ir
no t
Ġko d
ze to
cia lo
Ġmen se
ĠPor to
ĠMon de
ĠPol landon
Ġhun don
Ġfeli etono
Ġfavor is
Ġkona toj
Ġvic prezi
Ġeksperi menta
Ġbus oj
Ġmulto bli
Ġgrav uloj
ip zig
Ġfanto mo
Ġmaldi kaj
ĠAntar kto
ĠBene dikto
Ġperi fer
ĠVences lao
B an
o f
s ar
z li
Î ¬
Ġp ia
tis maj
ko don
ĠS he
ĠS lova
ĠS ong
Ġpro ks
ĠB in
ĠF aci
ĠantaÅŃ kovrilaj
Ġmor toj
ĠSe vilo
be ck
kur sojn
ĠSu pozeble
Ġ11 5
ER N
ĠSen ÅĿanÄĿaj
Ġfu turo
ĠBi ble
ĠAntaÅŃ ovrilaj
ÅĿa dis
Ġbele tro
Å¡ e
Ġmalami ka
Ġnes ton
Ġinsta laÄµoj
ĠPrin c
ĠStu dies
Ġcele bri
ï¼ ī
Ġkredi t
Ġsubjek toj
Ġlign on
Ġfrag mentoj
Ġdors kovrilaj
ĠAni malo
ĠÄīap elon
Ġveturo s
ĠMalantaÅŃ kovrilaj
cop yleft
Ġkola ps
f dl
v am
di ale
ĠE pi
ĠA ki
vi vaj
Ġl umoj
ĠB aj
Ġte l
Ġra doj
ĠAn kau
Ġspe ktro
ĠSe zonoj
Ġba tas
Ġapar ataro
Ġelek tran
Ġblo kado
Ġspi ra
Ġdom ino
mem or
laÅŃ t
Ġrest ri
Ġrete jojn
ãģ Ļ
ĠIm per
Ġkategori ojn
Ġizo to
html GFDL
Ġekvival ento
cl Ã©s
æĺ ¯
- "
R T
e on
n ero
Ġs tur
Ġa peranta
Ġre vig
di zo
ÅĿ io
Ġper ditaj
Ġri belon
ĠH EJ
ĠC are
ĠlaÅŃ di
Ġpen ado
gu y
bi to
Ġskrib an
vor t
Ġkol era
ĠÄĿener alajn
Ġer mi
ĠJe ho
Ġega lan
Ġinvi t
liber eco
Ġalt lernejo
Ġmeri to
ill s
Ġdeba ton
Ġfortika Äµoj
Ġpilgri mantoj
Ġintervju oj
Ġprav igas
Ġeksterordin are
ĠretpoÅĿta dreson
Ġsenuti la
Ġaba tejo
ĠHelsin ko
Ġekza kta
A leks
M emor
k ami
n ig
es cepte
vi don
ĠP ur
Ġpre para
tra fiko
ĠG an
Ġka tino
Ġnom braj
Ġeb eno
Ġtrovi ÄĿanta
Ġkri ma
gn ar
ĠUni verso
Ġuti ligita
Ġmis tra
ĠJu pi
Ġprepar iÄĿi
Ġtag mezo
Ġobjek t
Ġjus tico
Ġapro bon
ĠKata luna
Ġmiks aj
Ð¾Ð ´
Ġsuspe kt
ĠGal len
Ġrekonstru o
ĠPA G
Ġsankte co
ĠSpeci ale
Ġminorita toj
ĠÄīefminis tron
ĠFlug haveno
* ,
i kon
i ve
n ita
Ã ¬
Ġa v
le zia
ĠK uri
ĠL aj
ĠA pli
don an
Ġunu igi
go vio
Ġc or
me dia
Ġsci igon
Ġmar de
pl eno
Ġproksi mas
ĠÐ Ĵ
Ð¾ Ð½
Ġkolekti vo
Ġkontin ua
Ġmenso g
Ġsove taj
Ġunun uran
Ġfri pon
ĠNew s
Ġtalen ta
ĠVes pere
Ġdest initaj
ĠÅĿtor mo
htmlGFDL GNU
E vidente
F F
M aj
W S
f rem
g ur
Ġre vido
ĠS it
ig eblaj
ĠM am
kon ek
tu res
Ġinter kultura
Ġri z
Ġri to
ma dis
Ġfor don
Ġmon bi
ĠC os
tor ie
kul turon
Ġdan cas
Ġsol vis
Ġprodu kt
ec ojn
Ġgvi dataj
kov skij
Ġnaci eco
Ġkontro lu
Ġag ento
mor te
Kon sider
Ġindividu ajn
ãĥ ©
Ġvort provizo
ĠVil la
ĠmalÄĿus te
ĠÅĿu ojn
ĠReli gio
K am
U D
k tisto
Ĭ Ľ
an ce
ÄĿ eco
Ġal ligitaj
ĠK ant
Ġo ksi
ĠaÅŃ tuna
Ġdi lu
Ġsen sukces
Ġno vo
ĠO fici
Ġle vita
ber s
Ġesperan tigita
rin taj
Ġsek und
Ġdeta lo
ĠW ells
Ġpe kon
kte blaj
Ġekster landen
Ġating eblaj
Ġnu re
ĠNo vo
len berg
Ġaparten i
Ġklari gu
Ġprofes ioj
Ġga pis
TO J
ĠVin tra
Ġhere do
Ġperfor ton
Ġ188 1
Ġsekvan toj
Ġparame tro
Ġhelpan to
ĠImperi estro
Joh ano
ĠpseÅŃdoni mo
A t
E du
h uman
j anov
Ġp lo
Ġa tle
Ġm uso
ar te
ri vero
Ġen ÅĿ
Ġmi lo
ĠS kribo
st inio
ĠI g
Ġni tro
Ġdu bi
Ġsub ri
ÄĿis toj
Ġpost sek
tre ma
Ġkor tumo
ĠFran cion
Äīo v
Ġsoci alistoj
Ġflu goj
teg oria
Ġler taj
Ġkomenci ta
Ġprofun dajn
ĠRom io
Ġpala coj
Ġsekre ton
Ba hÃ¡
ĠZe ÅŃ
ĠBla ck
Ġkost umoj
ĠHenry k
Ġflo to
ĠRib bentrop
I K
a coj
s ento
Ġa gantoj
Ġen li
Ġen dor
Ġt uni
ĠL ord
ĠE volu
ĠÄīi Äīer
ĠT roj
Ġdi ro
iÄĿ ema
Ġsen bri
Ġmon taraj
ĠH EA
Ġsur tere
Ġor ajn
Ġjar miloj
Ġaldon aÄµoj
se y
âĢ¦ )
ĠÄĪe Äī
Ġbri lanta
Ġroman tika
Ġkato lik
Ġanon coj
land s
ĠTh un
Ġbran Äīojn
ĠÄ¥ oro
Ġpon toj
ĠvoÄīdon oj
Ġfoto graf
Ġrekla mado
Ġstul te
Ġche fe
Ġdifini tajn
Ġate ston
Ġmanifesta cioj
Ġradika laj
Ġsensen ca
ĠAdam s
ĠChu ck
Ġmig ris
Pres kaÅŃ
inf ana
ĠYo ung
ĠGdan sko
ĠBenjam in
Ġa bato
do c
Ġre tenis
ko doj
ĠI UC
pa f
Ġda ta
bor n
Ġsub ak
ke ta
gra mojn
Ġvor tor
ba d
Ġmar ÄĿen
ier a
fa ko
Ġmala bun
ĠAl klaku
Ġfil inojn
Ġhistor ioj
Ġprezen tu
Ġkonsi lantaro
Ġmuzi ks
Äīi u
Ġab el
ĠMo derna
Ġkal kuloj
Ni aj
ĠVer dire
Ġeli ros
Ġfla vo
tn ask
Ġanon con
temp ajn
Mo ts
Ġalti ras
Ġmontran ta
Ġdiplom iÄĿis
His torio
Ġklima ton
ĠKomer ca
Ġserpen toj
ĠArki tekturo
ĠPÃ© cs
ĠriÄīe con
Ġvenont jare
Ġstandar do
ðŁĺ¨ðŁĺ¨ðŁĺ¨ðŁĺ¨ ðŁĺ¨ðŁĺ¨ðŁĺ¨ðŁĺ¨
e ÅŃro
Ï Į
Ġ è
Ġe kaÅŃ
Ġe lok
li vu
om aro
ĠE mi
ĠP it
ĠaÅŃ spi
ĠJ ona
ver kis
van tan
vers a
Ġven dita
ĠIn ner
An g
Ġsim uli
Ġon d
kar io
Ġinkluzi vis
ĠÅĿanÄĿ iÄĿi
Ġdisvas tigon
ĠNov ze
Ġklopo dos
Ġstabi leco
Ġsh ajnas
ĠTe tra
Ġbom bar
Pre zento
Ġkonsil isto
struk turo
Ġhodia ux
Ġseminar ioj
ĠGabri el
ĠIstan bulo
AnÄĿele so
ĠIUC N
8 00
g om
Ì ģ
Ï Ģ
Ġa Äīa
or ino
or digi
ri j
ĠL un
ig antaj
da tita
Ġdi as
Ġek uzi
Ġpre teksto
ma terialo
Ġka droj
Ġsub kompren
Ġeks pe
Ġvo ston
zon a
tin das
Ġlu ktis
ĠÄĪi elo
Ġlando parto
Ġru li
Ġbi blia
ĠBa zelo
ord uloj
nom ita
Ġmalmul ta
Ġsendepen dan
Ġobjek tive
Ġforges os
Ġplenum os
Ġdokumen tado
ire jo
Ġafi ÅĿ
ligita n
Ġlingv oni
Ġnas kas
Ġcifer ojn
Ġklin iÄĿis
antaÅŃ e
Ġenergi e
Ġilu zio
Ġsacerdo toj
Ġbaro ka
Ġreputa cio
Ġdepon ejo
ĠMargar ita
ĠlaÅŃpla Äīe
b are
p rano
Ġp um
Ġde cas
en das
le m
Ġre ku
ĠH os
Ġpar doni
Ġpost milita
ĠKom ento
Ġkomen tari
ba zita
et to
19 87
Ġkul mino
din astio
Ġplan edon
tigi lo
eble con
ĠUni kodo
Ġkres kado
Ġspi rado
Ġmur ditaj
Ġplibon igis
ĠAntaÅŃ parolo
ĠÄīes igis
Ġuson ano
Ġsendi fek
Ġdun gita
Ġfide le
ĠInf ana
simi la
ĠÄīeval on
Ġelektro ma
Ġmalakcep ti
rime doj
+ +
6 00
G B
j us
ì Ŀ
Ġ ÑĤ
ti kojn
Ġre alon
ter min
st raj
ĠB eo
ve joj
il lon
ĠJ A
ver daj
tro s
Ġsta toj
ï¿½ ,
ĠRe prezen
Ġkar toj
Ġkole ktado
th mÃ¡
ĠDi rek
ck n
ĠJu da
Ġeli min
Ġrea kci
Ġmalkov roj
Ġobser voj
Ġbel ulinoj
ãģ Ĺ
Ã¨ s
Ġprodukta Äµoj
dt vig
ĠLor enz
Ġprosper is
simp le
Ġpetro lo
HO F
Ġcenz uro
P lan
V es
k ujo
oj a
re jon
Ġal parolis
da di
Ġel lernis
Ġha b
Ġsur skribo
Ġnom br
ĠÅĿi pan
Ġpost en
Ġme tala
min da
Ġofte co
ĠMon umento
Ġfo ir
Ġab ismo
Ġelek tojn
ĠRo tary
gx aj
Ġ12 00
Ġevolu inta
Ġdiferen ca
Ġis landa
Ġprele gas
permes o
Ġparti zanoj
Ġampleks aj
Ġsun sub
Ar t
liz ado
Ġagri kulturaj
ĠmalÅĿ par
Ġtun elo
ĠSeb ranice
elsen do
Ġlecion on
Ġpalpe br
Ġal glu
Ġne le
ĠE ich
Ġkon forma
ĠS ejmo
Ġan s
ĠA i
Ġkun igo
em ulo
ĠLa h
Ġpre zojn
ten t
go ogle
Ġfor igon
ĠlaÅŃ dis
Ġtu ko
Ġme tante
Ġlan tern
Ġlabor ante
Ġvo kal
Ġmili tisto
Ġren o
Ġkri mon
Ġval ore
val oro
Ġmalami kon
Ġaux dis
Ð¾Ð ³
Ġmeza ÄĿa
Ġskan dina
ĠStra to
ĠaÅŃstra lia
Ġenka dre
Ġmalmun tado
âĵı ;
thmÃ¡ ri
h rad
× ľ
an ne
Ġa w
ur ajn
Ġpro vante
ĠG li
Ġc ara
ĠO si
Ġele menton
Ġplen do
Ġplu ralo
ser Äīilo
ĠÄĪi on
Ġru za
ĠRo tter
Ġden saj
Ã¶ l
Ġinstitu ciojn
Ġtab eloj
Ġklin is
Ġkvi et
ĠBir mo
Ġokazinta Äµoj
Ġsubven cioj
Ġalfron tas
Ġkonserva tiva
Ġmej loj
Ġresur soj
Ġblas fem
ĠIlus trita
A kcep
c ano
o ci
Ġen skribo
ĠL eb
Ġl una
ĠT os
Ġek regis
ĠG om
ĠH us
Ġor anÄĿ
Ġno cion
ĠAn n
ĠW oj
Ġmar tiro
ĠÄīiam a
Ġrezul ta
Ġefi k
Ġkru ro
Ġlingva Äµon
Ġgar du
ĠPres ejo
Ġsimbol on
ĠinÄĿeni eroj
RE Z
Ġmekan ismo
ĠEug eni
Ġantisemi tismo
ĠPM EG
ĠClin ton
i ang
p ha
or es
ro mpi
ĠK ala
Ġpor talo
ĠM esa
Ġek interes
Ġka bano
Ġor geno
ĠAn to
Ġfi ksa
Ġkor no
Ġmar Äīoj
Ġtrans formo
ĠEk zis
gn on
ĠAÅŃ skultu
Ġdif ina
pun ktoj
komen c
Ð¾ ÑĤ
Ġrekon o
Ġcir kum
dro mo
Ġreven on
Ġpil ko
ĠreÄĿi mon
Ġekskur sojn
Ġinteg rita
ĠSh ut
ĠÃ¦ i
elsen doj
ĠBron ÅĿtejn
regi onoj
Ġmalvas ta
gosz cz
Ġde venon
Ġde gener
ÄĿ intan
Ġt ener
Ġre vas
Ġre kre
ĠL lo
di lon
ĠA ux
ĠA diaÅŃ
pe con
lu dado
ĠC IA
Ġno bela
ĠO kto
Ġman e
Ġma kulo
mon de
Ġparo lantaj
Ġplur lingva
Ġfru kt
Ġmalfaci leco
Ġkontro lado
ene con
ĠHo telo
reta ri
ĠBer tilo
ez u
fun de
ĠGre goro
199 5
ĠRen Ã©
Ġobe as
ĠMala go
Ġinteligen taj
Ġmalpu ri
Ġgren o
Ġsubstre kis
Ġmalferm iÄĿas
Ġrespondec ulo
ĠBlu a
Est us
Ġsuperflu a
Ġneel ten
Ġroj o
) "
on to
or m
Ġpo entoj
po lis
ĠÅĿ raÅŃ
ĠV d
Ġsur tera
ble s
ku i
Ġnom itan
Ġra cion
ern er
Ġvo cx
Ġser ioj
Ġcer boj
Ġfo tado
Ġprezi dantoj
Ġpren itaj
Ġmaj oro
Ġkru ci
ĠBra h
Ġchi on
Ġkristan an
ĠLan doj
Ġenme tu
ĠPla tono
Ġpercep to
kara k
prin c
filo zo
Ġkemi isto
posed antoj
Ġhaj ko
fizi ko
ĠTermino logio
Ġs he
Ġen man
Ġen fer
ĠK ron
Ġpo ur
va ÅĿa
Ġali ÄĿu
Ġver dikto
tor ino
Ġdu aran
Ġdu deka
Ġkons ist
gra d
ĠIn fra
tre jn
Ġju dan
Ġlu kti
kur s
ona to
ĠMal mÃ¶
Ġgas ta
Ġeston a
Ġaser ton
Ġentrepren istoj
Ġofer i
Ġplez ure
ĠÄ¤ orduloj
Ġminim um
Ġkonven cio
Ġtraduk problemoj
sal tis
Ġparen ca
Ġmales pero
ĠFar ise
Ġcivitan eco
ĠtranÄī ilo
Is ra
Ġemeri tiÄĿo
ĠÄīium onate
ĠOks for
? ).
H omoj
i lio
v g
Ï ī
ta belo
or don
ĠE pisko
Ġmal pla
kon tribu
ĠV ul
ĠI ni
Ġte am
ten da
uz ita
ĠH ector
Ġka blo
Ġlo go
kor n
Ġparo lan
ĠKon cerne
Ġpe tos
Ġintern ajn
hi re
Ġdev igaj
cx is
Ġfinan cado
Ġklopo d
Ġeten dita
tele fono
Äīam br
Ġdel la
Ġkonvers acion
Ġdeparte mentoj
Ġsopi r
ĠFil umo
Ġenmig rado
Ġsinoni moj
Ġpanor amoj
ĠElizab eto
B ol
j s
Ġd Ã©
Ġde di
ĠK adre
Ġkon jun
Ġpli iÄĿis
ĠI t
ĠF ila
Ġdis igi
ga da
ĠH ermann
ĠVi di
ĠO deta
Ġtri tiko
Ġfin aÄµoj
vin to
ĠMar j
tern e
ĠÄĪi el
Ġspeci alistoj
ĠÅĿta testro
Ġplan ata
ĠSan cho
ĠÅľ les
ĠLe v
Ġmez lern
Ġima gon
Ġdepen deco
Ġgx uste
Ġrekomen di
ĠÄĿen is
Ġlis tigitaj
ĠÅĿo for
Ġsupra Äµo
Ġmorti gos
Ð» Ð°
Ġsubpre mo
Ġepo kon
Gra va
ĠAtlan tika
Ġsinago go
datre veno
kompu tilo
Gru po
C hu
i zon
Ġp is
tis h
Ġin si
ĠS han
ĠM Ã¡
co l
ĠF OR
ĠR P
Ġdu deko
Ġtro mpo
ĠÅĿi paro
Ġven o
vin ilkosmo
ĠPo laj
ho diaÅŃ
Ġve zi
Ġab om
Ġdisvol vis
ĠMo ÅĿto
Ġhon est
Ġalvo ki
ĠJun aj
Ġorien tan
Ġkarakteri z
Ġduo pe
loÄĿ antoj
ĠinterÅĿan ÄĿoj
ĠPla t
ĠÅĿtu poj
Ġinven tita
Ġblin daj
Ġemfa zo
Ġalu dis
Ġbier oj
Ġkunvi vado
ĠElek troni
C laude
m embro
p run
ĠL EA
Ġpo voj
Ġmal ÄĿen
Ġkun iÄĿo
il entis
me titaj
Ġtra ktita
ĠÄĪ in
pre ÄĿejo
Ġam erikaj
Ġfra pas
ĠAl terna
ĠPar donu
ĠGerman oj
Ġmond fama
Ġcivi tana
Ġinflu a
ĠNov jara
Ġiden ta
ĠIm re
ĠbedaÅŃ ris
Ġunuo pe
Ġates tanto
Ġmedic inaj
Ġmemsta raj
Ġparlamen tano
Ġkonferen con
ĠpseÅŃ do
âĶ Ģ
Ġtesta mento
ĠSufi Äīas
ĠGrun dtvig
ĠKni i
Ġe con
Ġa zia
ri d
le ci
ĠS O
Ġj h
um ante
Ġel re
lan tika
zi anoj
Ġpli igas
gi l
Ġar men
kti va
ĠAn arki
ale to
Ġ4 000
var i
Ġaper adis
bi aj
lis maj
Ġsuper eco
Ġkonstru on
Ġraj tigas
Ġprezen tante
gn er
ne z
Li fe
ĠEl sta
Ġson ÄĿ
Ġkru daj
ĠX a
Ġsupo zu
Ġorigin aj
Ġrevolu ciaj
Ġates tis
ĠES TAS
ĠHam as
Ġhezi tas
ĠmalÄĿoj a
Ġsku is
Ġtrezor oj
Ġorel pendaÄµoj
Vir tembergo
ĠLuter mano
H am
k igis
ka tegoria
lan go
zi an
ĠN y
ĠEs plor
ĠF ed
ĠJ anu
Ġsur scen
Ġres taÄµojn
ĠAr m
Ġpropon os
Ġblo koj
Ġflan kaj
tum as
Ġkara vano
Ġbal kono
ĠAli cio
ĠSch el
Ġgrave ga
ĠKor ano
Ġarki vita
Ġaktu alan
ĠParla menta
Ġtrapas as
Ġtelevi daj
Ġrezign as
ĠFern and
ĠTradu kis
Ġmiskompren o
Ġkadav ro
Ġkern on
ĠTol kien
ĠEugeni usz
) âĢ¦
G re
Ġen profun
am ento
Ġne ÅŃro
ĠB yd
ĠV ita
ma kula
Ġsen for
Ġven inta
Ġko to
Ġkomun istaj
pen se
tin aj
Ġplen di
ĠNi tro
kas z
Ġ18 78
Ġfon duso
ĠÄĪi uokaze
Ġad ver
Ġkol ora
Ġgerman ajn
Ġfunkci igi
Ġvir seks
Ġpublik igos
flu g
ĠKo zy
Ġgaze tojn
Ġkato likan
Ġinvi titaj
Ġdepen da
Ġtrakta ton
Ġstatis tika
ä¸ Ń
Ġabsolu tan
ĠGor ecka
ĠLeon ardo
ĠFami lio
Ġakura te
ĠLod zo
ÄĪef paÄĿo
ĠFrances co
ĠKozy ra
D en
D ua
Ġf ris
ĠE lis
ĠâĢ ļ
ĠB O
tr zak
ĠU m
Ġda ure
Ġnom ina
Ġme tri
ĠKom ple
Sam tempe
19 80
Ġlu ks
Ġskrib aÄµo
Ġ9 3
Ġfran koj
Ġkres kos
Ġ, ,
Ġprojek t
Ġdosier ujo
Ġreli e
ĠKor an
Ġkonvin kiÄĿis
ĠÄĪiu kaze
Ġ189 3
Ġakompan o
ĠFre i
Ġafi ksoj
Ġaktiva Äµoj
ĠAmi kumu
Ġkonek to
Ġparen caj
Ġneo ficialaj
ĠTar tu
ĠRon jo
Ġaku zi
Ġkunfon dinto
Pub lik
M os
a i
Ġk are
Ġm om
Ġm undo
li ck
ar boj
Ġal ine
di gon
ko ho
vi di
aci e
Ġali es
ĠJ eg
ĠU TE
ĠC ul
Ġor elon
ĠNe o
por tas
Ġsek vata
ĠÄīef oj
Ġkor ela
Ġmar kitaj
Ġ18 40
Ġtut kore
ĠMal faci
Ġpu reco
and ra
Ġcivi laj
Ġeli gis
Ġprote ktita
Ġesplor on
ĠpreÄĿ ado
Ġesperantis ton
ĠbaldaÅŃ a
Ġgajn o
Ġbar ata
Ġseks an
Ġpsi kia
Ġdun gis
Ġmalsan iÄĿis
Ġtrakta toj
Ġizo li
Ġplifor tiÄĿas
instru isto
Ġpejza ÄĿoj
Ġgasti ganto
Ġisra elaj
Ġimpos tojn
Ġaron dis
Ġtumul to
ĠEngel so
ĠIF EF
Ġredak toroj
ĠWitt genstein
ĠShut tle
M E
d ama
d jeviÄī
Ã µ
la jo
Ġla mp
Ġla bi
ka le
ĠS as
um omente
ĠP NG
po pula
Ġkom and
ĠD ru
Ġar da
Ġpa to
ĠlaÅŃ d
ke y
Ġsam loke
tre co
Ġins ulojn
Ġju ÄĿas
Ġvin tr
sen do
tion ale
ĠInter es
Ġmis ion
ĠÐ ĳ
bas tono
Ġblu an
Ġnokto mezo
Ġentuzias ma
Ġmaltrankvi lo
ĠEx press
Ġmalgaj e
mals ano
ĠðŁĺ ī
B v
D om
M at
P C
S I
Ñ ĸ
Ġs li
Ġn os
to k
te koj
Ġh inde
ko st
ĠA bel
ĠÄīi uspe
po kalo
pe are
Ġpre pozicioj
ĠG h
man i
Ġku ko
et t
ĠZ hang
Ġpoli glo
ser von
Ġdezi ra
Ġflu is
kap tis
ĠTur ing
ĠJun ula
rila taj
Ð½ Ð¾
Ġinsta lado
Ġben is
Ġfundamen tan
ĠÄ´ us
Ġalterna tivoj
Ġpuri gado
ĠTro viÄĿas
ĠÃª ar
Ġamuz aj
gvi danto
ĠTek nologio
Ġalproksim iÄĿas
Ġpreterpas is
ĠFaj ro
P rojekto
Ġi lumin
Ġse kto
po sta
Ġel ÅĿi
ĠB R
Ġpre fek
pon toj
van tajn
ch am
Ġmo vas
pan ta
Ġbe a
Ġvo d
Ġter uri
Ġ18 59
kan i
Ġfra tojn
Ġce la
Ġregis tras
Ġbezon atas
ĠKa bo
ĠÃ ļ
ĠRo th
Ġuti lis
val oraj
Ġeli rejo
Ġproksim uloj
Ġpru dent
Ġhor aro
Ġrest on
viadi loj
Ġben u
Ġmedic inon
Ġurbe go
Ġprilabor is
Ġrobo toj
gli foj
Ġul noj
Ġfranc lingva
Ġfrun ton
mals amoj
Ġpartik loj
ĠSaraj evo
E la
K anton
Ġa gus
or s
Ġm io
li cen
re vuo
ÄĿ ema
ci ÄĿi
Ġti pon
ĠaÅŃ stria
ĠG R
me za
Ġsek uraj
Ġeb ena
Ġsuper jaroj
ĠÅĿan cel
Ġsufi kson
ĠÅĿajn i
ĠRo land
Ġinkluzi vi
bre dado
Ġlong daÅŃ
Ġsti r
Ġekzamen is
Ġmova da
Ġfundamen toj
Ġbur ÄĿon
Ġtrov us
Ġmarbor doj
Ġprotes ti
ĠTre jn
pres kaÅŃ
Ġkoncentri ÄĿas
Ġkore aj
Ġdelika t
ĠNatur scienca
Ġpilo to
Ġsufo k
Ġpolus o
Ġglas on
bezon e
ĠHelsin ki
Ġyo ur
ĠRije ka
D U
H on
r Ã©
ta d
li tere
ti um
re te
am erikaj
ĠE fra
ĠS US
vi e
Ġek esto
ĠMi lita
Ġeks plik
por tal
Ġfi kcia
ĠW oo
En tajpu
it z
Ġprogra maron
Ġcen tri
ĠKa pi
Es ti
Ġhe laj
ĠÄĿen til
hu ang
Ġkoncen trejoj
Pri va
Ġspor t
Ġkonfir mo
ĠIns ularo
Ġsimbol ojn
ĠKonstitu cia
Pe tro
pp ing
ĠdisÄīi plo
ĠAp pen
Ġabsur da
Ġabo li
ĠGali leo
Ġgek naboj
ĠIR C
Ġrespegu las
ĠBulon jo
L ando
y ne
la d
Ġv ato
Ġal ten
am baÅŃ
ĠS ky
ĠP T
Ġni ko
Ġfor tran
Ġsen zor
Ġ- >
... ,
Ġbe las
pro to
Ä¥ ano
ĠMar ino
19 18
Ã¡ d
Ġaten dos
Ġsa vos
feren con
Ġves taÄµo
ĠKa f
ĠKa zino
Ġmalfaci lajn
Ġler t
Ġrimar kojn
ĠJoh ans
Ġrespe kte
rila ta
vel is
Ġform ularo
fil moj
Ġtraduki lo
Ġcirkonstan co
ĠJar kunsi
Ġkompeten taj
progra mon
Ġcivitan ojn
Ġenor ma
Ġplas to
ĠKim rio
Ġsena tano
Rus io
ample ks
ĠVirtu al
Ġinfini tivo
ĠHand zlik
ĠSamseks emulino
tror igar
h undo
m istoj
o i
Ġv undo
Ġin aj
Ġpo vintus
da la
Ġel tenis
Ġdi on
os paca
Ġunu aran
ĠR al
Ġmon tra
Ġfar iÄĿus
ĠLi ajn
umo o
Ġartiko l
spe cioj
ĠPor tu
Ġfo ti
Ġfer mas
Ġpu p
Ġkomer cajn
ĠVer tebruloj
Ġpriskrib ataj
Ġbaz ojn
ĠSen pa
Ġprepar itaj
Ġeksci as
Ġkompon aÄµo
Ġmenso gas
ĠLin eo
ĠPetro viÄī
Ġdra ma
ï¼ Ł
zion e
keo logio
Ja vaScript
Ġmalka ÅĿ
Ġrimarkin daj
Sin jor
Ø§Ù Ĩ
ĠPie trzak
Ġmaljus teco
ĠDoro teo
Ġalum inio
Ġmatri co
Ġobst ine
Lou is
C K
h ame
n eder
v esto
â ĨĴ
æ Ĺ
į Ĳ
Ġp ino
is h
in ismo
or to
ti paj
ÄĿ ene
ĠK Ã¼n
di ojn
ĠE van
Ġo sto
Ġek timis
ĠR im
ĠR SS
Ġdis igas
Ġdis tran
Ġka zojn
ĠO des
Ġkomun isto
ĠPo ten
Ġkompren igi
Mi koto
bi on
im peri
Ġeldon ata
ĠAÅŃ to
ĠJo urnal
Ġmond ska
ĠRes tas
ĠX I
Ġblan kuloj
Ġeston tan
ĠBu reso
kap t
ĠKor n
forma to
Ġparola taj
ens is
Ġhelp us
ĠreÄĿi moj
ĠInstitu te
Ġcon stru
Ġelspe zojn
Dan k
Ġfrukto dona
ĠLibro servo
Ġasoci ita
Ġstrategi oj
Ġsubstre ki
Ġastero ida
fing ro
ĠLub lin
Ġpentra Äµojn
Ġradioakti veco
ĠPtole meo
AMEN HOF
ĠHizbula ho
ĠJarkunsi daj
H i
k Ã¢
p f
t me
Ġs kaj
ar baro
te sta
le ÄĿo
es ia
di er
Ġmi kado
ĠP EJ
ĠD uo
ĠR ud
ĠMi Ä¥
no toj
Ġman kojn
Ġma tro
Ġokaz aÄµojn
Ġesti mo
kor to
Ġele mentaj
Ġmar mor
ĠÄľi bral
Ġlin e
Ġfon dus
eri on
Ġ7 50
ĠÄľ arden
ĠÃ Ģ
Ġmalfer maj
Ġler teco
Ġas ign
Ġgepa tran
Ġtrin kaÄµo
Ġkonfi den
ĠGu glo
ĠAra gono
Ġpronon cas
ĠÅĿo vin
Ġpek ojn
ente ze
Ġares titaj
gre gacio
Ġrenov igi
Ġkonfuz on
ĠBern hard
ÅĿte jno
Ġfori ru
kes peare
ĠGaze to
ĠStatis tiko
amide anoj
ĠSza thmÃ¡ri
g mo
Ġ é
ar g
do v
Ġne granda
Ġne toler
Ġh ur
ig adon
pe blaj
ĠF light
Ġmon stro
Ġpa do
Ġeks aj
Ġma lic
Ġven ÄĿo
Ġsam speca
Ġak om
Ġur ÄĿa
Ġso ft
Ġlabor u
ĠIn na
Ġfin ven
var on
Ġ17 98
Ġbi leto
ĠKo lekto
Ġestr aran
Ġeten do
Ġjus taj
Ġperfek teco
Ð¸ Ðº
Ð¸ Ñı
ĠEks kurso
Ġkorek tado
Mar ino
ĠSoci alisma
Ġpie don
Ġcivitan econ
ĠstreÄī itaj
ĠAus ser
Ġrezon ado
Ġceremoni oj
Ġsenkul pa
Ġunuop uloj
ĠMake donio
ĠAppen zell
k Ã¡
x y
Ġs tru
Ġin du
Ġin vita
per tu
ĠS pa
Ġper doj
ĠÅĿ ran
lan g
ten burg
Ġali lingvaj
bor g
Ġmala mon
pas tr
Ġpreci pa
Ġâ ī
bri ÄĿo
Ġbra va
ĠDa vis
je vna
kol oni
Ġagnos kon
ben do
Ġinicia ton
plan e
Ġbur ÄĿo
Ġprotes tanta
Ġdesegn aÄµoj
Ġdia ble
Ġjapan o
stu di
Ġmalka ÅĿis
Ġedzi ÄĿo
Ġlicen ceroj
Me ksi
Ġvidpun ktojn
dok umentoj
profi t
ĠWol fgang
even toj
Ġant Ã¢
Ġslan ga
D es
O m
S im
b iloj
b and
d oma
in dustri
vi ÄĿon
va por
ce k
Ġda tado
Ġsub ÅĿtatoj
ĠantaÅŃ prezento
Ġres tadis
Ġneni ajn
Ġju dismo
Ġkonstru igis
Ġpres ka
Ġsukces an
Ġkar din
Ġkar bono
Ġevolu igita
ĠPer s
ĠÅĿa te
Ġkvin cent
ty n
ĠGra bowski
Ġagnos kitaj
ĠKris t
ide o
Ġhazar daj
Ġspor taj
use um
Ġrespond montran
Ġfing rojn
ĠBil dojn
Ġperfi d
Ġnega tive
zel uloj
Ġsimpto moj
ĠJohans son
? ),
A pud
S ab
k alon
y lor
Ġ zonon
ĠS istemo
Ġg elo
de ton
ĠT wain
kon f
Ġfor tikaj
Ġka ten
Ġar gilo
den a
mon oj
Ġsta diono
por tun
par tia
Ġteks tas
Ġpen das
Ġci tis
ĠZ latko
ĠMar ch
ĠRe gularo
ad res
Ġvian d
Ġaparten o
Ġdisting iÄĿas
Ġklare co
Ġini ci
Ġleg eblaj
Ġpronon ci
Ġreferen d
ĠFer voj
Ġneder landaj
Ġkunven ojn
ĠÅĿip veturado
Ġpac procezo
Ġperspekti von
ebro wski
ĠbolÅĿe vi
ĠÐ½ Ð°
Ġelok ven
U n
on s
ur ce
es tado
Ġpo lo
Ġpro ver
ran g
Ġel ÅĿ
tu Ä¥in
Ġinter faco
ve d
il les
Ġmon te
ĠÄīe va
Ġpa tra
ĠlaÅŃ nome
Ġno bl
Ġven ton
Ġak ran
ĠÄĿis osta
tin i
ĠW GS
Ġro lulo
ĠAl don
Ġaten ta
ĠÄīirkaÅŃ aÄµoj
Ġtur no
Ġtur ment
Ġsubten ita
Ġson ori
Ġpoliti kojn
ĠNa gy
Ġinflu itaj
Ġplenum anto
Ġflor is
je an
Ġimpres ojn
Ġteori aj
ĠÄ¤ a
Ġlatin aj
Ġmorti gu
Ġmaltrankvi la
Ġvul gar
Ġbud h
Ġset lado
ĠaÅŃtomob iloj
ĠKat man
Ġbak terioj
ĠMON ATO
Ġá ¼
B ro
U G
a ce
u kasz
Ġd ign
li toj
ar tikolo
ci domo
am b
Ġre mp
ĠK OM
per aj
ĠS K
tu kon
pe ti
Ġdi vor
ĠC in
ca t
Ġsin tenoj
Ä¥ en
ho p
bi bli
Ġliber on
Ġinteres iÄĿo
klu de
ut sky
Ġ17 0
ĠLe ipzig
Ġmaj stroj
Ġbo atoj
Ġvolon tula
rigar dante
Ġtaks ado
Ġinterpre tas
Ġmalsan ojn
Ġfre ÅĿan
Ġvig lan
Ġhungar an
ĠMartin us
Ġkron princo
Ġsvis aj
Me ze
Ġrespub likoj
Ġgras o
Ġsateli tajn
Ġkristnas ka
Ġintri go
ĠSebas tian
ĠÄīirkaÅŃvol vis
ci doj
Ġre ktoro
Ġin deks
Ġvi ta
em as
zi ano
ia c
ĠG ras
ki te
Ġar dis
Ġdum viva
Ġven anta
ĠÂ §
Ġtem pa
Ġskrib sistemoj
ine ton
Ġves ta
Ġtut certe
gus ta
Ġmez u
Ġfen do
ĠX ML
Ġkontribu ojn
Ġkos mon
Ġobser vanto
Ġbar bo
Ġgrama tikan
ĠAkade mia
Ġunuo pajn
Ġmina cata
ĠeÅŃ ska
Ġfundamen tajn
Ġvig l
Ġallo gaj
ĠhaÅŃ ton
Ġrefor mojn
ĠJon es
ĠGener acio
Ġsving is
ĠRoy al
ĠRad ar
Ġorbi to
Ġfroma ÄĿo
Ġtopo grafiaj
ĠPromen ado
Ġelsa telitaj
s tia
Ġ uj
Ġp esto
ĠL vo
ĠA bi
ĠP RO
ĠC el
pi te
Ġpa far
Ġbon kvalita
Ġku glo
Ġvo le
kas o
ĠZ em
Ġmondo partoj
bi ce
Ġinstru a
Ġnu ligo
Ġkur teno
Ġab ono
ĠkaÅŃ zitaj
far is
ĠCh om
pozi ciojn
ĠRa di
Ã¼ h
Ġfla gojn
ĠX V
ban don
Ġkas ti
Ġrete j
ĠFin an
ĠSte ven
Ġpose daÄµon
Ġprotes tas
ĠvojaÄĿ ado
ĠFer enc
Ã¸ is
Ġretro vi
lic ks
gua ges
Ġmos keo
ĠSor Äī
Ġfilme ton
Ġinterkompren iÄĿo
Ġindiferen ta
ĠSV Ga
ĠNask iÄĿis
ĠInner rhoden
ĠByd goszcz
D ue
Ġen das
Ġal veturis
Ġ( '
ĠP es
Ġper mane
gan ton
Ġsek vin
Ġplen uma
Ġmili tojn
Ġpas vorton
ĠMar kolo
Ġcer bon
Ġsa go
Ġkri me
Ġgru pa
Ġating ojn
Ġflu on
Ġban doj
his torioj
ĠLo cke
Ġkandida tojn
ĠMin naja
Ġklasi kan
ĠÄµur as
ĠsaÄĿ ulo
Ġindiki te
ĠSinjor on
Ġilu zi
ĠantaÅŃju ÄĿoj
ĠÄīius emajne
, ÂĶ
D enove
G ill
S E
k jo
Ø ³
la k
Ġk ling
Ġa ÇĶ
li ano
ti laj
ar tiko
ÄĿ ino
Ġen ver
Ġti mante
ĠE co
ko va
Ġpre tis
ĠH E
Ġak r
Ġsek ven
Ġvar mon
Ġsan d
sen ce
paro li
rio pa
Ġmalpli iÄĿis
Li aj
Ġpere os
ĠJe katerin
Ġhor mono
ĠSur baze
Ġkli mata
Ġentrepren isto
Ġplenum u
Ġtru po
Ġfavor an
Ġrevolu cioj
Ġdatum ba
Ġani malo
ĠSte la
ĠSam tage
Ġduo po
Ġkorek te
ĠVo lapÃ¼
Ġhumi da
ĠAleksand rio
Ġdemon oj
Ġakci den
Ġul tra
ĠViki datumoj
ĠMeto djeviÄī
ĠKari bio
ĠSoli dareco
Ä¥u ano
ĠAusser rhoden
H P
ar eo
re zer
Ġv ej
tas ence
ĠÄī el
Ġne pri
Ġb aroj
Ġb enon
Ġin er
ĠL umo
ĠS porto
vi ano
ĠP lo
ĠN es
Ġri di
so ve
âĢĿ ?
tem oj
par ado
gas o
Ġter globo
ĠPo polo
Ġna zon
Ġlu kton
Ã© on
Ġkro atoj
Ġrigar dataj
ĠPro vu
ĠÃ ĵ
gus t
Ġpla ÅŃ
Ġvidi ÄĿis
Ġvesper oj
ĠmanÄĿ ejo
Ġedu kaj
Ġtranspor tado
Ġkonsci i
Ġkonstitu as
ĠinterÅĿan ÄĿis
Ġinspi ri
Ġbom boj
Ġpers iste
Ġorganiza don
Ġetimo logio
Ġvirus o
Ġvundi toj
ĠNatura mi
ĠOrigin ala
Lasta tempe
Litera tura
ĠMarj orie
K as
Ġp us
Ġde lik
in ar
Ġne fi
ĠK um
di ano
Ġkun ulo
ĠB ET
Ġfor umon
Ġdis peci
pa y
Ġfar ojn
ku le
Ġak toj
Ġam u
Ġof end
Ġplen doj
Ġro zoj
Ġorganiz aÄµon
cer no
Ġdif ton
ĠPri va
val ojn
pra kti
Ġreprezen tantojn
Pro ble
Ġmova daj
Ġris koj
Ar tikolo
Ġrecipro k
Ġromp as
Ġdia gramoj
Ġsubjek ton
Am baÅŃ
ĠAmeri ca
ĠJon ny
Ġaf li
Ġfuneb ra
Ã¡l mÃ¡n
Ġsolid arecon
Ġpresi taj
ĠObser vatorio
ĠMiÄ¥a il
Ġjurisdi kcio
Ġhek taroj
ĠPir na
ĠCele stia
ĠTetra podoj
= "
Ġk rado
ta lojn
Ġd r
ĠÄĿ endar
Ġmal pi
Ġmal sova
Ġper diÄĿas
ĠLa tino
ĠÅĿ ranko
Ġkom edio
Ġek kons
Ġdis kojn
ver y
ĠC C
ĠC ion
Ġmem oroj
... ),
Ġkre u
Ġmar telo
var ia
pl ur
ori en
Ġiu foje
Ġskrib ata
ĠMon tan
Ġeldon aÄµo
Ġab eloj
Ġprezi denta
Ġâ ĬĽ
ĠEl dono
kos to
ĠserÄī motoro
Ġare ojn
Ġgener al
Ġdeks tr
Ġpron omon
rigar do
ĠSub filumo
Ġtranspor tis
Ġemo cia
Ġkvali tojn
ĠnaskiÄĿ urbo
Ġredu ktita
Ġtermino logio
ĠEd mond
Ġvikti mojn
Ġservi loj
Ġhum uro
Ġeki pis
ĠMes on
ĠSuper klaso
Ġepizo doj
ĠPom erio
Ġsie ÄĿo
ĠfaÅĿ istoj
ĠMak zeluloj
ĠDuon insulo
ĠÅ» ebrowski
ĠSennaci eca
World F
ĠRotter dam
Kanton oj
I ru
M ala
a pud
x x
in ternacia
li anoj
re ligi
un t
Ġen estas
ĠA par
ĠT ÅĻ
Ġel s
for gani
Ġme dita
Ġven adis
Ġsta ÄĿantoj
Ġlabor grupo
ĠÅ ¡
Ġjun ulinoj
Ġekster o
labor istoj
Ġnu ligita
Ġsol data
ĠAr ta
kra to
Ġevolu intaj
ck en
mal san
ĠMo zar
Ġbu do
Ġviv uloj
ĠNa gas
Ġprovi zo
ĠNor kart
Ġstre b
Ġdisvas tigis
Ġdivi d
Ġantik van
kres k
ĠHel veta
Ġtekni kajn
ĠGe ospaca
Ġgar do
Ġgeo portal
Ġteritor ia
igx u
Ġinform paÄĿaro
ĠTer eo
Ġapli kis
Ġdezer ta
Ġrezer vita
Ġalfab etoj
Ġastron om
ĠpaÅŃ son
ĠpaÅŃ soj
stri on
ĠKur so
Ġdefi oj
ĠGeo dy
Univers ala
ĠTopo graphy
ĠRimar kin
Ġtable lo
Ġsente blis
Ġdiscip lin
Neder lando
ĠSR TM
Ġaltec datumoj
ĠInfra filumo
Ġgelo ÄĿantoj
WorldF licks
g eb
Â §
Ġe ron
ar keologio
Ġv am
ra porto
Ġi ÄĿu
Ġb ene
Ġvi don
ĠE con
ko op
Ġj ida
ĠA ga
ĠR um
Ġali ÄĿon
ĠG rin
Ġsen danÄĿ
ĠH ra
ven ojn
bu do
pro pono
ĠÄīef redaktoro
zon ojn
Ġtri vita
Ġfin aÄµon
Ġ18 67
Ġnor man
Ã© ny
Ġdeci diÄĿis
pas tro
ĠLe ch
Ġkapab lus
ĠDu aspekta
Ġmas i
Ġkultur ojn
ĠGo tt
Ġmodern ajn
Ġgener i
Ġdepen danta
Ġgar disto
plan on
Ġpara zi
Ġelsen dojn
Ġinstruis tojn
we ÅĤ
Pa tro
Ġbonven igis
Ġares to
Ġprilabor o
Ġama taj
ĠÄīeval ojn
Ġellabor i
Jo hn
Ġrezis ton
Ġpotenc uloj
ĠengaÄĿ iÄĿo
tekni ka
ĠZo lo
ĠTopo logiaj
Ela viadila
E stu
d z
f ana
g eme
k rus
s fero
Ġp uni
li j
ÄĿ anoj
Ġb ras
Ġin dus
ĠB lin
Ġek pensis
Ġc as
ga Äµoj
Ġfar adis
ĠVi d
Ġaldon os
... âĢĿ
Ġbe tono
Ġfra kcio
Ġrespon da
ĠPor t
Ġinstru kcioj
ĠSa telitaj
Ġmemor e
ĠMo ham
Ġmult lingveco
Ġsal uti
Ġentrepren i
Ġmalami kaj
ON O
ĠQ ue
AR T
Ġmatema tikaj
radi oj
organi zaÄµoj
ĠRos s
Ġskan d
ĠÄīapi tron
Ġbes ton
fir m
Ġmalle vi
czy k
Ġfantas taj
Malfer ma
åĽ ½
ĠMontre alo
! ..
M is
e volu
n Ã¡
o ke
p lin
p ujo
ta das
an aro
li zo
ti ganta
Ġvi ci
Ġvi da
ko ler
Ġli pojn
ĠS um
ĠS tern
ĠS ad
Ġan y
ĠA bu
Ġmal preci
em ber
ing s
du on
Ġfor um
Ġsen er
Ġsub tra
Ġpl oras
ĠAn on
ha lo
ze o
Ġtran Äīi
ĠW er
Ġspeci on
Ġspeci menoj
Ġpres ado
Ġinstru ata
Ġdezi rante
Ġmalpli gran
ĠAÅŃ skul
ĠJo koh
Ġinklu di
Ġlasta tempa
ĠKro ata
Ġ; -)
Ġmond kon
ĠRa gnar
ĠPe dago
kar tojn
ĠAli anco
ĠÅĿanÄĿ iÄĿoj
Ġapo stro
Åľ in
inter pre
gri mp
Ġkonek ti
ĠsufiÄī os
Ġeksterordin aran
maÅĿ inoj
[...]
