{"<s>":0,"<pad>":1,"</s>":2,"<unk>":3,"<mask>":4,"!":5,"\"":6,"#":7,"$":8,"%":9,"&":10,"'":11,"(":12,")":13,"*":14,"+":15,",":16,"-":17,".":18,"/":19,"0":20,"1":21,"2":22,"3":23,"4":24,"5":25,"6":26,"7":27,"8":28,"9":29,":":30,";":31,"<":32,"=":33,">":34,"?":35,"@":36,"A":37,"B":38,"C":39,"D":40,"E":41,"F":42,"G":43,"H":44,"I":45,"J":46,"K":47,"L":48,"M":49,"N":50,"O":51,"P":52,"Q":53,"R":54,"S":55,"T":56,"U":57,"V":58,"W":59,"X":60,"Y":61,"Z":62,"[":63,"\\":64,"]":65,"^":66,"_":67,"`":68,"a":69,"b":70,"c":71,"d":72,"e":73,"f":74,"g":75,"h":76,"i":77,"j":78,"k":79,"l":80,"m":81,"n":82,"o":83,"p":84,"q":85,"r":86,"s":87,"t":88,"u":89,"v":90,"w":91,"x":92,"y":93,"z":94,"{":95,"|":96,"}":97,"~":98,"¡":99,"¢":100,"£":101,"¤":102,"¥":103,"¦":104,"§":105,"¨":106,"©":107,"ª":108,"«":109,"¬":110,"®":111,"¯":112,"°":113,"±":114,"²":115,"³":116,"´":117,"µ":118,"¶":119,"·":120,"¸":121,"¹":122,"º":123,"»":124,"¼":125,"½":126,"¾":127,"¿":128,"À":129,"Á":130,"Â":131,"Ã":132,"Ä":133,"Å":134,"Æ":135,"Ç":136,"È":137,"É":138,"Ê":139,"Ë":140,"Ì":141,"Í":142,"Î":143,"Ï":144,"Ð":145,"Ñ":146,"Ò":147,"Ó":148,"Ô":149,"Õ":150,"Ö":151,"×":152,"Ø":153,"Ù":154,"Ú":155,"Û":156,"Ü":157,"Ý":158,"Þ":159,"ß":160,"à":161,"á":162,"â":163,"ã":164,"ä":165,"å":166,"æ":167,"ç":168,"è":169,"é":170,"ê":171,"ë":172,"ì":173,"í":174,"î":175,"ï":176,"ð":177,"ñ":178,"ò":179,"ó":180,"ô":181,"õ":182,"ö":183,"÷":184,"ø":185,"ù":186,"ú":187,"û":188,"ü":189,"ý":190,"þ":191,"ÿ":192,"Ā":193,"ā":194,"Ă":195,"ă":196,"Ą":197,"ą":198,"Ć":199,"ć":200,"Ĉ":201,"ĉ":202,"Ċ":203,"ċ":204,"Č":205,"č":206,"Ď":207,"ď":208,"Đ":209,"đ":210,"Ē":211,"ē":212,"Ĕ":213,"ĕ":214,"Ė":215,"ė":216,"Ę":217,"ę":218,"Ě":219,"ě":220,"Ĝ":221,"ĝ":222,"Ğ":223,"ğ":224,"Ġ":225,"ġ":226,"Ģ":227,"ģ":228,"Ĥ":229,"ĥ":230,"Ħ":231,"ħ":232,"Ĩ":233,"ĩ":234,"Ī":235,"ī":236,"Ĭ":237,"ĭ":238,"Į":239,"į":240,"İ":241,"ı":242,"Ĳ":243,"ĳ":244,"Ĵ":245,"ĵ":246,"Ķ":247,"ķ":248,"ĸ":249,"Ĺ":250,"ĺ":251,"Ļ":252,"ļ":253,"Ľ":254,"ľ":255,"Ŀ":256,"ŀ":257,"Ł":258,"ł":259,"Ń":260,"la":261,"Ġk":262,"on":263,"Ġla":264,"Ġe":265,"ta":266,"Ġp":267,"Ġd":268,"oj":269,"an":270,"is":271,"aj":272,"er":273,"Ġde":274,"Ġs":275,"en":276,"in":277,"Ġa":278,"or":279,"Ġm":280,"li":281,"ti":282,"as":283,"ar":284,"Ġn":285,"re":286,"to":287,"Ġkaj":288,"ÄĿ":289,"ro":290,"ri":291,"Ġes":292,"te":293,"un":294,"Äī":295,"Ġen":296,"Ġv":297,"ÅŃ":298,"Ġf":299,"ra":300,"om":301,"le":302,"ci":303,"Ġki":304,"tas":305,"lo":306,"Ġal":307,"am":308,"Ġt":309,"al":310,"Ġti":311,"ĠÄī":312,"toj":313,"do":314,"ur":315,"Ġestas":316,"el":317,"ka":318,"es":319,"io":320,"Ġne":321,"Ġi":322,"Ġre":323,"Ġb":324,"tis":325,"Ġin":326,"Ġh":327,"Ġvi":328,"ĠK":329,"ĠL":330,"di":331,"ĠE":332,"ojn":333,"Ġkon":334,"Ġpo":335,"âĢ":336,"ÅĿ":337,"Ġmi":338,"per":339,"Ġpor":340,"taj":341,"ko":342,"Ġli":343,"ĠS":344,"ter":345,"ul":346,"Ġj":347,"Ġg":348,"ig":349,"Ġ(":350,"um":351,"ĠM":352,"uj":353,"Ġan":354,"Ġo":355,"Ġpro":356,"ĠA":357,"da":358,"Ġ1":359,"vi":360,"ĠÄĿ":361,"ran":362,"Ġse":363,"Ġmal":364,"ĠP":365,"us":366,"ks":367,"ĠÄīi":368,"Ġl":369,"ajn":370,"de":371,"Ġke":372,"Ġpri":373,"vo":374,"Ġkun":375,"Ġper":376,"vas":377,"Ġsi":378,"po":379,"ĠT":380,"Ġel":381,"st":382,"Äµ":383,"kon":384,"va":385,"ita":386,"em":387,"ĠLa":388,"tu":389,"ĠÅĿ":390,"co":391,"ing":392,"ton":393,"Ġestis":394,"lan":395,"ru":396,"mo":397,"peran":398,"ĠâĢ":399,"Ġsu":400,"don":401,"zi":402,"ĠN":403,"Ġkom":404,"pe":405,"ĠaÅŃ":406,"tan":407,"ĠB":408,"Ġdi":409,"Ġkiu":410,"Ġ2":411,"os":412,"las":413,"Ġpli":414,"du":415,"ĠD":416,"lu":417,"ĠV":418,"ia":419,"aro":420,"ĠI":421,"Ġte":422,"iÄĿ":423,"Ġun":424,"ce":425,"aÅŃ":426,"Ġkiel":427,"Ġinter":428,"gi":429,"Ġek":430,"Ġpre":431,"kaÅŃ":432,"Ġri":433,"ĠÄ":434,"ĠEs":435,"ve":436,"ren":437,"aci":438,"oni":439,"Ġili":440,"ten":441,"Ġunu":442,"ĠF":443,"ma":444,"La":445,"Ġni":446,"ĠR":447,"ris":448,"eb":449,"Ġtiu":450,"go":451,"tra":452,"il":453,"Ġali":454,"Ġfor":455,"ĠG":456,"uz":457,"ek":458,"Ġsed":459,"Ġsen":460,"dis":461,"Ġdis":462,"ĠEsperan":463,"ki":464,"ino":465,"Ġmon":466,"ĠÄīe":467,"Ġha":468,"man":469,"Ġ\"":470,"ĠJ":471,"pon":472,"ol":473,"mi":474,"fi":475,"Ġc":476,"ga":477,"ver":478,"ĠH":479,"00":480,"tr":481,"pa":482,"vis":483,"ĠÄĿi":484,"taÅŃ":485,"me":486,"Ġsur":487,"Ġoni":488,"Ġver":489,"..":490,"tri":491,"Ġfar":492,"ĠU":493,"Ġkiuj":494,"jo":495,"fer":496,"bo":497,"Ġ19":498,"ni":499,"Ġka":500,"tojn":501,"tro":502,"ed":503,"ala":504,"diÄī":505,"ĠC":506,"ven":507,"men":508,"tor":509,"Ġling":510,"ÄĿo":511,"Ġpar":512,"Ġap":513,"Ġar":514,"pi":515,"aÄµ":516,"ble":517,"doj":518,"Ġ-":519,"Ġta":520,"Ġdu":521,"lej":522,"Ġpa":523,"Ġor":524,"ĠankaÅŃ":525,"ĠlaÅŃ":526,"Ġtra":527,"Ġuz":528,"Ġpovas":529,"ono":530,"van":531,"loj":532,"Ġtio":533,"so":534,"pren":535,"zo":536,"Ġda":537,"ku":538,"gan":539,"ĠEsperanto":540,"cio":541,"Ġno":542,"ĠMi":543,"Ġplej":544,"Ġnom":545,"bor":546,"Ġtu":547,"ĠVi":548,"Ġnur":549,"ĠÄĪ":550,"ata":551,"Ġhom":552,"dan":553,"for":554,"Ġkons":555,"Ġmul":556,"ado":557,"Ġjar":558,"Ġlo":559,"ĠO":560,"kaj":561,"Ġ3":562,"Ġsub":563,"kti":564,"Ġbon":565,"no":566,"Ġtro":567,"Ġmem":568,"Ġekz":569,"gis":570,").":571,"bro":572,"ÄĿis":573,"ĠÅĿi":574,"lon":575,"Ġdum":576,"ke":577,"den":578,"koj":579,"ĠLi":580,"ero":581,"kto":582,"Ġgran":583,"Ġra":584,"Ġle":585,"laj":586,"ĠEn":587,"ara":588,"Ġpost":589,"ĠantaÅŃ":590,"Ġres":591,"ub":592,"roj":593,"ern":594,"das":595,"âĢĿ":596,"Ġeks":597,"Ġme":598,"gra":599,"uloj":600,"kaz":601,"ge":602,"Ġman":603,"bu":604,"res":605,"kri":606,"Ġmin":607,"mp":608,"kis":609,"vers":610,"Ġma":611,"mon":612,"Ġpl":613,"Ġven":614,"ras":615,"ilo":616,"),":617,"ch":618,"ĠTi":619,"Ġsam":620,"ca":621,"mes":622,"ron":623,"01":624,"eni":625,"eblas":626,"kondiÄī":627,"Ġtre":628,"Ġak":629,"Ġlan":630,"ber":631,"Ġhavas":632,"ab":633,"con":634,"Ġnun":635,"ĠÄīiuj":636,"igi":637,"voj":638,"Ġ:":639,"sta":640,"Ġest":641,"lio":642,"ento":643,"ej":644,"Ġmo":645,"si":646,"Ġokaz":647,"stru":648,"pan":649,"aÄµo":650,"Ġur":651,"Ġjam":652,"Ġsci":653,"oro":654,"Ġkiam":655,"Ġesperan":656,"Ġso":657,"lik":658,"rin":659,"daj":660,"Ġol":661,"ÄĿas":662,"Ġsin":663,"ĠNe":664,"Ġeble":665,"Ġgra":666,"ces":667,"ĠKom":668,"ĠÄīar":669,"ĠâĢĶ":670,"Ġsta":671,"ĠÂ":672,"ľi":673,"Ġtiuj":674,"iÄĿis":675,"Ġdo":676,"lin":677,"Ġko":678,"tiko":679,"tajn":680,"ĠâĢľ":681,"Ġku":682,"Ġsia":683,"ĠAn":684,"Ġlabor":685,"Ġkontra":686,"raj":687,"Ġaldon":688,"ĠÄĿis":689,"Ġtem":690,"por":691,"tita":692,"Ġje":693,"kta":694,"ĠÄĿin":695,"tem":696,"Ġlingvo":697,"...":698,"Ġbe":699,"par":700,"Ġteks":701,"Ġkre":702,"Ġvor":703,"isto":704,"Ġesti":705,"Ġkomen":706,"gas":707,"tribu":708,"za":709,"ĠIn":710,"ulo":711,"Ġvo":712,"Ġser":713,"Ġ201":714,"ĠKaj":715,"tur":716,"vaj":717,"Ġaliaj":718,"Ġmor":719,"pu":720,"ha":721,"Ġpen":722,"ze":723,"Ġsek":724,"Ġfa":725,"pro":726,"ksi":727,"Ġpermes":728,"Ġkel":729,"ante":730,"amen":731,"ï¿":732,"krib":733,"ï¿½":734,"ina":735,"ĠkontraÅŃ":736,"ĠÄīef":737,"zon":738,"pre":739,"Ġneni":740,"ĠKi":741,"tos":742,"kci":743,"Ġfi":744,"ano":745,"gar":746,"moj":747,"Ġtran":748,"Ġkomun":749,"Ġparto":750,"kor":751,"Ġtri":752,"son":753,"Ġparo":754,"Ġ[":755,"Ġspe":756,"Ġjaroj":757,"ba":758,"umo":759,"anoj":760,"Ġfin":761,"Ġtie":762,"ite":763,"ĠeÄī":764,"ale":765,"Ġtiel":766,"erman":767,"antoj":768,"Ġam":769,"anta":770,"Ġter":771,"na":772,"Ġpos":773,"tre":774,"ejo":775,"Äµo":776,"pen":777,"Ġele":778,"uzi":779,"Ġ200":780,"et":781,"Ġ4":782,"vin":783,"ĠSed":784,"Ġkor":785,"goj":786,"tin":787,"ple":788,"Ġof":789,"Ġdeta":790,"von":791,"ĠâĢĵ":792,"acia":793,"ĠW":794,"Ġdispon":795,"Ġmia":796,"ĠSe":797,"ĠkondiÄī":798,"Ġsian":799,"bon":800,"cen":801,"Ġteksto":802,"ĠÄīiu":803,"Ġplen":804,"Ġro":805,"Ä¥":806,"zen":807,"istoj":808,"kul":809,"coj":810,"lando":811,"Ġba":812,"Ġdevas":813,"ĠKomun":814,"ĠÅ":815,"rea":816,"ÄĿi":817,"ling":818,"ĠKon":819,"Ġhomoj":820,"Ġci":821,"Ġmili":822,"Ġeb":823,"Ġ5":824,"Ġinf":825,"ali":826,"Ġekzis":827,"Ġmar":828,"var":829,"En":830,"dio":831,"dap":832,"Ġplu":833,"ĠPo":834,"ĠNi":835,"ĠkondiÄīoj":836,"ir":837,"kas":838,"Ġunua":839,"ÅŃro":840,"Äµoj":841,"ĠÄľi":842,"pl":843,"Ġkiun":844,"ĠZ":845,"Ġhis":846,"min":847,"turo":848,"ÄĿoj":849,"gani":850,"cep":851,"Äīe":852,"Ġkie":853,"Ġ18":854,"ener":855,"Ġpermesilo":856,"kom":857,"ĠinK":858,"gu":859,"Ġdetaloj":860,"Ġaper":861,"Ġtradu":862,"ĠVidu":863,"it":864,"Ġdon":865,"Ġsig":866,"ho":867,"volu":868,"Ġiom":869,"Ġ|":870,"Ġurbo":871,"Ġaplik":872,"igis":873,"ismo":874,"Ġpas":875,"Ġmultaj":876,"Ġdivers":877,"kan":878,"Sam":879,"ĠÂ«":880,"Ġtiun":881,"oje":882,"Ġlia":883,"Ġkio":884,"Ġpe":885,"der":886,"Ġlin":887,"pri":888,"Ġartiko":889,"ĠKrea":890,"ĠKomunaÄµo":891,"tribuite":892,"ting":893,"Ġnia":894,"taro":895,"kondiÄīe":896,"ud":897,"ĠMar":898,"omo":899,"Ġinfor":900,"Ġtrans":901,"Ġgranda":902,"Ġapar":903,"daptita":904,"Ġhel":905,"eo":906,"ier":907,"Ġjun":908,"Ġfon":909,"Ġfra":910,"Ġaldonaj":911,"ĠAtribuite":912,"SamkondiÄīe":913,"kondiÄīojn":914,"Ġdisponeblas":915,"Ġcer":916,"tio":917,"ĠNea":918,"kte":919,"ĠuzkondiÄīojn":920,"gio":921,"ĠNeadaptita":922,"Ġaplikeblas":923,"Ġna":924,"Ġmals":925,"Ġtrovi":926,"gon":927,"Ġkan":928,"Ġkompren":929,"cia":930,"pli":931,"Ġkla":932,"Ġjaro":933,"tern":934,"Ġafer":935,"se":936,"Ġja":937,"Ġce":938,"åĮ":939,"ç¤":940,"Ġankor":941,"cis":942,"ç¤¼":943,"åĮħ":944,"Ġmondo":945,"ç¤¼åĮħ":946,"Ġtion":947,"âĢ¦":948,"ç¤¼åĮħç¤¼åĮħ":949,"ĠRe":950,"Ġtute":951,"nu":952,"ami":953,"Ġlern":954,"Ġpov":955,"Mi":956,"ĠÄīu":957,"ÄĪ":958,"ini":959,"Ġdiris":960,"Ġlon":961,"be":962,"19":963,"Ġpoli":964,"Ġins":965,"fa":966,"igo":967,"Ġposte":968,"poj":969,"ad":970,"ori":971,"Ġfun":972,"Ġmala":973,"Ġtiam":974,"Â»":975,"Ġju":976,"Ġintern":977,"Ġilin":978,"Ġkul":979,"ÄĿa":980,"Ġvin":981,"Ġrice":982,"Ġvoj":983,"Ġlu":984,"Ã¡":985,"fo":986,"kla":987,"Ġorgani":988,"Ġpub":989,"Ġtamen":990,"hi":991,"tika":992,"Ġren":993,"ĠâĢ¢":994,"ĠAl":995,"Ġiu":996,"ÄĿon":997,"âĢĶ":998,"Ġbone":999,"Ġestos":1000,"ser":1001,"iÄĿas":1002,"ux":1003,"bi":1004,"Ġang":1005,"Ġaten":1006,"tempe":1007,"eri":1008,"Ġrespon":1009,"ĠankoraÅŃ":1010,"Ġliber":1011,"Ġkelkaj":1012,"tp":1013,"Ġfil":1014,"Ġvia":1015,"kces":1016,"Ġrila":1017,"lis":1018,"eco":1019,"Ġtempo":1020,"Ġskrib":1021,"Ġsuper":1022,"Ġalia":1023,"Ġnova":1024,"eto":1025,"ĠÄīir":1026,"rus":1027,"ĠÄĪi":1028,"wa":1029,"ĠÅĿan":1030,"Ġmulte":1031,"Ġdeman":1032,"Ġdan":1033,"ĠMa":1034,"Ġ6":1035,"tistoj":1036,"toro":1037,"eno":1038,"uo":1039,"Ġpartopren":1040,"vos":1041,"dojn":1042,"gran":1043,"Ġsa":1044,"Ġhistor":1045,"Ġprof":1046,"he":1047,"ĠÄīirkaÅŃ":1048,"Ġekzem":1049,"din":1050,"Ġad":1051,"Ġkonstru":1052,"Ġekster":1053,"elo":1054,"Ġnor":1055,"ĠÄīiam":1056,"kam":1057,"Ġofte":1058,"Ġekzistas":1059,"Ġinteres":1060,"ĠloÄĿ":1061,"Ġide":1062,"Ġkri":1063,"anto":1064,"Ġsigni":1065,"Ġtuta":1066,"Ġspeci":1067,"Ã©":1068,"uti":1069,"gita":1070,"ask":1071,"Ġmen":1072,"itaj":1073,"bla":1074,"igas":1075,"Ġprogra":1076,"Ġlando":1077,"Ġhavis":1078,"Ġvar":1079,"Ġraj":1080,"ĠÅĿta":1081,"im":1082,"Ġrez":1083,"Ġpra":1084,"Ġplan":1085,"ĠdaÅŃ":1086,"Ġpens":1087,"Ġsan":1088,"Ġpres":1089,"ujo":1090,"Ġperson":1091,"mis":1092,"zio":1093,"Ġprop":1094,"tran":1095,"\".":1096,"reso":1097,"broj":1098,"spe":1099,"ĠPor":1100,"Ġindi":1101,"ĠFran":1102,"mas":1103,"Ġprezen":1104,"Ġsukces":1105,"labor":1106,"vado":1107,"Ġregis":1108,"Ġajn":1109,"Ġinstru":1110,"tigi":1111,"ine":1112,"Äīo":1113,"klu":1114,"Ġcen":1115,"fek":1116,"EA":1117,"acio":1118,"ĠPa":1119,"xi":1120,"ĠÄµ":1121,"Ġdeci":1122,"igita":1123,"Ġ7":1124,"gen":1125,"Ġgru":1126,"Ġvolas":1127,"foje":1128,"Ġkro":1129,"ĠIli":1130,"Ġvol":1131,"mar":1132,"Ġproksi":1133,"teco":1134,"Ġrigar":1135,"Ġpi":1136,"\",":1137,"vor":1138,"âĢľ":1139,"ĠEk":1140,"Ġofi":1141,"alo":1142,"ion":1143,"troj":1144,"ant":1145,"at":1146,"eli":1147,"gres":1148,"Ġkva":1149,"gn":1150,"maj":1151,"aÄµoj":1152,"inta":1153,"Ġ8":1154,"Ġmalf":1155,"Ġsiaj":1156,"Ġkol":1157,"Ġdev":1158,"Ġating":1159,"Ġvivo":1160,"Ġkap":1161,"kur":1162,"Ġnu":1163,"Ġpopo":1164,"Ġokazis":1165,"boj":1166,"kojn":1167,"Ġfari":1168,"Ġsol":1169,"Ġstu":1170,"Ġprodu":1171,"ĠEÅŃro":1172,"Ġbezon":1173,"sono":1174,"iste":1175,"feren":1176,"wave":1177,"tado":1178,"Ġsitu":1179,"Ġnov":1180,"ĠPro":1181,"Ġsufi":1182,"mul":1183,"Ġgerman":1184,"Ġami":1185,"sen":1186,"Ġregi":1187,"umen":1188,"Ġob":1189,"onoj":1190,"Ġkonsi":1191,"ĠAr":1192,"Ġ9":1193,"Ġplur":1194,"Ġdiversaj":1195,"mojn":1196,"zoj":1197,"Ġfran":1198,"ĠMon":1199,"vankam":1200,"Ġrenkon":1201,"Ġfo":1202,"Ġlingvoj":1203,"Ġkam":1204,"Ġop":1205,"alaj":1206,"tura":1207,"uro":1208,"Ġho":1209,"Ġsimp":1210,"ktoj":1211,"ĠÄľ":1212,"Ġneces":1213,"kra":1214,"ama":1215,"iÄĿo":1216,"ĠÄĪu":1217,"cioj":1218,"Ġtur":1219,"paro":1220,"ana":1221,"Ġï¿½":1222,"kajn":1223,"ĠNo":1224,"gado":1225,"ec":1226,"kipe":1227,"ĠTio":1228,"danto":1229,"Ġkur":1230,"greso":1231,"ena":1232,"Ġlandoj":1233,"ĠDio":1234,"Ġves":1235,"zor":1236,"ut":1237,"kciden":1238,"Ġdezi":1239,"Ġsignif":1240,"ĠâĢŀ":1241,"Ġkuti":1242,"lojn":1243,"Ġrapi":1244,"ataj":1245,"tera":1246,"tru":1247,"pas":1248,"eble":1249,"Ġ15":1250,"Ġkion":1251,"lor":1252,"ona":1253,"tejo":1254,"ĠSan":1255,"Ġenha":1256,"ĠPar":1257,"ĠKa":1258,"ere":1259,"ne":1260,"Ġge":1261,"sa":1262,".[":1263,"Ġkiujn":1264,"are":1265,"Ġnek":1266,"iero":1267,"Es":1268,"Ġmuzi":1269,"Ġpreci":1270,"cento":1271,"daÅŃ":1272,"gaj":1273,"tion":1274,"Ġ199":1275,"itato":1276,"ler":1277,"ĠÅľ":1278,"ĠTiu":1279,"kado":1280,"ligi":1281,"br":1282,"Ġkies":1283,"rio":1284,"Ġeldon":1285,"Ġsoci":1286,"caj":1287,"Ġkar":1288,"Ġartikolo":1289,"ĠMe":1290,"Ġkvar":1291,"ĠUEA":1292,"ebla":1293,"Ġvian":1294,"Ġfaris":1295,"Ġflu":1296,"Ġsimi":1297,"ĠÅĿajn":1298,"inio":1299,"ĠDo":1300,"itan":1301,"Ġhomo":1302,"Ġorganiz":1303,"Ġru":1304,"Ġmalpli":1305,"esto":1306,"Ġ10":1307,"kt":1308,"Ġve":1309,"vol":1310,"rojek":1311,"Ġnomo":1312,"ĠÃ":1313,"ĠĠ":1314,"ĠUnu":1315,"Ġestus":1316,"Ġlas":1317,"Ġ17":1318,"Ġpropon":1319,"dita":1320,"Ġproble":1321,"Ġfami":1322,"Ġakcep":1323,"Ġfaci":1324,"ĠGerman":1325,"ĠDe":1326,"eloj":1327,"ĠSo":1328,"embro":1329,"Ġbona":1330,"ĠJa":1331,"Ġscias":1332,"Ġtia":1333,"Ġuni":1334,"titu":1335,"000":1336,"Äīi":1337,"ĠOni":1338,"tino":1339,"iloj":1340,"Ġtuj":1341,"Ġtut":1342,"KO":1343,"Ġangla":1344,"Ġfunkci":1345,"ĠÄĿener":1346,"Ġed":1347,"Ġpovus":1348,"aloj":1349,"veno":1350,"ĠAÅŃ":1351,"Ġgvi":1352,"ĠLe":1353,"Ki":1354,"ĠJo":1355,"Ġsiajn":1356,"ĠMal":1357,"Ġab":1358,"Ġmalgran":1359,"ĠUni":1360,"ĠpreskaÅŃ":1361,"Ġrakon":1362,"minis":1363,"Ġelek":1364,"amo":1365,"Ġespri":1366,"kso":1367,"ĠTamen":1368,"Ġprezi":1369,"diaÅŃ":1370,"Ġkonsider":1371,"ang":1372,"tras":1373,"len":1374,"Ġvizi":1375,"Ġjarcento":1376,"Ġbil":1377,"ula":1378,"Ġorig":1379,"ĠÄĿus":1380,"Ġto":1381,"ĠÄĿia":1382,"ĠPost":1383,"âĢĻ":1384,"kov":1385,"Ġscien":1386,"Ġekde":1387,"Ġties":1388,"Ġpovis":1389,"Ġuzi":1390,"eder":1391,"Ġjen":1392,"ww":1393,"Ġekzemple":1394,"ĠDum":1395,"tisto":1396,"ĠRo":1397,"Ti":1398,"jek":1399,"Ġktp":1400,"mento":1401,"Ġbi":1402,"gx":1403,"Ġblo":1404,"Ġ16":1405,"Ġkole":1406,"Ġ12":1407,"tes":1408,"Ġprin":1409,"Ġdek":1410,"pis":1411,"Ġneniam":1412,"liko":1413,"Ġval":1414,"Ġbata":1415,"Ġfilo":1416,"Ġvir":1417,"teri":1418,"Ġfru":1419,"Ġsiste":1420,"ç¤¼åĮħç¤¼åĮħç¤¼åĮħç¤¼åĮħ":1421,"cer":1422,"Ġfer":1423,"Ġ20":1424,"Ġten":1425,"inoj":1426,"Ġevolu":1427,"Ġkura":1428,"Ġakti":1429,"pab":1430,"cas":1431,"bar":1432,"stataÅŃ":1433,"Ġkres":1434,"Ġoku":1435,"rita":1436,"Äµojn":1437,"vu":1438,"Ġnask":1439,"Ġmona":1440,"ĠtroviÄĿas":1441,"Ġflan":1442,"Ġhej":1443,"Ġpren":1444,"Ġsubten":1445,"tero":1446,"Ġestu":1447,"cion":1448,"tik":1449,"majn":1450,"Ġim":1451,"Ġrezul":1452,"th":1453,"Ġpris":1454,"ĠÄĪe":1455,"panio":1456,"tum":1457,"konom":1458,"tive":1459,"gus":1460,"tante":1461,"lika":1462,"eroj":1463,"Ġ14":1464,"Ġtiom":1465,"Ġpu":1466,"Ġuzas":1467,"ÅĿi":1468,"Ġvere":1469,"ĠÅľi":1470,"dek":1471,"fri":1472,"vita":1473,"ĠInter":1474,"ĠSa":1475,"and":1476,"Ġesperanto":1477,"oroj":1478,"18":1479,"dia":1480,"ĠSi":1481,"sio":1482,"Ġspi":1483,"Ġnaci":1484,"uno":1485,"Ġsame":1486,"Ġ.":1487,"bur":1488,"Ġdua":1489,"zis":1490,"Ġ,":1491,"ĠBa":1492,"Ġdisku":1493,"lingva":1494,"Ġesperantistoj":1495,"Ġâ":1496,"elon":1497,"Ġlibro":1498,"ges":1499,"ÃŃ":1500,"Ġopini":1501,"inte":1502,"baÅŃ":1503,"ĠkaÅŃ":1504,"Ġpla":1505,"Ġuti":1506,"ĠDi":1507,"intaj":1508,"Ġaparten":1509,"Ġsper":1510,"Ġ13":1511,"Ġpublik":1512,"ĠJes":1513,"Äīa":1514,"rek":1515,"Ġ/":1516,"KOKO":1517,"socio":1518,"teg":1519,"iÄĿi":1520,"Ġevi":1521,"lajn":1522,"una":1523,"umi":1524,"Ġinternacia":1525,"Ġprojek":1526,"Ġsama":1527,"antaj":1528,"ora":1529,"Ġdom":1530,"Ġdok":1531,"Ġneniu":1532,"zaÅŃ":1533,"Ġmalfer":1534,"Li":1535,"ĠÄīio":1536,"Ġkvankam":1537,"far":1538,"âĢĿ.":1539,"Ġvortoj":1540,"ÅĿo":1541,"Ġkomunumo":1542,"Ġpatr":1543,"ĠEl":1544,"Ġdif":1545,"dus":1546,"kipedio":1547,"fon":1548,"10":1549,"amenho":1550,"emo":1551,"Ġdiras":1552,"enta":1553,"ĠanstataÅŃ":1554,"ĠUnivers":1555,"Ġnin":1556,"Ġmalfaci":1557,"vio":1558,"ist":1559,"Ġdef":1560,"ord":1561,"Ġamas":1562,"Ġdisvol":1563,"ros":1564,"ck":1565,"12":1566,"Ġ'":1567,"Ġkara":1568,"Ġmaj":1569,"Ġvorto":1570,"Ġinklu":1571,"kisto":1572,"logio":1573,"ĠÄīiujn":1574,"Ġilia":1575,"Ġlingvon":1576,"Ġkondu":1577,"aÄĿ":1578,"Ġrus":1579,"ĠUsono":1580,"ĠCh":1581,"Ã³":1582,"Ġkontro":1583,"Ġstra":1584,"Ġdos":1585,"Ġespl":1586,"vojn":1587,"ĠSu":1588,"Ġfare":1589,"Ġvid":1590,"ume":1591,"nove":1592,"kvi":1593,"lito":1594,"ja":1595,"Ġmod":1596,"Ġsep":1597,"Ġvila":1598,"Ġafero":1599,"Ġvenis":1600,"lita":1601,"Ġrenkonti":1602,"Ġklas":1603,"Ġson":1604,"An":1605,"kton":1606,"mal":1607,"Ġler":1608,"ame":1609,"Ġofici":1610,"Ġkonf":1611,"ĠkvazaÅŃ":1612,"ĠBo":1613,"Ġbo":1614,"ÄĪi":1615,"Ġkomencis":1616,"Ġmis":1617,"].":1618,"Ġgrava":1619,"Ġaperis":1620,"tigis":1621,"logi":1622,"Ġdenove":1623,"Ġeblas":1624,"ĠPer":1625,"âĢĿ,":1626,"ĠLu":1627,"tema":1628,"kita":1629,"Ġaran":1630,"Ġklari":1631,"int":1632,"Ġtago":1633,"run":1634,"Ġpoliti":1635,"titaj":1636,"Ġus":1637,"Ġgrand":1638,"Ġ198":1639,"Ġreg":1640,"Ġlasta":1641,"Ġmemor":1642,"risto":1643,"los":1644,"peranto":1645,"era":1646,"Ġekonom":1647,"leks":1648,"gojn":1649,"estro":1650,"Ġkapab":1651,"alis":1652,"kos":1653,"Ġpatro":1654,"ĠKiam":1655,"ĠMo":1656,"flu":1657,"ĠEsperanton":1658,"Ġlaboro":1659,"tilo":1660,"Ġesper":1661,"ele":1662,"Ġloko":1663,"Ġreda":1664,"tiva":1665,"Ġmian":1666,"Ġrimar":1667,"Ġmalbon":1668,"ĠÅĿa":1669,"can":1670,"Ġden":1671,"Ġbu":1672,"ĠKro":1673,"ĠÂ»":1674,"skul":1675,"pana":1676,"ene":1677,"Ġkune":1678,"kuloj":1679,"gos":1680,"anu":1681,"ĠÄīefe":1682,"Ġ;":1683,"Ġhistorio":1684,"kio":1685,"Ġkunlabor":1686,"Ġtele":1687,"Ġniaj":1688,"ĠKo":1689,"Ġeven":1690,"Ġricevis":1691,"Ġmalno":1692,"Ġtradi":1693,"ioj":1694,"Ġalian":1695,"cojn":1696,"Ġkomple":1697,"ĠVikipedio":1698,"Ġiuj":1699,"pub":1700,"uni":1701,"dos":1702,"ĠRus":1703,"Ġversio":1704,"Ġ0":1705,"ĠZamenho":1706,"ktas":1707,"ĠambaÅŃ":1708,"Ġkrom":1709,"Ġprakti":1710,"Ġbal":1711,"Ġsistemo":1712,"nom":1713,"venis":1714,"Ġprofes":1715,"pozi":1716,"Ġkvin":1717,"Ġviv":1718,"ski":1719,"Ġsim":1720,"lia":1721,"'s":1722,"bron":1723,"Ġapud":1724,"ĠEÅŃropo":1725,"gia":1726,"ajne":1727,"Ġhon":1728,"Ġkal":1729,"Ġriver":1730,"ejoj":1731,"ĠHo":1732,"graf":1733,"paj":1734,"ĠGermanio":1735,"rem":1736,"Ġpoten":1737,"cx":1738,"stan":1739,"ore":1740,"Ġion":1741,"ĠDu":1742,"prezen":1743,"Ġmult":1744,"omen":1745,"Ġga":1746,"Ġ...":1747,"ĠNa":1748,"In":1749,"zas":1750,"Ġori":1751,"ĠÐ":1752,"ard":1753,"ĠJu":1754,"Ġgrupo":1755,"Vi":1756,"cern":1757,"ĠTo":1758,"telo":1759,"Ġkonsis":1760,"ĠIntern":1761,"Ġrapide":1762,"Ġedz":1763,"Se":1764,"urbo":1765,"Ġliaj":1766,"Ġcxi":1767,"ĠPol":1768,"ĠKiel":1769,"Ġ11":1770,"Ġfranca":1771,"Ġiam":1772,"Ġsal":1773,"Äµon":1774,"ĠHis":1775,"Ġvidis":1776,"Ġgrandan":1777,"Ni":1778,"Ġmond":1779,"Ġretejo":1780,"ak":1781,"Ġaki":1782,"Ġpluraj":1783,"Ġalta":1784,"Ġer":1785,"ES":1786,"Ġgas":1787,"Ġunivers":1788,"ĠHa":1789,"ĀĀ":1790,"Ġdor":1791,"ĠRa":1792,"menaÅŃ":1793,"Ġhav":1794,"Ġkomer":1795,"Ġcivi":1796,"Ġregiono":1797,"Ġfaras":1798,"peri":1799,"Ã¼":1800,"Ġdir":1801,"Ġaspe":1802,"ela":1803,"Ġdiri":1804,"Ġtemas":1805,"Ġgrandaj":1806,".\"":1807,"ĠIs":1808,"ĠEtern":1809,"Ġtiujn":1810,"torio":1811,"ĠhodiaÅŃ":1812,"Ġeni":1813,"ĠJen":1814,"tanta":1815,"Po":1816,"sek":1817,"ĠPri":1818,"Ġvidi":1819,"Ġefi":1820,"ĠPe":1821,"Ġmilito":1822,"ĠVer":1823,"ĠTa":1824,"Ġgermana":1825,"Ġprovi":1826,"Ġkonser":1827,"Ġsignifas":1828,"ĠLaÅŃ":1829,"tono":1830,"Ġkris":1831,"aran":1832,"Ġakvo":1833,"Ġokciden":1834,"long":1835,"Ġbri":1836,"Ġpun":1837,"Ġradi":1838,"tiÄĿis":1839,"val":1840,"Ġprecipe":1841,"ĠsufiÄīe":1842,"ĠKar":1843,"eg":1844,"Ġeli":1845,"Ġkelkajn":1846,"Ġret":1847,"jor":1848,"Ġkonata":1849,"kondu":1850,"Ġinten":1851,"Ġaliajn":1852,"ĠvoÄī":1853,"Ġokazas":1854,"plo":1855,"ura":1856,"Ġkomuni":1857,"Ġlitera":1858,"ĠEstas":1859,"tigas":1860,"ĠZamenhof":1861,"Ġon":1862,"adon":1863,"Ġ197":1864,"flan":1865,"Ġrapor":1866,"qu":1867,"fe":1868,"Ġmil":1869,"Ġmas":1870,"depen":1871,"joj":1872,"gh":1873,"jara":1874,"parte":1875,"reta":1876,"Ġhun":1877,"Ġvide":1878,"kar":1879,"Ġefek":1880,"Ġmultajn":1881,"ulojn":1882,"ÅĿan":1883,"vanta":1884,"Ġkoncern":1885,"dado":1886,"Ġinflu":1887,"ĠAm":1888,"Ġ194":1889,"Ġnovaj":1890,"Ġ193":1891,"Ġbezonas":1892,"Ġtemp":1893,"Ġcerte":1894,"ktado":1895,"Ġmez":1896,"Ġmenci":1897,"Ġsemajn":1898,"hel":1899,"Ġimp":1900,"pra":1901,"stra":1902,"Ġkongres":1903,"Ġpriskrib":1904,"Ġfla":1905,"ksa":1906,"tron":1907,"pos":1908,"ĠfariÄĿis":1909,"Ġban":1910,"ĠRi":1911,"tano":1912,"Ġmedi":1913,"Ġprefer":1914,"cien":1915,"su":1916,"nab":1917,"ĠEternulo":1918,"Ġcx":1919,"AT":1920,"Ġdistri":1921,"15":1922,"zer":1923,"into":1924,"tantoj":1925,"Ġnovan":1926,"zem":1927,"Ġteri":1928,"Ġinternaci":1929,"les":1930,"ĠRes":1931,"ĠPre":1932,"ulino":1933,"Ġkutime":1934,"antojn":1935,"ĠiÄĿis":1936,"Ġproksim":1937,"Ġio":1938,"ĠalmenaÅŃ":1939,"Ġreprezen":1940,"ÄĿojn":1941,"ĠÄīam":1942,"ĠaÅŃto":1943,"iga":1944,"Ġtagoj":1945,"Ġvirin":1946,"Ġideo":1947,"ĠJoh":1948,"blo":1949,"Ġkru":1950,"20":1951,"bio":1952,"Ġvesper":1953,"igitaj":1954,"joro":1955,"Ġmontri":1956,"ĠserÄī":1957,"rilo":1958,"Ġdec":1959,"Ġrespe":1960,"Ġfoj":1961,"Ġpere":1962,"17":1963,"Ġfen":1964,"ktis":1965,"Ġinfanoj":1966,"Ġpersonoj":1967,"ĠY":1968,"Ġmalmul":1969,"inon":1970,"Ġgaze":1971,"ĠÄĿuste":1972,"Ġmiaj":1973,"ĠeÅŃro":1974,"Ġsimple":1975,"pula":1976,"Ġkomenci":1977,"Ġtial":1978,"tanoj":1979,"Ġ?":1980,"iaj":1981,"ĠX":1982,"Ġunue":1983,"oma":1984,"Ġ196":1985,"dre":1986,"Ġses":1987,"ĠFrancio":1988,"Ġformo":1989,"proksi":1990,"ĠAnkaÅŃ":1991,"vidu":1992,"Ġanka":1993,"//":1994,"klo":1995,"id":1996,"Ġfacile":1997,"ttp":1998,"Ġfino":1999,"EJ":2000,"kuto":2001,"Por":2002,"Ġblan":2003,"Ġviza":2004,"ĠSek":2005,"gru":2006,"Ġzor":2007,"Ġnombro":2008,"ts":2009,"Ġprofun":2010,"Ġ25":2011,"ĠFa":2012,"Ġbru":2013,"://":2014,"Ġordon":2015,"Ġvas":2016,"ĠÄĪinio":2017,"Ġ30":2018,"Ġtrovis":2019,"Ġelekti":2020,"Ġmembroj":2021,"ĠOr":2022,"tris":2023,"Ġiliaj":2024,"Ġperio":2025,"Ġkarak":2026,"jon":2027,"lus":2028,"blio":2029,"tus":2030,"Ġsupo":2031,"dam":2032,"ER":2033,"ome":2034,"lado":2035,"Ġprezidanto":2036,"Ġkial":2037,"Ġare":2038,"Ġaferoj":2039,"aron":2040,"ĠAli":2041,"ĠNun":2042,"Ġdekla":2043,"Ġadminis":2044,"rajn":2045,"Ġkontribu":2046,"Ġfine":2047,"ĠSankta":2048,"tigo":2049,"Ġtas":2050,"ie":2051,"Ġpropra":2052,"Ġag":2053,"Ġduon":2054,"ĠÄīefa":2055,"Ġkultur":2056,"ĠaÅŃskul":2057,"Ġhavi":2058,"Ġmovado":2059,"Ġmontras":2060,"landa":2061,"ĠmanÄĿ":2062,"pun":2063,"Ġpopolo":2064,"Ġstari":2065,"blaj":2066,"ĠaÅŃtor":2067,"ov":2068,"soj":2069,"Ġdevus":2070,"Ġfamilio":2071,"ĠSin":2072,"dante":2073,"Ġtutan":2074,"Ġmur":2075,"Ġregistaro":2076,"Ġdevis":2077,"Ġinkluzi":2078,"11":2079,"Ġestr":2080,"Ġnig":2081,"âĢĵ":2082,"Ġparolas":2083,"Ġfir":2084,"aroj":2085,"Ġtek":2086,"ĠDan":2087,"Ġlonga":2088,"ĠKun":2089,"Ã¶":2090,"Ġdiferen":2091,"deco":2092,"Ġkos":2093,"ĠGo":2094,"pera":2095,"ĠInternacia":2096,"Ġkonta":2097,"Ġaperas":2098,"ÅĿis":2099,"Ġbaz":2100,"daÄµo":2101,"Ġvoja":2102,"Ġeston":2103,"tal":2104,"mita":2105,"wi":2106,"Ġlian":2107,"Ġmortis":2108,"bri":2109,"ĠÄĿoj":2110,"mem":2111,"Ġcelo":2112,"zono":2113,"leco":2114,"Ġata":2115,"Ġmorto":2116,"14":2117,"Ġarme":2118,"ĠÅĿtato":2119,"Ġnen":2120,"ulon":2121,"ato":2122,"Ġtito":2123,"TO":2124,"ju":2125,"ĠreÄĿo":2126,"Ġdomo":2127,"Ġnome":2128,"ĠSen":2129,"komen":2130,"esta":2131,"Ġnian":2132,"Ġprogramo":2133,"ĠCen":2134,"acioj":2135,"Ġsendepen":2136,"ĠÅĿia":2137,"Ġlonge":2138,"Ġkov":2139,"bra":2140,"Ġmalj":2141,"Ġdonis":2142,"dra":2143,"Ġprovin":2144,"str":2145,"Ġinfan":2146,"ÄĿaj":2147,"ista":2148,"Ġdecembro":2149,"Ġanta":2150,"Ġkiom":2151,"Ġbra":2152,"Ġuzata":2153,"orio":2154,"Ġfeli":2155,"Ġkompu":2156,"Ġras":2157,"org":2158,"via":2159,"Ġknab":2160,"poko":2161,"uma":2162,"tn":2163,"ĠPollando":2164,"ban":2165,"ian":2166,"teno":2167,"'t":2168,"Ġdosier":2169,"Ġtiaj":2170,"ĠUn":2171,"16":2172,"Ġplibon":2173,"Ġ195":2174,"ag":2175,"Ġsufer":2176,"Ġlegi":2177,"vajn":2178,"com":2179,"įã":2180,"ĠaÄīe":2181,"oste":2182,"talo":2183,"ĠNor":2184,"Ġ=":2185,"ĠBri":2186,"ĠĠĠĠ":2187,"Ġlim":2188,"Ġprote":2189,"Ġunuan":2190,"13":2191,"Ġregu":2192,"ĠBer":2193,"Ġnomon":2194,"Ġmodern":2195,"tere":2196,"lova":2197,"Ĩįã":2198,"est":2199,"Ġpru":2200,"skrib":2201,"ĠantaÅŃe":2202,"reto":2203,"ĠKan":2204,"Ġserio":2205,"Ġpopula":2206,"tala":2207,"Ġnum":2208,"Ġfu":2209,"ÂŃ":2210,"ĨįãĨįã":2211,"Ġfakte":2212,"dor":2213,"Ġaser":2214,"Ġprepar":2215,"eks":2216,"tia":2217,"Ġbir":2218,"Ġau":2219,"Ġ24":2220,"Ġfinan":2221,"his":2222,"publiko":2223,"Ġklo":2224,"mio":2225,"vuo":2226,"Ġmalgranda":2227,"Ġmes":2228,"umoj":2229,"Ġpovos":2230,"foj":2231,"tel":2232,"kre":2233,"Ġligi":2234,"Ġvidas":2235,"ĠJe":2236,"velo":2237,"ĠBon":2238,"201":2239,"fra":2240,"ĠÅĿanÄĿ":2241,"kade":2242,"Ġesplor":2243,"Tiu":2244,"kun":2245,"www":2246,".)":2247,"bas":2248,"zar":2249,"Ġedu":2250,"--":2251,"Ġviaj":2252,"ĠBi":2253,"ÅĿajne":2254,"Ġkongreso":2255,"gusto":2256,"Ġis":2257,"mor":2258,"ĠÅĿin":2259,"ĠÄīion":2260,"ĠGran":2261,"Ġgener":2262,"Ġuzo":2263,"kistoj":2264,"Ġ100":2265,"Ġfrem":2266,"ind":2267,"Ġtag":2268,"Sed":2269,"amaj":2270,"Ġlar":2271,"Ġobjek":2272,"Ġene":2273,"igu":2274,"Ġforlas":2275,"ĠLo":2276,"Ġtemo":2277,"Ġprele":2278,"Ġmembro":2279,"Ġapartenas":2280,"trepren":2281,"ĠtaÅŃ":2282,"isi":2283,"ĠpreÄĿ":2284,"graÅŃ":2285,"Ġsamtempe":2286,"Ġroman":2287,"Ġdeziras":2288,"Ġsukcesis":2289,"dustri":2290,"ĠAntaÅŃ":2291,"ilon":2292,"Ġvojo":2293,"tun":2294,"Ð°":2295,"blas":2296,"Post":2297,"Ġmalsu":2298,"Esperanto":2299,"kin":2300,"ç¤¼åĮħç¤¼åĮħç¤¼åĮħç¤¼åĮħç¤¼åĮħç¤¼åĮħç¤¼åĮħç¤¼åĮħ":2301,"permes":2302,"Ġhal":2303,"Dum":2304,"ĠDa":2305,"Ġdire":2306,"ĠJesuo":2307,"Ġr":2308,"tar":2309,"Ġstre":2310,"Ġdisvas":2311,"ĠNov":2312,"Ġdivi":2313,"zemple":2314,"ĠÄĪar":2315,"IN":2316,"ÅĤ":2317,"lezio":2318,"Ġrea":2319,"Ne":2320,"Ġas":2321,"ĠTiam":2322,"ema":2323,"Ġeviden":2324,"ÅĿa":2325,"Ġem":2326,"diÄĿis":2327,"venas":2328,"Ġforges":2329,"ĠÄĿenerale":2330,"lern":2331,"Ġokul":2332,"Kaj":2333,"Ġ192":2334,"vig":2335,"kaze":2336,"ĠpaÄĿo":2337,"Ġmono":2338,"Ġsituas":2339,"Ġverko":2340,"'m":2341,"Ġfes":2342,"Ġsola":2343,"Ġnuna":2344,"Ð¾":2345,"Ġstran":2346,"dantoj":2347,"Ġrestis":2348,"ÄĿe":2349,"Ġrekon":2350,"ea":2351,"Ġkm":2352,"Ġkato":2353,"isma":2354,"mokra":2355,"fine":2356,"Ġentu":2357,"mu":2358,"Ġlokon":2359,"Ġesperantis":2360,"ĠbaldaÅŃ":2361,"Ġpola":2362,"Ġklopo":2363,"ĠSer":2364,"dajn":2365,"ĠTial":2366,".âĢĿ":2367,"kato":2368,"umon":2369,"ĠBra":2370,"Ġdefen":2371,"Ġhttp":2372,"flanke":2373,"ligas":2374,"Ġapo":2375,"Ġmaniero":2376,"Ġia":2377,"taÄµo":2378,"Ġkas":2379,"Ġdecidis":2380,"Ġspiri":2381,"Ġparoli":2382,"Ġmalkov":2383,"Ġfamili":2384,"uman":2385,"anuaro":2386,"ĠFo":2387,"ĠÄīees":2388,"Ġunuaj":2389,"zan":2390,"ĠKongreso":2391,"Ġobser":2392,"Ġhor":2393,"iko":2394,"Ġmeto":2395,"Ġrif":2396,"ĠSur":2397,"Ġkelk":2398,"Ġega":2399,"Ġprinci":2400,"Ġfoje":2401,"grafio":2402,"Ġgravaj":2403,"Ġcir":2404,"Ġkli":2405,"Ġhomojn":2406,"tiÄĿo":2407,"aÄµojn":2408,"Ġverkoj":2409,"aÄµon":2410,"Ġagado":2411,"Ġdona":2412,"tigita":2413,"Ġenhavas":2414,"ktan":2415,"Ġchi":2416,"ĠEÅŃropa":2417,"Ġpozi":2418,"deks":2419,"ÄĿos":2420,"truk":2421,"Ġrime":2422,"mentoj":2423,"Ġpartoprenis":2424,"ez":2425,"Ġentrepren":2426,"Ġplenum":2427,"brojn":2428,"ĠdaÅŃre":2429,"Ġva":2430,"ent":2431,"Ġofer":2432,"Ġjarojn":2433,"ĠDis":2434,"urn":2435,"Ġmallon":2436,"ph":2437,"ktobro":2438,"ĠHun":2439,"ign":2440,"Ġrestas":2441,"Ġfilozo":2442,"Ġtero":2443,"Ġdonas":2444,"Ġfaj":2445,"bel":2446,"ĠTiel":2447,"eron":2448,"ĠdaÅŃri":2449,"gante":2450,"Ġkomenc":2451,"ĠKristo":2452,"laÅŃ":2453,"Ġkomenco":2454,"Ġdes":2455,"Ġ2016":2456,"Ġreli":2457,"trum":2458,"AN":2459,"Åľ":2460,"ins":2461,"ĠTra":2462,"ĠUK":2463,"Ġtru":2464,"umentoj":2465,"ĠpoÅĿ":2466,"ktojn":2467,"Ġnecesas":2468,"kribo":2469,"ĠBu":2470,"Ġw":2471,"Ġjulio":2472,"alon":2473,"Ġkompar":2474,"ĠEsperanta":2475,"pens":2476,"Ġaga":2477,"Ġima":2478,"turi":2479,"taÄµoj":2480,"'d":2481,"Ġbela":2482,"Ġ2017":2483,"Ġvera":2484,"Ġiris":2485,"gle":2486,"ure":2487,"KOKOKOKO":2488,"Ġkrei":2489,"Ġtutmon":2490,"Ġdisting":2491,"Ġvolis":2492,"Ġokup":2493,"uri":2494,"Ġinvi":2495,"stro":2496,"Kon":2497,"Ġero":2498,"Ġpensas":2499,"Ġarb":2500,"ĠÄīefurbo":2501,"30":2502,"Ġprojekto":2503,"ÄĪu":2504,"ili":2505,"Ġfavor":2506,"Ġrest":2507,"ĠLiber":2508,"Al":2509,"intoj":2510,"Ġvenas":2511,"Ġorigin":2512,"Ġdistrikto":2513,"ĠLia":2514,"Ġkulturo":2515,"ĠÄĿu":2516,"baj":2517,"Ġanon":2518,"Ġdepen":2519,"ĠIsra":2520,"Ġreali":2521,"Ġesperanta":2522,"Ġrete":2523,"arden":2524,"Ġposed":2525,"Ġnatur":2526,"Ġinformoj":2527,"Ġindividu":2528,"Äīas":2529,"Ġrajtas":2530,"Ġturn":2531,"ĠaÅŃtoro":2532,");":2533,"ty":2534,"Ġgla":2535,"perio":2536,"Ġ190":2537,"tembro":2538,"Ġvalor":2539,"200":2540,"EJO":2541,"Ġmer":2542,"rante":2543,"Ġsocio":2544,"Ġple":2545,"Ġdetru":2546,"Äīoj":2547,"Ġmarto":2548,"Ġantik":2549,"iris":2550,"kcio":2551,"ĠSch":2552,"Ġrilate":2553,"ĠVin":2554,"ĠTiuj":2555,"Ġiun":2556,"teroj":2557,"cistoj":2558,"Ġ2010":2559,"Ġblogo":2560,"Ġkonas":2561,"ĠFor":2562,"lantoj":2563,"kitaj":2564,"Ġgen":2565,"ĠPoste":2566,"ĠMos":2567,"Ġnacia":2568,"pero":2569,"Ġch":2570,"eblaj":2571,"Â°":2572,"mado":2573,"Ġgajn":2574,"Ġokuloj":2575,"trojn":2576,"Ã¤":2577,"Ġfal":2578,"ejon":2579,"Ġpersono":2580,"Ġenkondu":2581,"ĠGra":2582,"50":2583,"Ġnenion":2584,"Ġamp":2585,"ĠBar":2586,"Ġdol":2587,"lar":2588,"Ġjuna":2589,"Ġgrave":2590,"gario":2591,"Ġaldonu":2592,"Ġjanuaro":2593,"ete":2594,"stitu":2595,"tivo":2596,"Ġlingva":2597,"Ġkonkur":2598,"Ġprogram":2599,"Ġhelpi":2600,"Ġlaboris":2601,"ĠMan":2602,"bre":2603,"Ġkvan":2604,"Ġ#":2605,"Ġreligi":2606,"liber":2607,"Ġmajo":2608,"ĠAfri":2609,"Ġvivon":2610,"ĠPli":2611,"Ðµ":2612,"Ġsor":2613,"ĠIa":2614,"kres":2615,"pojn":2616,"Dis":2617,"dono":2618,"Ġaso":2619,"Ġhoma":2620,"Ġfonton":2621,"Ġmalal":2622,"ĠÄµus":2623,"araj":2624,"Ä¥a":2625,"bliote":2626,"Ġthe":2627,"Ġran":2628,"cisto":2629,"Ġmilionoj":2630,"Pro":2631,"form":2632,"ĠvilaÄĿo":2633,"libro":2634,"Ġvortojn":2635,"Ġproksime":2636,"Ġnomata":2637,"Ġproblemo":2638,"ĠÅĿajnas":2639,"Ġeten":2640,"zaj":2641,"Ġalt":2642,"Ġrivero":2643,"Ġnovembro":2644,"Ġplilong":2645,"Ġflor":2646,"tata":2647,"Ġfab":2648,"Ġokazos":2649,"Hel":2650,"iere":2651,"rinde":2652,"ker":2653,"Ġgx":2654,"omento":2655,"ika":2656,"ĠNu":2657,"Ġamikoj":2658,"Ġoktobro":2659,"Ġurboj":2660,"uso":2661,"Ġrevolu":2662,"kap":2663,"je":2664,"umento":2665,"kompren":2666,"tele":2667,"dento":2668,"Ġskribis":2669,"ebru":2670,"Ġnaj":2671,"Â».":2672,"estoj":2673,"Ġdirek":2674,"Ġstruk":2675,"Ġ!":2676,"Ġ22":2677,"Ġnepre":2678,"gara":2679,"ĠRusio":2680,"Ġbar":2681,"Ġ21":2682,"Ġklare":2683,"Ġnenio":2684,"Ġbele":2685,"vid":2686,"fte":2687,"Ġpied":2688,"data":2689,"Ġdifin":2690,"Ġdoni":2691,"ĠverÅĿajne":2692,"Ġamo":2693,"Ġmuziko":2694,"ciante":2695,"econ":2696,"ĠÄĿenerala":2697,"land":2698,"tiÄĿas":2699,"Ġsituacio":2700,"Ġkomprenas":2701,"mig":2702,"ditaj":2703,"Ġdatum":2704,"Â»,":2705,"Ġaprilo":2706,"gno":2707,"ĠÄīes":2708,"ĠNur":2709,"Ġatingis":2710,"Ġlaboron":2711,"Ġaparte":2712,"ĠaÅŃgusto":2713,"ĠKu":2714,"][":2715,"Ġrekte":2716,"Ġmale":2717,"tina":2718,"Ġ2015":2719,"Ġvirinoj":2720,"ĠkaÅĿ":2721,"ordo":2722,"aso":2723,"inter":2724,"Ġorigina":2725,"Ġani":2726,"Ġperiodo":2727,"Ġproce":2728,"Ġvolon":2729,"damen":2730,"Ġindustri":2731,"Ġlerni":2732,"ĠCi":2733,"Ġlong":2734,"Ġ2018":2735,".,":2736,"ĠHispanio":2737,"milito":2738,"Ġjus":2739,"Ġpolitika":2740,"Ġsti":2741,"Ġfilmo":2742,"Ġrekomen":2743,"ĠnaskiÄĿis":2744,"Ġseks":2745,"Ġseptembro":2746,"Ġcentro":2747,"Ġvirino":2748,"Ġkristan":2749,"dro":2750,"jn":2751,"izo":2752,"vata":2753,"Ġgepa":2754,"Ġrespondis":2755,"Ġtrin":2756,"Ġnovajn":2757,"fab":2758,"Å¡":2759,"Ġdeks":2760,"Ġu":2761,"ĠMul":2762,"Ġprofi":2763,"kons":2764,"Ġoka":2765,"zia":2766,"Ġatingi":2767,"etoj":2768,"ence":2769,"ĠÄīiuta":2770,"ĠRespubliko":2771,"Ġseku":2772,"Ġbonan":2773,"Ġtraduko":2774,"kro":2775,"ĠMia":2776,"ĠBel":2777,"ĠTEJO":2778,"gip":2779,"if":2780,"Ġuzis":2781,"dejo":2782,"eriko":2783,"ĠSta":2784,"Ġalilingva":2785,"ĠOri":2786,"Ġusona":2787,"ÅĿta":2788,"Ġtraduku":2789,"Ġ50":2790,"gnos":2791,"Ġbel":2792,"Ġinformojn":2793,"Ġalvo":2794,"Ġflanko":2795,"Ġmalo":2796,"Ġ23":2797,"Ġekzamen":2798,"ligis":2799,"Ġdisvolvita":2800,"Ġpatrino":2801,"ĠÅĿab":2802,"pla":2803,"ĠHel":2804,"Ġlastaj":2805,"sk":2806,"Ġartikoloj":2807,"Ġdemando":2808,"uzeo":2809,"ĠRu":2810,"Ġfama":2811,"ĠHer":2812,"Ġricevi":2813,"Ġtekni":2814,"Ġparolis":2815,"tulo":2816,"ktoro":2817,"Ġgre":2818,"Ġjunio":2819,"traj":2820,"Ġtempon":2821,"Ġanali":2822,"Ġverkis":2823,"Ġkredas":2824,"Ġparti":2825,"ãģ":2826,"Ġkonsen":2827,"omoj":2828,"Ġcel":2829,"LI":2830,"Ġdemokra":2831,"ĠloÄĿanta":2832,"Ġplilongigi":2833,"Ġeta":2834,"logia":2835,"Ġalpor":2836,"tiv":2837,"Helpu":2838,"Ġrevuo":2839,"Ġprezentas":2840,"Ġlokoj":2841,"Ġgrupoj":2842,"teli":2843,"tempa":2844,"au":2845,"Äījo":2846,"Ġkomuna":2847,"Ġspa":2848,"âĪ":2849,"lantaÅŃ":2850,"LaÅŃ":2851,"ĠKel":2852,"Ġsamtema":2853,"Ġtria":2854,"Ġinstitu":2855,"Â«":2856,"ĠSvis":2857,"Ġkapita":2858,"Ġkia":2859,"zojn":2860,"menciante":2861,"Ġron":2862,"ĠVar":2863,"Ġrusa":2864,"Ġdiversajn":2865,"Ġener":2866,"Ġkonsistas":2867,"ĠLing":2868,"ĠEsperant":2869,"zilo":2870,"Ġedzino":2871,"ĠpaÅĿ":2872,"Ġpostu":2873,"Ġege":2874,"gantoj":2875,"Ġmomento":2876,"Ġtrankvi":2877,"Ġforte":2878,"dida":2879,"ĠEU":2880,"ĠIta":2881,"pisko":2882,"toroj":2883,"Kiam":2884,"ves":2885,"lino":2886,"Ġ40":2887,"Ġsign":2888,"Ġsom":2889,"Ġmeze":2890,"Ġasocio":2891,"igon":2892,"ciaj":2893,"Ġmalnova":2894,"eta":2895,"Ġfarita":2896,"fero":2897,"ĠKrome":2898,"Ġloka":2899,"Ġreven":2900,"Ġmalami":2901,"Ġprovinco":2902,"Ġkonfi":2903,"Ġprogres":2904,"ĠFin":2905,"Ġekvi":2906,"end":2907,"Ġpubli":2908,"terna":2909,"IV":2910,"Ġaux":2911,"ĠTri":2912,"Ġhar":2913,"ĠPi":2914,"],":2915,"tecon":2916,"rapi":2917,"ĠTur":2918,"ebruaro":2919,"Ġminu":2920,"Ġsinjor":2921,"Diskuto":2922,"ĠriÄī":2923,"Ġher":2924,"lute":2925,"Ġproksimume":2926,"Ek":2927,"ĀĀĀĀ":2928,"Ġnorma":2929,"cejo":2930,"bin":2931,"Ġ28":2932,"Ġtrovas":2933,"Ġplena":2934,"ĠKol":2935,"ĠâĢĿ":2936,"Ġkorpo":2937,"Ġpromes":2938,"ĠBe":2939,"Ġpan":2940,"ĠÄĿiaj":2941,"Ġvali":2942,"temp":2943,"ĠWi":2944,"Ġgrande":2945,"tikaj":2946,"Ġelsta":2947,"ft":2948,"multo":2949,"AS":2950,"ĠKiu":2951,"jar":2952,"Ġkonten":2953,"fin":2954,"ÅĿu":2955,"Ġ2000":2956,"teks":2957,"xo":2958,"Ġiden":2959,"ĠKor":2960,"Ġvivas":2961,"ĠAng":2962,"Ġstri":2963,"kol":2964,"adis":2965,"Ġkonsta":2966,"Ġperfek":2967,"ganto":2968,"ON":2969,"ãĥ":2970,"berg":2971,"Ġsolda":2972,"ĠloÄĿas":2973,"Ġini":2974,"Ð¸":2975,"Ġkateg":2976,"Ġliteraturo":2977,"Ġpropran":2978,"Ġteritorio":2979,"ĠFon":2980,"Ġeksci":2981,"Ġepoko":2982,"Ġlibroj":2983,"Ġmalaper":2984,"Ġlibera":2985,"ĠloÄĿantoj":2986,"zita":2987,"Ġlisto":2988,"Ġ26":2989,"Äīis":2990,"Ġmodi":2991,"Ġagnos":2992,"esperan":2993,"Ġviajn":2994,"Ġvenon":2995,"oris":2996,"Ġmateri":2997,"ĠUniversitato":2998,"fun":2999,"ĠEst":3000,"Ġkoncep":3001,"iÄĿos":3002,"34":3003,"âĪŀ":3004,"Ġ27":3005,"Ġurb":3006,"Ġkompreni":3007,"24":3008,"ĠGe":3009,"ĠIsraelo":3010,"cie":3011,"ktaj":3012,"Ġvort":3013,"Ġbonvolu":3014,"Ġapen":3015,"Ġand":3016,"viÄĿis":3017,"ferenco":3018,"vano":3019,"Ġstabi":3020,"Ġpron":3021,"Ġmaten":3022,"ps":3023,"Ġgrama":3024,"ĠEble":3025,"ĠdanÄĿ":3026,"Ġ2008":3027,"Ġsimpla":3028,"tismo":3029,"uraj":3030,"Ġkona":3031,"fan":3032,"Ġfeder":3033,"ĠSte":3034,"mb":3035,"ĠTh":3036,"Ġhe":3037,"ĠÄīa":3038,"Ġtea":3039,"Ġkolekti":3040,"Ġverkon":3041,"ĠÄĪiuj":3042,"rado":3043,"ĠSam":3044,"eti":3045,"Ġparla":3046,"ĠJun":3047,"produ":3048,"ĠGa":3049,"Ġampleks":3050,"ĠAs":3051,"Ġarg":3052,"Ġleg":3053,"Ġopinias":3054,"ĠTie":3055,"vante":3056,"Ã¡n":3057,"Ġkoro":3058,"Ġkonvin":3059,"Ġiri":3060,"Ġorien":3061,"Kiel":3062,"ture":3063,"ĠTem":3064,"Ġsocia":3065,"Ġmalfacile":3066,"ĠSAT":3067,"Ġforta":3068,"centoj":3069,"Ġhispana":3070,"ĠIm":3071,"ÄĿu":3072,"mata":3073,"Ġartikolon":3074,"Oni":3075,"Ġtien":3076,"ĠCo":3077,"emon":3078,"ile":3079,"rila":3080,"Ġpartoj":3081,"Ġstato":3082,"ben":3083,"Ġgar":3084,"uroj":3085,"Ġbab":3086,"mino":3087,"Ġresponde":3088,"ĠÅĿatas":3089,"laro":3090,"kiel":3091,"Ġtagon":3092,"Ġesperantisto":3093,"ly":3094,"Ġdosieroj":3095,"Ġimperi":3096,"ĠapenaÅŃ":3097,"teria":3098,"uza":3099,"rano":3100,"âĪŀâĪŀ":3101,"Ġiomete":3102,"legi":3103,"ĠQ":3104,"movado":3105,"Ġkreis":3106,"Ġuson":3107,"istem":3108,"Ġ2012":3109,"plen":3110,"87":3111,"EN":3112,"ok":3113,"digi":3114,"gri":3115,"ĠÄĪiu":3116,"Äľ":3117,"ompan":3118,"vali":3119,"Ġkompreneble":3120,"ĠUnio":3121,"Ġsciis":3122,"Ġvorton":3123,"teron":3124,"Ġklu":3125,"Ġjes":3126,"Ġtian":3127,"22":3128,"Ġminis":3129,"Ġpose":3130,"Ġrajtoj":3131,"ĠAkade":3132,"Ġmaldeks":3133,"KU":3134,"Ġviro":3135,"Ġcelas":3136,"rigar":3137,"Ġmalproksi":3138,"ĠreÄĿ":3139,"kvo":3140,"Ġmalri":3141,"Ġfunkcias":3142,"Ġordin":3143,"burgo":3144,"ĠSinjoro":3145,"Ġpsi":3146,"inda":3147,"Ġkoncer":3148,"Ġsilen":3149,"ĠmalgraÅŃ":3150,"tanto":3151,"ĠUniversala":3152,"alisto":3153,"Ġbalo":3154,"Ġmaro":3155,"Ġbonaj":3156,"Ġstar":3157,"Ġtekstoj":3158,"ua":3159,"rojn":3160,"tantaj":3161,"ĠMaria":3162,"ĠSud":3163,"Ġparton":3164,"tista":3165,"viadi":3166,"Ġara":3167,"ĠÅĿton":3168,"Ġy":3169,"ry":3170,"vel":3171,"Ġnuntempe":3172,"ĠJam":3173,"Ġir":3174,"blan":3175,"nam":3176,"Ġnes":3177,"Ġerotika":3178,"edio":3179,"Ġareo":3180,"Ġsendi":3181,"ĠmalantaÅŃ":3182,"25":3183,"grafi":3184,"Ġmaljun":3185,"zu":3186,"ĠBal":3187,"Ġmalfru":3188,"Ġinkluzive":3189,"Ġmu":3190,"Ġkandida":3191,"Ġfakto":3192,"Ġrela":3193,"ĠSal":3194,"Ġpartopreni":3195,"iro":3196,"ĠEkzemple":3197,"ĠJapanio":3198,"Ġhoro":3199,"Ġform":3200,"Äį":3201,"Ġevoluo":3202,"Ġpublika":3203,"Ġmalvar":3204,"stin":3205,"Ġarki":3206,"ĠÃĹ":3207,"Ġpopoloj":3208,"Ġfirma":3209,"Unu":3210,"Ġsekve":3211,"bis":3212,"Ġdemandis":3213,"igos":3214,"Ġmalpermes":3215,"Ġaktu":3216,"Ġadministra":3217,"Ġsab":3218,"Ġoficiala":3219,"ĠÄĿen":3220,"Ġpensis":3221,"Ġgeo":3222,"Ġinicia":3223,"Ġmesa":3224,"ĠItalio":3225,"Ġbran":3226,"ĠÅĿtatoj":3227,"Ġpaco":3228,"Ġmonatoj":3229,"punkto":3230,"taroj":3231,"longe":3232,"Ġ2011":3233,"Ġpartio":3234,"undo":3235,"Ġesta":3236,"Ġkontin":3237,"Ġstuden":3238,"cel":3239,"Ġkompon":3240,"che":3241,"Ġbatalo":3242,"ĠIz":3243,"Mal":3244,"Ġmalfacila":3245,"ĠdediÄī":3246,"domo":3247,"vido":3248,"iÄĿon":3249,"Ġprenis":3250,"23":3251,"ĠbedaÅŃ":3252,"Ġplene":3253,"Ġhere":3254,"):":3255,"IS":3256,"landaj":3257,"Ġhi":3258,"Ġrolon":3259,"Ġunuo":3260,"Ġforma":3261,"Ġmenso":3262,"Ġ2009":3263,"jare":3264,"Ġcent":3265,"Ġpolitiko":3266,"Ġkomputi":3267,"alie":3268,"Ġtransi":3269,"Ġmonon":3270,"Ġversi":3271,"Ð½":3272,"pozicio":3273,"Ġlum":3274,"Ġmova":3275,"De":3276,"Ġripe":3277,"acion":3278,"Ġnivelo":3279,"Ġmalhel":3280,"40":3281,"ĠGu":3282,"Kom":3283,"ĠLon":3284,"ĠBritio":3285,"rans":3286,"Ġet":3287,"Ġfebruaro":3288,"ĠSove":3289,"ĠleÄĿo":3290,"post":3291,"ĠCar":3292,"ĠkuÅĿ":3293,"ganta":3294,"Ġvek":3295,"fis":3296,"Ġsx":3297,"Ġregistri":3298,"Ġ{":3299,"iÄĿintaj":3300,"Ġvizitis":3301,"Ġapro":3302,"Ġarmeo":3303,"Ġorgan":3304,"Jen":3305,"amoj":3306,"ktita":3307,"entoj":3308,"Ġmontris":3309,"ĠÄīiun":3310,"ĠSub":3311,"ĠÄµurn":3312,"Ġfrue":3313,"lono":3314,"bli":3315,"Ġkomence":3316,"Ġnaturo":3317,"AR":3318,"onon":3319,"ando":3320,"kle":3321,"Ġkrome":3322,"Ġuzado":3323,"arato":3324,"vide":3325,"Ġsun":3326,"doni":3327,"Ġverkisto":3328,"Ġnumero":3329,"Ġskribi":3330,"enoj":3331,"Ġdokumen":3332,"Ġ2007":3333,"vino":3334,"Ġoper":3335,"ĠÅĿablon":3336,"ou":3337,"uzo":3338,"diÄĿas":3339,"Ġsendis":3340,"Ġ2014":3341,"Ġfizi":3342,"ĠKonsi":3343,"Ġspecioj":3344,"bal":3345,"Ġdese":3346,"Ġremem":3347,"'ve":3348,"tek":3349,"ĠNeni":3350,"ĠKial":3351,"Ġesperas":3352,"Estas":3353,"Ġparol":3354,"Ġmankas":3355,"Ġrastrum":3356,"ĠAX":3357,"mos":3358,"Ġpreter":3359,"ĠSpi":3360,"Ġ189":3361,"Ġnatura":3362,"El":3363,"Ġteritor":3364,"Ġbildo":3365,"ĠAfriko":3366,"ÑĢ":3367,"ĠNeder":3368,"Ã½":3369,"Ġtaks":3370,"Ġprezentis":3371,"ÑĤ":3372,"ĠmaÅĿ":3373,"27":3374,"venon":3375,"ÄĿan":3376,"ĠÄľis":3377,"ĠRom":3378,"Ġrastrumeroj":3379,"tuloj":3380,"ularo":3381,"ska":3382,"isiono":3383,"Ġstrato":3384,"ĠEkde":3385,"igx":3386,"Ġkapo":3387,"enon":3388,"strio":3389,"kulo":3390,"Ġricevas":3391,"Ġ2006":3392,"Ġkarakteri":3393,"Ġnekon":3394,"erio":3395,"Ġaver":3396,"Ġ--":3397,"Ġfinfine":3398,"Ġmomen":3399,"ĠHe":3400,"Ġproblemoj":3401,"Ġcentra":3402,"56":3403,"ĠEgip":3404,"reco":3405,"Ġz":3406,"ĠKvankam":3407,"Ġakompan":3408,"Ġhelpo":3409,"baroj":3410,"ĠloÄĿantaro":3411,"ilojn":3412,"dika":3413,"Ġlis":3414,"Ġmina":3415,"Ġsankta":3416,"mitaj":3417,"Ġdank":3418,"viÄī":3419,"Ġlaboras":3420,"plan":3421,"Ġinteresa":3422,"Ġlingvojn":3423,"Ġelekto":3424,"Ġentute":3425,"Ġmalfor":3426,"trino":3427,"dar":3428,"ĠLin":3429,"ĠÅĿul":3430,"Ġrevenis":3431,"Ġfoli":3432,"Ġsaman":3433,"iri":3434,"mia":3435,"ĠÄĿian":3436,"Ġgravas":3437,"Ġ2013":3438,"ĠÄľener":3439,"Ġvan":3440,"ĠGranda":3441,"pita":3442,"sti":3443,"Ġblu":3444,"ĠBen":3445,"Ġinsta":3446,"pagan":3447,"landan":3448,"turoj":3449,"Ġrigardis":3450,"tul":3451,"Ġduo":3452,"forma":3453,"Ġgri":3454,"esperanto":3455,"Ġhoroj":3456,"ell":3457,"ĠMin":3458,"Ġpala":3459,"Ġmalgrandaj":3460,"Ġlernejo":3461,"ĠeÅŃ":3462,"Ġsuda":3463,"Ġamiko":3464,"Ġkurso":3465,"ĠfiÅĿ":3466,"Ġbazi":3467,"Ġsubskrib":3468,"ĠNord":3469,"uba":3470,"Ñģ":3471,"edo":3472,"Ġkriti":3473,"cz":3474,"veco":3475,"ĠaÅŃdis":3476,"Ġestraro":3477,"up":3478,"Ġokaze":3479,"Ġtranspor":3480,"ĠEks":3481,"Ġkorek":3482,"Ġbibliote":3483,"lingvaj":3484,"ĠParizo":3485,"Ġreci":3486,"ĠTomo":3487,"Ġideoj":3488,"fici":3489,"Ġates":3490,"ĠJohano":3491,"ĠUr":3492,"LE":3493,"Ġrezulto":3494,"ĠMem":3495,"ogle":3496,"enco":3497,"Ġproponas":3498,"Ġdosiero":3499,"mer":3500,"ys":3501,"Ġviroj":3502,"80":3503,"daÄµoj":3504,"Ġfam":3505,"lingvo":3506,"ĠJos":3507,"21":3508,"fes":3509,"zidanto":3510,"Ġpubliko":3511,"cajn":3512,"Ġenhavo":3513,"turon":3514,"TC":3515,"teraj":3516,"hu":3517,"tt":3518,"ãĤ":3519,"Ġbio":3520,"Ġ000":3521,"ĠIKU":3522,"Ġrevi":3523,"ĠantaÅŃa":3524,"tempo":3525,"ĠFine":3526,"Ġimpres":3527,"ĠUN":3528,"Ġvortaro":3529,"ĠPas":3530,"Ġrilatoj":3531,"Ġparte":3532,"ÄĪe":3533,"Ġakiri":3534,"ĠEsperantistoj":3535,"ĠÄīefaj":3536,"parto":3537,"Mar":3538,"keco":3539,"Ġinform":3540,"ĠÅĿajne":3541,"Ġskla":3542,"Ġsubite":3543,"Ġinsulo":3544,"ĠpaÄĿoj":3545,"Ġ2005":3546,"Ġmano":3547,"Ġsupre":3548,"dire":3549,"Ġmalmulte":3550,"Ġiras":3551,"ÅĿto":3552,"Ġradio":3553,"ĠHungario":3554,"Ġsekreta":3555,"Ä¥o":3556,"oron":3557,"ÄĿus":3558,"uron":3559,"Ġkomprenis":3560,"pio":3561,"Ġilian":3562,"Ġparola":3563,"Ġeventu":3564,"ciojn":3565,"Ġhispan":3566,"gajn":3567,"Ġpartoprenantoj":3568,"26":3569,"ĠPetro":3570,"ya":3571,"Ġland":3572,"ĠAleks":3573,"kura":3574,"zajn":3575,"Ġmanoj":3576,"ĠEÄī":3577,"Ġaldoni":3578,"Ġscen":3579,"Ġnomoj":3580,"Ġsimila":3581,"ĠloÄĿantojn":3582,"ĨĴ":3583,"Ġvetur":3584,"ebl":3585,"vice":3586,"Ġaro":3587,"Ġben":3588,"Ġdiskuto":3589,"Ġlernis":3590,"Ġkonklu":3591,"Ġkompa":3592,"Ġrespekti":3593,"Ġsubstan":3594,"Ġ29":3595,"preneble":3596,"Ġdra":3597,"zistas":3598,"zento":3599,"Ġmoderna":3600,"Ġvun":3601,"Ġaparta":3602,"Ġeldono":3603,"ire":3604,"Ġtemoj":3605,"Ġinternaciaj":3606,"Ġspeciala":3607,"ĠKris":3608,"tuga":3609,"lante":3610,"ĠrenkontiÄĿo":3611,"Ġsurpri":3612,"vojo":3613,"Ġescep":3614,"ĠIM":3615,"Ġankau":3616,"terio":3617,"Ġurbon":3618,"ĠPra":3619,"tebla":3620,"ĠVa":3621,"Ġ%":3622,"Ġnorda":3623,"Ġfundamen":3624,"ĠIzra":3625,"Asocio":3626,"Ġvivis":3627,"ktu":3628,"Ġlegis":3629,"Ġperfor":3630,"viÄĿo":3631,"Ġinterpre":3632,"ĠAsocio":3633,"Ġfrato":3634,"Ġpunkto":3635,"ligo":3636,"vena":3637,"ĠTer":3638,"Ġokcidenta":3639,"Ġforto":3640,"ĠWil":3641,"ĨįãĨįãĨįãĨįã":3642,"ĠCe":3643,"65":3644,"ĠPlej":3645,"seks":3646,"eca":3647,"Ġmort":3648,"Ġretpo":3649,"mid":3650,"II":3651,"ĠÄĿarden":3652,"arki":3653,"taron":3654,"prenis":3655,"Ġ31":3656,"kcidenta":3657,"Ġkazo":3658,"Ġekzistis":3659,"ĠÄĪeÄ¥":3660,"ĠVarso":3661,"ĠAd":3662,"Ġmalsamaj":3663,"lovakio":3664,"Ġpoem":3665,"Ġnaciaj":3666,"Ġmondon":3667,"Ġekstre":3668,"ĠÄīina":3669,"Ġplurajn":3670,"lok":3671,"Ġkunsi":3672,"Ġpromen":3673,"hon":3674,"Mon":3675,"Ġagra":3676,"Ġlandon":3677,"Äīon":3678,"cent":3679,"kolor":3680,"vange":3681,"Ġadres":3682,"Ġris":3683,"iÄĿinta":3684,"Ġhomaro":3685,"fen":3686,"Ġceloj":3687,"cha":3688,"Ġhistoria":3689,"Ġdun":3690,"Ġseksa":3691,"Ġmalsan":3692,"her":3693,"san":3694,"cialan":3695,"ĠKio":3696,"ĠVen":3697,"Ġvojon":3698,"Ġok":3699,"mpi":3700,"espon":3701,"Ġkampo":3702,"Ġefektive":3703,"ger":3704,"Ġbildoj":3705,"ĠVal":3706,"meo":3707,"Ġlibron":3708,"Ġuniversita":3709,"Ġduono":3710,"Ġtab":3711,"tari":3712,"ĠAkademio":3713,"Re":3714,"stre":3715,"ĠEstis":3716,"Ġmeti":3717,"cor":3718,"ingo":3719,"ĠIKUE":3720,"ide":3721,"Ġnomas":3722,"formo":3723,"Ġlokaj":3724,"Ho":3725,"tiÄĿi":3726,"Ġmonto":3727,"Ġitala":3728,"Ġkultura":3729,"Ġelektis":3730,"Ġ&":3731,"ĠÂ·":3732,"Inter":3733,"Ġkv":3734,"ĠpreÄĿejo":3735,"ĠMor":3736,"alismo":3737,"ĠKata":3738,"Ġpoe":3739,"zitan":3740,"Ġregionoj":3741,"Ġdipl":3742,"Ġpotenco":3743,"Ġalb":3744,"Ġinterkon":3745,"komuni":3746,"danta":3747,"tiga":3748,"ĠFre":3749,"ĠĠĠĠĠĠĠĠ":3750,"Ġnordo":3751,"ani":3752,"ç¤¼åĮħç¤¼åĮħç¤¼åĮħç¤¼åĮħç¤¼åĮħç¤¼åĮħç¤¼åĮħç¤¼åĮħç¤¼åĮħç¤¼åĮħç¤¼åĮħç¤¼åĮħç¤¼åĮħç¤¼åĮħç¤¼åĮħç¤¼åĮħ":3753,"Ġpara":3754,"Ġinfano":3755,"Ġhejm":3756,"Ġkr":3757,"Ġbestoj":3758,"AntaÅŃ":3759,"ĠThe":3760,"Ġbur":3761,"Ġlok":3762,"Ġsupren":3763,"Ġinteralie":3764,"Ġscii":3765,"ÅŃtra":3766,"Ġrifuz":3767,"Ġstatu":3768,"Ġajna":3769,"ari":3770,"Ġfabri":3771,"ploj":3772,"igoj":3773,"lanta":3774,"Ġtrov":3775,"Ġste":3776,"ĠBrazilo":3777,"cipo":3778,"Ġbas":3779,"vole":3780,"Ġmateria":3781,"ens":3782,"Ġtatu":3783,"Ġpremi":3784,"ĠkomenciÄĿis":3785,"Ġelsen":3786,"ĠâĨĴ":3787,"Äľi":3788,"Ġmortin":3789,"Ġlibere":3790,"Ġ*":3791,"38":3792,"vad":3793,"delo":3794,"Ġsupoz":3795,"60":3796,"Ġsp":3797,"Ġreligio":3798,"Ġinstruis":3799,"Ġmalbona":3800,"ate":3801,"loro":3802,"Ġnokto":3803,"Ġhavos":3804,"ĠCer":3805,"ĠNacia":3806,"28":3807,"Ġalvenis":3808,"Ġtravi":3809,"Ġamik":3810,"Ġuniversitato":3811,"Ġstaris":3812,"fita":3813,"Ġsenco":3814,"gxo":3815,"logo":3816,"alu":3817,"Ġpostulas":3818,"Ġsinjoro":3819,"Ġkanto":3820,"Ġgxi":3821,"Ġpetas":3822,"Ġliver":3823,"Ġmondmilito":3824,"Ġfig":3825,"Ġkiaj":3826,"Ġekzemplo":3827,"29":3828,"Ġkoncen":3829,"ĠHen":3830,"Ġideon":3831,"ĠKelkaj":3832,"konstru":3833,"ĠJer":3834,"Ġstaras":3835,"Ġkapablas":3836,"Ġsh":3837,"vebla":3838,"Ġpastro":3839,"Ġtitolo":3840,"Ġtor":3841,"ĠâĢĺ":3842,"Do":3843,"ĠHar":3844,"ESTO":3845,"Ġgh":3846,"ekz":3847,"ĠPola":3848,"Ġvari":3849,"Ġkopi":3850,"Ġsekvis":3851,"alan":3852,"Pri":3853,"Ġafi":3854,"ĠÄ¥":3855,"Ġtraj":3856,"Ġmiks":3857,"Ġfojon":3858,"fio":3859,"Ġpetis":3860,"Äīaj":3861,"Ġkil":3862,"Ġ(\"":3863,"Ġfiks":3864,"Ġkonataj":3865,"istemo":3866,"Ġtermin":3867,"porno":3868,"ĠMultaj":3869,"Ġdistan":3870,"ĠSE":3871,"Ġorienta":3872,"Ġgepatroj":3873,"Ġlumo":3874,"faj":3875,"istemoj":3876,"alajn":3877,"Ġsimbo":3878,"Ġgravan":3879,"Ġmarbor":3880,"Ġplejparte":3881,"ĠAra":3882,"dulo":3883,"Ġsendu":3884,"Ġreto":3885,"edoj":3886,"done":3887,"Ġpon":3888,"Ġprotes":3889,"Ġinterv":3890,"ĠJan":3891,"loÄĿ":3892,"Ġsignifo":3893,"Ġniajn":3894,"Ġadap":3895,"ĠIS":3896,"Ġom":3897,"Ġmallonga":3898,"Ġhelp":3899,"uste":3900,"Ġatribu":3901,"Ġnomita":3902,"Ġteamo":3903,"Ġmiajn":3904,"Ġhazar":3905,"33":3906,"Ġkvanto":3907,"kal":3908,"Ġatendas":3909,"burg":3910,"lum":3911,"Ġsus":3912,"Ġaviadi":3913,"Ġkresk":3914,"Ġdecido":3915,"Ġanim":3916,"Ġride":3917,"Ġbazo":3918,"Ġflug":3919,"Ġfonto":3920,"Ġsentas":3921,"Ġkategori":3922,"Ġpaci":3923,"Ġsole":3924,"kipedia":3925,"bata":3926,"menta":3927,"Ġhomaj":3928,"Ġekonomia":3929,"Ġservo":3930,"Ġeniris":3931,"Ġformoj":3932,"ĠKam":3933,"Ġkilome":3934,"ĠTre":3935,"ĸĳ":3936,"loke":3937,"Ġsuno":3938,"ulara":3939,"kuti":3940,"Ġmalliber":3941,"Ġeksplo":3942,"Ġgeed":3943,"Ġstabila":3944,"bert":3945,"ĠvoÄīdon":3946,"oo":3947,"Ġbirdoj":3948,"Ġisla":3949,"Ġsimilaj":3950,"ĠGoogle":3951,"Ġdio":3952,"Ġvidu":3953,"Nun":3954,"Ġ+":3955,"ĠLan":3956,"Ġnomis":3957,"Ġeklezio":3958,"Ġcerta":3959,"Ġspeciale":3960,"Ġspor":3961,"kurso":3962,"Ð¾Ð":3963,"ĠOrgani":3964,"ĠPIV":3965,"ĠOn":3966,"Ġmalrapi":3967,"Ġevidente":3968,"ĠScien":3969,"ĠnomiÄĿas":3970,"Ar":3971,"dovi":3972,"Ġarto":3973,"Ġesperant":3974,"Ġrilatas":3975,"Ġkalku":3976,"Ġprovis":3977,"ĠÄīambro":3978,"ĠBur":3979,"litaj":3980,"ĠFESTO":3981,"igar":3982,"ÄĿen":3983,"ĠÅĿanÄĿi":3984,"Ġteori":3985,"Ġakceptis":3986,"Ġplez":3987,"leto":3988,"plena":3989,"ĠNova":3990,"Ġekle":3991,"Ġproduktoj":3992,"Ġstilo":3993,"kva":3994,"Ġdefini":3995,"Ġrecipro":3996,"Ġkonfir":3997,"Ġnigra":3998,"!!":3999,"ĠÄīielo":4000,"ĠVil":4001,"lone":4002,"Ġkonsci":4003,"lav":4004,"ĠIr":4005,"Ġsup":4006,"pto":4007,"net":4008,"ĠSoci":4009,"tara":4010,"Ġproksima":4011,"ĠÄ¤":4012,"DE":4013,"Ġmanko":4014,"Ġkonfes":4015,"ĠPrin":4016,"Ġerar":4017,"VA":4018,"Ġlabori":4019,"Ġepisko":4020,"Ã³n":4021,"inaj":4022,"ĠFun":4023,"kulturo":4024,"kalo":4025,"Ġtekston":4026,"ĠvojaÄĿ":4027,"Ġmetis":4028,"Ġsudo":4029,"Ġfaros":4030,"Ġkunveno":4031,"bun":4032,"ĠAzio":4033,"Ġmilit":4034,"ĠSve":4035,"tana":4036,"tenas":4037,"ĠNia":4038,"ĠDon":4039,"Ġtrajn":4040,"Ġpronon":4041,"gitaj":4042,"gal":4043,"stron":4044,"ĠÅĿablonoj":4045,"tigitaj":4046,"pola":4047,"Ġsentis":4048,"ĠKanado":4049,"Ġreta":4050,"ila":4051,"ĠvizaÄĿo":4052,"Äīam":4053,"Ġplimulto":4054,"Ġpolitikaj":4055,"ĠantaÅŃen":4056,"Ġhistori":4057,"Ġasocioj":4058,"Ġfoto":4059,"ĠGre":4060,"ĠVla":4061,"paÄĿo":4062,"Ġdemandoj":4063,"fran":4064,"70":4065,"Ġinterna":4066,"Ġordo":4067,"ĠÄ´":4068,"Ġscienco":4069,"Ġ60":4070,"Ġenke":4071,"35":4072,"Ġsenpa":4073,"aniere":4074,"loko":4075,"ĠBul":4076,"Ġrimarkis":4077,"Ã¨":4078,"ĠDua":4079,"KOKOKOKOKOKOKOKO":4080,"ĠCom":4081,"Ġvic":4082,"baze":4083,"Ġabso":4084,"ĠMaro":4085,"Ġado":4086,"ĠâĢ¦":4087,"fiko":4088,"ĠEklezio":4089,"Ġdevenas":4090,"ĠmonaÄ¥":4091,"Ġpensi":4092,"Ġkapon":4093,"ese":4094,"Ġlogi":4095,"Ġsalu":4096,"bable":4097,"Ġiel":4098,"Ġripo":4099,"Ġblanka":4100,"Ġkonstitu":4101,"Ġafri":4102,"Ġantikva":4103,"199":4104,"get":4105,"ligita":4106,"fono":4107,"ĠPlone":4108,"ĠÄľia":4109,"ĠVir":4110,"belo":4111,"Ġplibonigi":4112,"Ġminutoj":4113,"Ġalie":4114,"Ġsemajno":4115,"ĠVo":4116,"Ġaktiva":4117,"No":4118,"Ġorganizo":4119,"Ġfondita":4120,"wski":4121,"Ġuzantoj":4122,"ĠCentra":4123,"RO":4124,"ĠPaÅŃ":4125,"ĠloÄĿis":4126,"Ġmedic":4127,"Ġsekva":4128,"ĠMeksi":4129,"EL":4130,"Ġdudek":4131,"Ġgazeto":4132,"Ġmalmultaj":4133,"Ġ2004":4134,"Ġenme":4135,"Ġfesto":4136,"Ġuzataj":4137,"Ġaktiv":4138,"Ġpropagan":4139,"Ġvivi":4140,"Ġprizor":4141,"Ġsove":4142,"Ġprezenti":4143,"XX":4144,"ĠLas":4145,"Ġpriva":4146,"eton":4147,"\")":4148,"ĠÄīie":4149,"Ġmanier":4150,"Ġlinio":4151,"__":4152,"ĠNederlando":4153,"ĠVor":4154,"emaj":4155,"Ġspaco":4156,"tadon":4157,"ĠÄīas":4158,"Ġtrovos":4159,"bol":4160,"miÄĿis":4161,"sur":4162,"NU":4163,"Ġmovi":4164,"ĠpaÄĿon":4165,"Ġfre":4166,"ĠTe":4167,"ĠTu":4168,"ĠvoÄīo":4169,"igh":4170,"Ġtelefon":4171,"Ġlingv":4172,"ĠUkra":4173,"04":4174,"Ġapli":4175,"Ġjudoj":4176,"fil":4177,"ĠAÅŃstra":4178,"diÄĿo":4179,"Ġpordo":4180,"rom":4181,"Ġjaron":4182,"ĠnaÅŃ":4183,"sub":4184,"Ġprecize":4185,"Ġmatema":4186,"Ġrekla":4187,"ĠinterÅĿan":4188,"ĠFrancis":4189,"cado":4190,"Ġtim":4191,"kante":4192,"Ġdiale":4193,"Ġreferen":4194,"logiaj":4195,"kolo":4196,"ĠDom":4197,"Ġdesegn":4198,"Ġjarde":4199,"Ġaferojn":4200,"ĠIMG":4201,"jun":4202,"ds":4203,"ĠKrom":4204,"ordin":4205,"Tio":4206,"Ġkler":4207,"ranta":4208,"Ġfilino":4209,"Ġrelative":4210,"tike":4211,"Ġsociaj":4212,"que":4213,"Ġmeta":4214,"Ġeviti":4215,"glo":4216,"ĠCon":4217,"Ġgaran":4218,"Ġjarcentoj":4219,"Ġproponis":4220,"ĠKul":4221,"Ġsk":4222,"nask":4223,"Ġpermesas":4224,"Ġfacila":4225,"gor":4226,"Ġsignifon":4227,"Ġmeri":4228,"estas":4229,"Ali":4230,"Ġankaux":4231,"Ġkreita":4232,"ÄĿaro":4233,"Ġfaru":4234,"ĠRen":4235,"vantaj":4236,"ĠaÄĿo":4237,"inde":4238,"onojn":4239,"Ġmedio":4240,"Ġelektita":4241,"polo":4242,"Åľan":4243,"traÄµo":4244,"ner":4245,"ÅĿe":4246,"Ġtasko":4247,"Ġforlasis":4248,"Ġtransdon":4249,"Ġago":4250,"Ġhelpas":4251,"tle":4252,"ĠÅĿo":4253,"ĠÅĿar":4254,"Ġrigard":4255,"aten":4256,"Ġarm":4257,"Ġalte":4258,"Ĩĳ":4259,"trado":4260,"Ġtagojn":4261,"??":4262,"Ġdevos":4263,"Ġprofesoro":4264,"estis":4265,"kodo":4266,"Ġavanta":4267,"Ġcxe":4268,"pres":4269,"Ġvizitan":4270,"Ġkomita":4271,"Ġkonsideras":4272,"Ġfren":4273,"Ġesprimo":4274,"ĠSvislando":4275,"erojn":4276,"tag":4277,"ĠCor":4278,"Ġproduktado":4279,"ksim":4280,"Ġskribas":4281,"ĠStu":4282,"karo":4283,"Ġcxiuj":4284,"vitaj":4285,"Per":4286,"Ġlerno":4287,"ĠÄµe":4288,"Ġemo":4289,"Ġprefere":4290,"ĠorganizaÄµo":4291,"grupo":4292,"Ġrevolucio":4293,"ĠKe":4294,"Ġromano":4295,"Ġabun":4296,"kulp":4297,"tivoj":4298,"ment":4299,"Ġstrate":4300,"Ġmetodo":4301,"Ġvig":4302,"ĠKion":4303,"Ġvidpunkto":4304,"naci":4305,"Ġprodukti":4306,"Ġdin":4307,"Ġspecio":4308,"ĠFili":4309,"ÅĻ":4310,"igni":4311,"Ġmonda":4312,"194":4313,"Ġpil":4314,"Ġperdis":4315,"ston":4316,"plu":4317,"Ġsubtenas":4318,"ĠPla":4319,"ĠKongres":4320,"Ġinformo":4321,"Ġnas":4322,"nova":4323,"Ġaero":4324,"dori":4325,"Ġhistorion":4326,"Ġekzempl":4327,"ĠFer":4328,"ĠeÅŃropa":4329,"Ġokazo":4330,"ĠUz":4331,"Ġrajton":4332,"Ġtr":4333,"zias":4334,"Ġoriginala":4335,"Ġneder":4336,"Ġrilato":4337,"IA":4338,"Tamen":4339,"dr":4340,"Ġsoli":4341,"Ġanglan":4342,"Ġpropraj":4343,"para":4344,"use":4345,"31":4346,"UTC":4347,"tiri":4348,"Ġhumi":4349,"iÄĿu":4350,"han":4351,"Ġ35":4352,"Ġpek":4353,"Ġiliajn":4354,"Ġsekvas":4355,"Ġfederacia":4356,"unu":4357,"Ġservoj":4358,"ĠFakte":4359,"Ġhungar":4360,"Ġlatin":4361,"Ġrigardi":4362,"Ġekkon":4363,"Ġakiris":4364,"Ġduan":4365,"ll":4366,"Ġspeco":4367,"ĠEsperantujo":4368,"Mo":4369,"Ġminim":4370,"Ġjunaj":4371,"ÄĿanta":4372,"Ġartikolojn":4373,"Ġtransfor":4374,"Ġsupra":4375,"poli":4376,"Ġkvali":4377,"Ġproblemojn":4378,"tivaj":4379,"line":4380,"Ġtenden":4381,"Ġdeklaris":4382,"Ġsimile":4383,"rako":4384,"âĨĳ":4385,"Ġkomencas":4386,"Ġarbo":4387,"Ġgrandajn":4388,"Ġmuni":4389,"Ġpoeto":4390,"ĠFeder":4391,"ET":4392,"sem":4393,"ĠLito":4394,"Ġaltaj":4395,"ĠGad":4396,"Ġfondis":4397,"Ġaferon":4398,"ĠeÅŃropaj":4399,"Ġhungara":4400,"ĠLibera":4401,"we":4402,"ĠAÅŃstrio":4403,"Ġekzer":4404,"ĠLudovi":4405,"Ġstul":4406,"Äīu":4407,"Ġromp":4408,"ordina":4409,"ario":4410,"ĠKompreneble":4411,"ĠÄĿusta":4412,"arto":4413,"ĠÅĿtu":4414,"ĠPan":4415,"ĠVia":4416,"Ġtiajn":4417,"lendaj":4418,"Ġapartenis":4419,"Ġvenos":4420,"Ġkomunikado":4421,"sed":4422,"Ġ2001":4423,"ste":4424,"Ġhero":4425,"ÅĦ":4426,"Ġservis":4427,"ĠGeor":4428,"Ġopor":4429,"Ġlibrojn":4430,"Ġrenkontis":4431,"konstan":4432,"iuj":4433,"Ġbul":4434,"ĠEo":4435,"Ġkondam":4436,"EK":4437,"Ġdistribu":4438,"Ġmemsta":4439,"Ġmonato":4440,"Ġpatrolita":4441,"tato":4442,"aja":4443,"Ġsimilas":4444,"Ġdia":4445,"ĠDek":4446,"Ġpardon":4447,"Ġinven":4448,"terojn":4449,"Ġjapana":4450,"ria":4451,"ĠIJ":4452,"Ġrevu":4453,"ĠUnuiÄĿintaj":4454,"36":4455,"Ġner":4456,"Ġkonstruita":4457,"Ġlito":4458,"Ġeko":4459,"tional":4460,"ĠUson":4461,"Ġcifer":4462,"ÅľanÄĿoj":4463,"OR":4464,"];":4465,"ĠTero":4466,"Ġgrun":4467,"Ġdatumoj":4468,"pel":4469,"kiloj":4470,"Ġmaterialo":4471,"bil":4472,"Ġdependas":4473,"gata":4474,"kosmo":4475,"ĠEr":4476,"traÄµoj":4477,"Ġrakonto":4478,"Ġurbe":4479,"Ġtaj":4480,"Jes":4481,"Ġindikas":4482,"Ġkontrolendaj":4483,"ciklo":4484,"valo":4485,"gion":4486,"dy":4487,"Ġklin":4488,"Ġlingvis":4489,"Ġpopulara":4490,"nlando":4491,"ĠKos":4492,"Ġligita":4493,"Ġanimo":4494,"Ġmirin":4495,"Ġghi":4496,"Ġproces":4497,"ulis":4498,"Ġakcepti":4499,"Ġfajro":4500,"tic":4501,"Ġinstr":4502,"tivalo":4503,"Ġtrakta":4504,"Ġnomi":4505,"Ġeventoj":4506,"ĠÅĿanÄĿoj":4507,"ĠAmi":4508,"ĠHon":4509,"Ġkoloni":4510,"meto":4511,"bara":4512,"Ġebligas":4513,"Ġmus":4514,"igante":4515,"Ġtrejn":4516,"Ġsoldatoj":4517,"Ġsekre":4518,"ĠneÅŃtra":4519,"Le":4520,"ismaj":4521,"Ġkreas":4522,"Ġkorespon":4523,"ĠnaskiÄĿ":4524,"kus":4525,"Ġetern":4526,"Ġjapan":4527,"tuno":4528,"Ġneniel":4529,"ĠKonsilio":4530,"!\"":4531,"ĠTom":4532,"ĠAt":4533,"ordi":4534,"Ġapu":4535,"Ġscienca":4536,"har":4537,"Ġredu":4538,"des":4539,"Ġkunven":4540,"Ġkompare":4541,"kiu":4542,"Ġsango":4543,"tikan":4544,"Ġfron":4545,"ĠKore":4546,"ĠUnua":4547,"kaÄµo":4548,"Esperan":4549,"Ġblin":4550,"ĠreÄĿi":4551,"Ġklaso":4552,"Ġdezer":4553,"leg":4554,"erotika":4555,"Ġopinio":4556,"ue":4557,"aÄĿo":4558,"Ġurba":4559,"Ġjunuloj":4560,"ĠVarsovio":4561,"ĠAliaj":4562,"ĠGi":4563,"eme":4564,"ĠÅĿajnis":4565,"Ġesprimi":4566,"ĠNacioj":4567,"Ġtermino":4568,"Ġmanif":4569,"Ġkvi":4570,"Ġeksperi":4571,"ĠPartio":4572,"lap":4573,"bulo":4574,"Ġstudentoj":4575,"ĠTut":4576,"kime":4577,"Ġuzita":4578,"ĠÅĿipo":4579,"Ġfide":4580,"Ġneniun":4581,"Ġpublikigis":4582,"ĠGadget":4583,"ajo":4584,"uran":4585,"32":4586,"cho":4587,"Ġposedas":4588,"Ġokulojn":4589,"ilkosmo":4590,"Ġhelpis":4591,"Ġfrazo":4592,"Ġdel":4593,"Ġallo":4594,"Ġref":4595,"emble":4596,"Ġtradicia":4597,"Ġedukado":4598,"ĠAleksand":4599,"ï»":4600,"Ġadmi":4601,"Ġaktive":4602,"nabo":4603,"Ġtutmonda":4604,"ĠÅĿip":4605,"Ġreguloj":4606,"kapab":4607,"ĠEd":4608,"ente":4609,"Ġsever":4610,"Ġludis":4611,"?âĢĿ":4612,"Ġludi":4613,"ĠÄľenerala":4614,"ld":4615,"Ġrespond":4616,"op":4617,"Ġkantoj":4618,"skij":4619,"braj":4620,"Ġprezento":4621,"Ġkredo":4622,"Ġmanon":4623,"Ġargumen":4624,"Ġregado":4625,"Ġveturi":4626,"Ġsve":4627,"ï»¿":4628,"Ġbrus":4629,"Ġinterparo":4630,"Ġklasi":4631,"damento":4632,"Ġreala":4633,"ĠGermana":4634,"Ġkomunumoj":4635,"kola":4636,"Ġoficiale":4637,"Ġtraduki":4638,"turaj":4639,"ĠMartin":4640,"Ġviziti":4641,"ĠAndre":4642,"ĠKas":4643,"Ġprobable":4644,"landoj":4645,"Ġevento":4646,"Ġgus":4647,"nio":4648,"ĠfariÄĿas":4649,"tinoj":4650,"Ġkonsek":4651,"Ġtatuaj":4652,"manÄĿo":4653,"duloj":4654,"ĠvojaÄĿo":4655,"Ã¢":4656,"ģ£":4657,"Ġkontroli":4658,"ĠInf":4659,"bru":4660,"Ġlatina":4661,"Ġalterna":4662,"tegorio":4663,"kadon":4664,"37":4665,"ĠImperio":4666,"Äīan":4667,"eja":4668,"ĠKubo":4669,"Ġche":4670,"Ġtablo":4671,"Ġkolon":4672,"zitaj":4673,"Ġinstruado":4674,"Ġestonteco":4675,"sto":4676,"varo":4677,"Ġlasi":4678,"Ġvero":4679,"Ġkonven":4680,"gadon":4681,"Ġrezer":4682,"radi":4683,"Kun":4684,"vela":4685,"Ġlaboristoj":4686,"Ġsurbaze":4687,"sojn":4688,"ĠDavid":4689,"Ġkatoli":4690,"zy":4691,"Ġlegas":4692,"gy":4693,"Ġspirito":4694,"Ġreprodu":4695,"Ġcele":4696,"Ġfalis":4697,"bono":4698,"Ġmalsam":4699,"Ġtend":4700,"Ġbrita":4701,"ĠFra":4702,"Ġkonstrui":4703,"Ġhonor":4704,"ĠMas":4705,"Ġpaf":4706,"Ġlernejoj":4707,"Ġ70":4708,"ĠtroviÄĿis":4709,"Ġvespero":4710,"Ġniv":4711,"Ġfak":4712,"Ġ80":4713,"teto":4714,"Ġcivitanoj":4715,"ses":4716,"Ġmalaperis":4717,"ï¼":4718,"ĠJohn":4719,"ĠPatro":4720,"antan":4721,"Ġinstruisto":4722,"Ġsekcio":4723,"Ġkunlaboro":4724,"Ġ)":4725,"78":4726,"lano":4727,"traÅŃ":4728,"Ġformon":4729,"Ġ1990":4730,"Ġedzo":4731,"ĠaÅŃtorita":4732,"ley":4733,"Ġkampan":4734,"atan":4735,"faco":4736,"kipedi":4737,"Ġkadre":4738,"Ġcirkonstan":4739,"Ġ188":4740,"Ġian":4741,"Ġintele":4742,"Ġekonomio":4743,"ismon":4744,"Ġlimo":4745,"hor":4746,"ÅĿas":4747,"ĠÄīiutage":4748,"Ġmallong":4749,"Ġkonservi":4750,"Ġludo":4751,"Ġrigardas":4752,"formoj":4753,"bojn":4754,"Åľi":4755,"Ġaer":4756,"lingvan":4757,"bl":4758,"Ġsuges":4759,"ĠLudoviko":4760,"deno":4761,"Ġpol":4762,"Ġkunme":4763,"Ġdirante":4764,"ĠMoskvo":4765,"gramo":4766,"ĠÅĿat":4767,"Ġ2002":4768,"alest":4769,"Ġtekno":4770,"Ġkelkfoje":4771,"39":4772,"Ġpritra":4773,"So":4774,"Ġpale":4775,"ĠSpiri":4776,"Ġmalnovaj":4777,"ĠVol":4778,"Ġinspi":4779,"Ġentuzias":4780,"Ġsid":4781,"Ġat":4782,"ĀĀĀĀĀĀĀĀ":4783,"Ġekzisto":4784,"Ka":4785,"ĠaranÄĿo":4786,"ĠEle":4787,"cipe":4788,"48":4789,"Ġbro":4790,"perni":4791,"uto":4792,"Ġsova":4793,"mili":4794,"ken":4795,"ĠkaÅŃzis":4796,"iz":4797,"Ãº":4798,"Ðº":4799,"tataj":4800,"Ġvikti":4801,"Ġpreni":4802,"estroj":4803,"Ġfing":4804,"Ġpagi":4805,"Ġmodelo":4806,"vanto":4807,"kula":4808,"Ġkredi":4809,"Ġâģ£":4810,"Ġsamaj":4811,"Ġpropono":4812,"Ġantaux":4813,"nes":4814,"diskuto":4815,"',":4816,"Ġkampar":4817,"Ġfrua":4818,"ĠSlovakio":4819,"Ġgreka":4820,"ik":4821,"Ġmemoras":4822,"Bon":4823,"Ġdanke":4824,"Ġrimark":4825,"liz":4826,"Ġmorti":4827,"omon":4828,"Ġkonstruado":4829,"Ġkoordina":4830,"sch":4831,"Ġfos":4832,"Ġnura":4833,"Ġpersona":4834,"Ġutila":4835,"Ġtempera":4836,"usale":4837,"Ġelementoj":4838,"Ġsukceso":4839,"dol":4840,"Ġprogramon":4841,"08":4842,"SC":4843,"ĠBonvolu":4844,"Ġrimedoj":4845,"ĠCivi":4846,"Ġpsiko":4847,"ĉĊ":4848,"teran":4849,"troni":4850,"Ġlevi":4851,"Ġludas":4852,"nov":4853,"Ġinterkonsen":4854,"ĠkonstruaÄµo":4855,"Ġdiman":4856,"ĠÅĿtata":4857,"Ġepi":4858,"Ġliteroj":4859,"Ġebl":4860,"kaÄµoj":4861,"ĠserÄīi":4862,"Ġceteraj":4863,"ĠNeniu":4864,"ĠEÅŃ":4865,"Pa":4866,"Ġkonvers":4867,"Ġsperto":4868,"ĠKal":4869,"Ġcxar":4870,"Ġvasta":4871,"Ġservi":4872,"tm":4873,"ĠIns":4874,"Ġpersek":4875,"ĠTion":4876,"Ġefektiv":4877,"german":4878,"Ġkongru":4879,"Ġliajn":4880,"Ko":4881,"TT":4882,"esa":4883,"ĠPu":4884,"ill":4885,"preni":4886,"Ġordonis":4887,"gano":4888,"del":4889,"Ġ500":4890,"arko":4891,"eso":4892,"ĠOs":4893,"Ġhum":4894,"Ġfina":4895,"Ġakvon":4896,"Ġato":4897,"Ġdomon":4898,"Ġnajbar":4899,"Ġprojektoj":4900,"Ġfas":4901,"Ġsidis":4902,"proksim":4903,"ĠLabor":4904,"ĠAmeriko":4905,"**":4906,"komun":4907,"Ġhejmo":4908,"ÄĿejo":4909,"Ġproponi":4910,"Ġsupozas":4911,"Ra":4912,"Ġfervoj":4913,"Ġplenumi":4914,"trankvi":4915,"ĠInstitu":4916,"Ġevange":4917,"ficejo":4918,"ieraÅŃ":4919,"Ġkreskis":4920,"umis":4921,"Ġgvidis":4922,"ĠKomitato":4923,"anon":4924,"milo":4925,"ÅĿton":4926,"iganta":4927,"Ġkompli":4928,"Ġasertas":4929,"Ġprogramoj":4930,"ujon":4931,"Ġlingvaj":4932,"pere":4933,"lingve":4934,"Ġfortoj":4935,"toso":4936,"zioj":4937,"âĢľ.":4938,"Ġsistemon":4939,"Ġforigi":4940,"ðŁ":4941,"ardo":4942,"Ġmalkon":4943,"Ġgaranti":4944,"Ġdama":4945,"Ġdirektoro":4946,"ritaj":4947,"ĠRomo":4948,"Ġtal":4949,"Ma":4950,"Ġlernado":4951,"bera":4952,"Ġco":4953,"Ĥ¬":4954,"igado":4955,"puti":4956,"Ġmuzeo":4957,"lanto":4958,"jet":4959,"stu":4960,"Ġdifini":4961,"Ġpreferas":4962,"mato":4963,"Â²":4964,"Ġkatolika":4965,"Ġarbaro":4966,"ĠAÅŃstralio":4967,"ĠSovetun":4968,"Ġpal":4969,"Ġgajnis":4970,"kata":4971,"Ġprezidento":4972,"Ġpriskribo":4973,"Ġkra":4974,"Ġvaloro":4975,"ida":4976,"ff":4977,"Ġteo":4978,"Ġmalalta":4979,"Ġbonven":4980,"ministro":4981,"Ġpopol":4982,"Ġknabo":4983,"ĠGNU":4984,"ĠÅĿiaj":4985,"Ġinformon":4986,"Ġvaria":4987,"ĠTemas":4988,"Ä´":4989,"ÅĤa":4990,"scien":4991,"rich":4992,"Ġestro":4993,"ĠPl":4994,"Ġresti":4995,"Ġsubteni":4996,"ĠJerusale":4997,"cu":4998,"oras":4999,"ĠUnue":5000,"alojn":5001,"75":5002,"Ġmanojn":5003,"Ġrakontis":5004,"ajnas":5005,"noj":5006,"Ġkonsul":5007,"ny":5008,"Ġklara":5009,"?\"":5010,"ÄĿita":5011,"Ġvizito":5012,"tagme":5013,"fos":5014,"Ġbom":5015,"Ġcon":5016,"distoj":5017,"ĠUkrainio":5018,"orita":5019,"Ġkvalito":5020,"grafia":5021,"aspe":5022,"ĠSpe":5023,"Ġlernantoj":5024,"Ġtraduk":5025,"Ġ2003":5026,"ĠÎ":5027,"Ġalfab":5028,"ĠKre":5029,"Ġobe":5030,"ĠEsperantista":5031,"kcioj":5032,"ĠPaÅŃlo":5033,"EF":5034,"ÃĤ":5035,"Ġrolo":5036,"Ġfaritaj":5037,"ham":5038,"Ġpovu":5039,"ĠMond":5040,"ĠSekve":5041,"Ġnecesa":5042,"Ġblog":5043,"Ġemfa":5044,"68":5045,"teksto":5046,"Ġesen":5047,"Ġvarme":5048,"Ġrakontas":5049,"49":5050,"Ð»":5051,"Ġproblemon":5052,"ilis":5053,"Ġmuzik":5054,"Ġeventuale":5055,"05":5056,"uris":5057,"Ġdiru":5058,",\"":5059,"Ã¸":5060,"Ġsocialis":5061,"Ġsekso":5062,"lun":5063,"tedra":5064,"Ġideojn":5065,"Ġtom":5066,".:":5067,"Ġdatre":5068,"organi":5069,"Ġbordo":5070,"zion":5071,"posto":5072,"Ġgermanaj":5073,"ans":5074,"Ġbildon":5075,"ĠkuraÄĿ":5076,"45":5077,"rejo":5078,"Ġdemandon":5079,"tz":5080,"kluzi":5081,"Ġsalaj":5082,"ĠFi":5083,"dona":5084,"Ġelspe":5085,"Ġobjekto":5086,"Ġmetro":5087,"66":5088,"Ġares":5089,"dataj":5090,"Ġnacioj":5091,"ev":5092,"Ġbelaj":5093,"ĠSil":5094,"ĠSuda":5095,"estr":5096,"ĠTaj":5097,"Ġklarigi":5098,"Ġmalfeli":5099,"Ġkastelo":5100,"kloj":5101,"Ġetoso":5102,"Ġlago":5103,"Ġkapti":5104,"cian":5105,"09":5106,"kimedia":5107,"likto":5108,"....":5109,"ĠParla":5110,"ĠTrans":5111,"Ġarte":5112,"Ġski":5113,"Ġwww":5114,"Ġpenso":5115,"ĠaÄīeti":5116,"Â®":5117,"liÄĿis":5118,"Ġofen":5119,"saj":5120,"Ġkonek":5121,"ĠNorda":5122,"Ġsubjek":5123,"Ġteorio":5124,"Ġforpas":5125,"Ġaspekto":5126,"Ġdifino":5127,"dumo":5128,"Ġstranga":5129,"ego":5130,"Ġkursoj":5131,"Ġfilmoj":5132,"trio":5133,"nun":5134,"granda":5135,"Ġnukle":5136,"Ġgrandega":5137,"emokra":5138,"ÄĿinta":5139,"kejo":5140,"fron":5141,"umado":5142,"Ġestrar":5143,"Ġsube":5144,"ĠRadio":5145,"Ġfan":5146,"zonoj":5147,"spekti":5148,"ĠaÅŃd":5149,"ĠLingvo":5150,"Ġizo":5151,"Ġchar":5152,"riko":5153,"digis":5154,"Ġvento":5155,"Ġaldonis":5156,"06":5157,"Ġscio":5158,"ĠBan":5159,"Nu":5160,"Ġprokla":5161,"Fran":5162,"maniere":5163,"Ġeliris":5164,"gel":5165,"taÄµojn":5166,"Ġflugi":5167,"berto":5168,"ĠaÅŃtoma":5169,"Ġverda":5170,"Ġkonsideri":5171,"Ġrekta":5172,"LID":5173,"pornografio":5174,"ers":5175,"Ġagri":5176,"Ġanarki":5177,"Ġpuri":5178,"lion":5179,"ald":5180,"Ġprilabor":5181,"Ġtradicio":5182,"Ġgo":5183,"Ġtrapas":5184,"Ġfratoj":5185,"Ġkonsentas":5186,"kel":5187,"ĠSovetunio":5188,"pado":5189,"Ġpartopreno":5190,"Ã§":5191,"Äµe":5192,"ĠFolio":5193,"Ġgermanoj":5194,"Ġkomputilo":5195,"tago":5196,"Ġmaltrankvi":5197,"fgan":5198,"fas":5199,"Ġstrukturo":5200,"Ġdeparte":5201,"Ġdemand":5202,"Ġsemajnoj":5203,"Ġraporto":5204,"ĠBelgio":5205,",âĢĿ":5206,"ĠVoj":5207,"ĠÅĿian":5208,"uze":5209,"Ġpeto":5210,"jan":5211,"Ġkonsiderata":5212,"Ġprofunde":5213,"Ġlongaj":5214,"Ġorto":5215,"Ġmeza":5216,"Ġkoncerna":5217,"ĠBlan":5218,"ĠaÅŃskulti":5219,"intan":5220,"Ġfunkcio":5221,"ĠJor":5222,"Ġinterreto":5223,"tastro":5224,"disto":5225,"tig":5226,"ĠMonda":5227,"Ġunun":5228,"glute":5229,"Äīismo":5230,"vÃ¡":5231,"Ġkazoj":5232,"Ġornam":5233,"blis":5234,"ĠiÄĿas":5235,"Ġlernas":5236,"Ġlasis":5237,"ĠDia":5238,"Ġfinis":5239,"ĠÅĿanÄĿo":5240,"Ġmetroj":5241,"daÅŃrinde":5242,"ĠRos":5243,"ĠKomisiono":5244,"Ġfiloj":5245,"Ġprodukta":5246,"Ġinfluo":5247,"RA":5248,"ĠPoli":5249,"embleo":5250,"ktor":5251,"Ġindustrio":5252,"Ġplenkres":5253,"Pre":5254,"keto":5255,"ĠleÄĿ":5256,"Ġkomerco":5257,"lioj":5258,"Ġletero":5259,"simi":5260,"klas":5261,"Ġsent":5262,"ĠAnton":5263,"Ġunuafoje":5264,"und":5265,"Ġkolor":5266,"tadis":5267,"ĠSem":5268,"vorte":5269,"ĠES":5270,"maniero":5271,"ministra":5272,"Ġpasis":5273,"ĠChar":5274,"Ġinternacian":5275,"Ġdeba":5276,"igra":5277,"Ġsolvo":5278,"leo":5279,"Ġstudis":5280,"}}":5281,"ĠserÄīas":5282,"VALID":5283,"ĠBona":5284,"ĠCas":5285,"Ġmalsano":5286,"âĢľ,":5287,"angle":5288,"âĪŀâĪŀâĪŀâĪŀ":5289,"Ġama":5290,"peten":5291,"Ġlau":5292,"ĠTro":5293,"Ġdeziris":5294,"Ġkonkre":5295,"Ġlibereco":5296,"centro":5297,"Ġkondukis":5298,"Ili":5299,"ĠBarato":5300,"Sur":5301,"Ġree":5302,"mame":5303,"Ġskan":5304,"Ġenergio":5305,"regis":5306,"ĠHam":5307,"Ġekskur":5308,"Ġnacio":5309,"kcep":5310,"Ġstatis":5311,"vineo":5312,"Ġprovo":5313,"ubile":5314,"Ġkonk":5315,"Ġsil":5316,"Ġpublikigita":5317,"tempaj":5318,"Ġeki":5319,"Ġdokumentoj":5320,"Ġpura":5321,"Ġvul":5322,"ĠMad":5323,"ĠsufiÄīas":5324,"Ġlegantoj":5325,"irkaÅŃ":5326,"kole":5327,"Ġorganizado":5328,"ĠCentro":5329,"Ġfilozofio":5330,"ĠÄīapi":5331,"ĠCetere":5332,"ito":5333,"ÅĿoj":5334,"Ġkreskas":5335,"ÃŃn":5336,"Ġtempoj":5337,"Ġkoti":5338,"Ġspecialan":5339,"Ġaltan":5340,"dinto":5341,"Ġplia":5342,"Ġmalbone":5343,"TE":5344,"ef":5345,"muzi":5346,"Äīuro":5347,"Ġvolo":5348,"AnkaÅŃ":5349,"Ġredaktoro":5350,"Ġiama":5351,"naÅŃ":5352,"Ġsistemoj":5353,"ĠriÄīa":5354,"Ġrespondo":5355,"ĠEkzistas":5356,"ÄīiÄīo":5357,"Ġrifu":5358,"veblas":5359,"tikon":5360,"Ġebla":5361,"Ġkomitato":5362,"amikoj":5363,"Ġsekretario":5364,"Ġkresko":5365,"ĠBerlino":5366,"ĠFinnlando":5367,"Äīer":5368,"Ġpartn":5369,"Ġusonaj":5370,"Ġaven":5371,"Ġprocezo":5372,"Ġalven":5373,"Ġfirmao":5374,"!âĢĿ":5375,"Ġvideo":5376,"ĠCa":5377,"Ġatendis":5378,"Ġdomoj":5379,"ĠKarlo":5380,"ĠÅĿlos":5381,"lecon":5382,"Ġatenton":5383,"IM":5384,"Ġlud":5385,"Ġekstera":5386,"ĠmanÄĿi":5387,"eblan":5388,"Ġsolvi":5389,"Ġton":5390,"Ġsude":5391,"ĠfraÅŃ":5392,"Ġsekvaj":5393,"Ġrespondi":5394,"Ġministro":5395,"Ġglor":5396,"kultura":5397,"Ġrajtojn":5398,"Ġsendube":5399,"Ġprivata":5400,"Ġpapo":5401,"Ġmira":5402,"Ġ1980":5403,"LA":5404,"Ġfamilioj":5405,"takto":5406,"Ġdirekto":5407,"Ekde":5408,"ĠpoÅĿt":5409,"Ġbor":5410,"ĠDos":5411,"tivan":5412,"ĠHin":5413,"Ġpaper":5414,"Ġkontakto":5415,"Ġbaza":5416,"Ġpie":5417,"ong":5418,"Ġie":5419,"ĠKri":5420,"akti":5421,"hal":5422,"Ġtradukis":5423,"sal":5424,"mante":5425,"gxis":5426,"Ġsinsek":5427,"bus":5428,"Ġ45":5429,"Ġtipo":5430,"dano":5431,"Ġbonajn":5432,"Ġhejmen":5433,"ĠLondono":5434,"ĠPalest":5435,"ĠKato":5436,"ĠÄīiujare":5437,"Ġfotoj":5438,"teni":5439,"prezidanto":5440,"Ġokazon":5441,"dinda":5442,"fluti":5443,"Ġfri":5444,"Ġpeti":5445,"ich":5446,"ĠJar":5447,"keo":5448,"Ġklubo":5449,"kras":5450,"lau":5451,"Ġhelpon":5452,"Ġvaste":5453,"peto":5454,"iojn":5455,"tage":5456,"faci":5457,"Ġuzante":5458,"Ġplantoj":5459,"Ġparko":5460,"Ġsuspe":5461,"Ġbrazi":5462,"Ġakade":5463,"elojn":5464,"Ġbud":5465,"Ġmuro":5466,"Ġrapida":5467,"Ġforiris":5468,"tigon":5469,"pelo":5470,"tnas":5471,"44":5472,"Ġkonver":5473,"Ġtiama":5474,"Ġmalsupren":5475,"pernity":5476,"TA":5477,"ĠâĢķ":5478,"ĠUS":5479,"Ġfontoj":5480,"Ġpolico":5481,"tradu":5482,"ĠVinilkosmo":5483,"ĠÄĿisda":5484,"Ġakceptas":5485,"INVALID":5486,"Ġkodo":5487,"ĠOrienta":5488,"Ġsubpre":5489,"Ġkomerca":5490,"ĠMedi":5491,"Ġpolaj":5492,"ajno":5493,"menton":5494,"landanoj":5495,"59":5496,"alistoj":5497,"Ġplifor":5498,"ĠSvedio":5499,"Ġteror":5500,"Ġkoncepto":5501,"Ġbus":5502,"Ġdispu":5503,"Ġbazita":5504,"Ġnombron":5505,"tinda":5506,"ĠBab":5507,"Ġeldonita":5508,"Ġregule":5509,"gro":5510,"Ġparen":5511,"ĠIrlando":5512,"PL":5513,"Ġprincipo":5514,"ink":5515,"Ġkialoj":5516,"Ġita":5517,"Ġkatal":5518,"ĠÄĪio":5519,"Ġsekvan":5520,"ĠfiniÄĿis":5521,"Ġmerka":5522,"Ġregas":5523,"Ġ90":5524,"usta":5525,"Ġuzon":5526,"Ġreligia":5527,"ÅĿuti":5528,"Ġbiblioteko":5529,"Ġfortika":5530,"ĠBro":5531,"UN":5532,"Ġpliaj":5533,"Ġ---":5534,"vero":5535,"Ġkred":5536,"Ġanoj":5537,"Ġmalhe":5538,"ĠArgen":5539,"letoj":5540,"Ġsento":5541,"Ġtradukoj":5542,"Ġmall":5543,"Ġarboj":5544,"Ġpartioj":5545,"ĠCerte":5546,"emi":5547,"Ġfort":5548,"Ġatingas":5549,"elonge":5550,"Ġdiferenco":5551,"ÄĪar":5552,"Ġregno":5553,"Mia":5554,"gaÅŃ":5555,"Ġkron":5556,"nalo":5557,"antaÅŃ":5558,"pensi":5559,"sistemo":5560,"Ġdeter":5561,"Ġastron":5562,"ÄĿeni":5563,"bir":5564,"vaÄµoj":5565,"46":5566,"Ġsto":5567,"ĠEdu":5568,"pol":5569,"Ġimperiestro":5570,"teo":5571,"ĠantaÅŃaj":5572,"Ġintereso":5573,"Ġkompanio":5574,"Ġalu":5575,"umas":5576,"Ġkombin":5577,"Ġverkita":5578,"giono":5579,"tim":5580,"Ġhavu":5581,"ĠIzrael":5582,"Ġkonflik":5583,"Ġserioze":5584,"Ġmalofte":5585,"vetur":5586,"Ġmiloj":5587,"198":5588,"nis":5589,"Ġdisde":5590,"Ġokazi":5591,"ĠTia":5592,"Ġpartojn":5593,"Je":5594,"79":5595,"gre":5596,"igno":5597,"ĠbaziÄĿas":5598,"Ġstaci":5599,"Ġlaux":5600,"Ġmarbordo":5601,"Ġsigno":5602,"Ġvenonta":5603,"ster":5604,"sko":5605,"Ġbr":5606,"nomo":5607,"Ġligno":5608,"ĠEsperantis":5609,"kcidento":5610,"Ġdeven":5611,"inojn":5612,"ĠTele":5613,"romp":5614,"Ġsubteno":5615,"Sa":5616,"eraj":5617,"picx":5618,"hat":5619,"NM":5620,"Ġiru":5621,"55":5622,"Ġarbaroj":5623,"Ġcetere":5624,"ĠaÅŃtoroj":5625,"ĠLitovio":5626,"Ġenspe":5627,"Ġnorde":5628,"Ġmalrapide":5629,"Ġstan":5630,"Ġorganizi":5631,"ÄĪiuj":5632,"Ġbirdo":5633,"Ġtranslok":5634,"Ġkoncerne":5635,"Ġkonstante":5636,"ĠBir":5637,"ĠFri":5638,"Ġkatastro":5639,"zolu":5640,"ĠdaÅŃris":5641,"sper":5642,"set":5643,"cido":5644,"Ġpersone":5645,"ĠhaÅŃ":5646,"Ġposta":5647,"Ġjardekoj":5648,"ĠaliÄĿis":5649,"ĠruÄĿa":5650,"Su":5651,"Ġporde":5652,"Ġdialo":5653,"Ġrestor":5654,"ira":5655,"ĠsufiÄī":5656,"ido":5657,"Å¾":5658,"dinte":5659,"Ġiujn":5660,"Ġvenkis":5661,"Libera":5662,"ĠEsperantisto":5663,"Ja":5664,"panoj":5665,"Ġadop":5666,"cy":5667,"naskiÄĿis":5668,"Ġneo":5669,"ĠGer":5670,"anton":5671,"mir":5672,"Ġfenestro":5673,"Ġligo":5674,"ziaj":5675,"Ġpac":5676,"Ġamaskomuni":5677,"ima":5678,"omeno":5679,"07":5680,"fal":5681,"Ġprovas":5682,"Ġpej":5683,"bran":5684,"bab":5685,"aciaj":5686,"Ġsukcese":5687,"Ġparlamento":5688,"Ġhipo":5689,"gulo":5690,"Ġsendepende":5691,"Ġreen":5692,"ĠPres":5693,"Ġokazinta":5694,"mpo":5695,"Ġtradukado":5696,"Ġmalsukces":5697,"...]":5698,"Ġdifinita":5699,"Mul":5700,"ĠIJK":5701,"Ġtera":5702,"bano":5703,"Ġprezo":5704,"Ġlongan":5705,"lingvis":5706,"Ġinteli":5707,"Ġprofunda":5708,"Äīero":5709,"ĠâĤ¬":5710,"Ġhezi":5711,"cs":5712,"kau":5713,"Ġparolantoj":5714,"Ġmatene":5715,"Ġpet":5716,"tian":5717,"Ta":5718,"Ġkonferenco":5719,"ksoj":5720,"iras":5721,"farita":5722,"mentojn":5723,"Ġkonis":5724,"Ġkutima":5725,"rum":5726,"Ġlast":5727,"time":5728,"ĠÄīeval":5729,"Ġjuda":5730,"Ġopinion":5731,"kismo":5732,"til":5733,"Ġbre":5734,"Ġsvis":5735,"ĠaÅŃton":5736,"Ġapartaj":5737,"Ġkuracisto":5738,"ĠCol":5739,"Ġkonsekven":5740,"laroj":5741,"ĠNew":5742,"Ġkonstruis":5743,"Ġimperio":5744,"ĠBuda":5745,"Ġekstere":5746,"ĠMala":5747,"Ġfloroj":5748,"Ġakuz":5749,"Ġdekstra":5750,"Ġkvartalo":5751,"AM":5752,"Ġkulturoj":5753,"æľ":5754,"vaÄµo":5755,"Ġmaksim":5756,"Ġplanedo":5757,"Ġaspektas":5758,"Ġ1970":5759,"ekzemple":5760,"52":5761,"Ġorganizoj":5762,"tie":5763,"Ġsemin":5764,"Ġmales":5765,"LO":5766,"Ġkoncernas":5767,"Ġpiedoj":5768,"ktitaj":5769,"ÄĪiu":5770,"lara":5771,"Ġformas":5772,"Ġhomon":5773,"buo":5774,"sin":5775,"ĠAnglio":5776,"Ġate":5777,"ðŁĺ":5778,"tora":5779,"ĠÅĿtat":5780,"ĠTor":5781,"Ġdonita":5782,"90":5783,"ĠGrek":5784,"aux":5785,"Ġinstitucioj":5786,"ameriko":5787,"Pli":5788,"Ġemin":5789,"iki":5790,"Ġemas":5791,"Ġgaj":5792,"Ġdisvolvi":5793,"ĠLen":5794,"Ġlimigita":5795,"Ġkialo":5796,"Ġregion":5797,"Ġbatal":5798,"ĠpaÅŃ":5799,"Ġretro":5800,"ĠMer":5801,"ĠII":5802,"Ġlastan":5803,"bita":5804,"Ġrecen":5805,"Ġvidos":5806,"Ġpers":5807,"Ġpretas":5808,"Ġvenko":5809,"pin":5810,"Ġpul":5811,"Ġpilgri":5812,"Ġkolekto":5813,"ĠOkcidenta":5814,"Ġfremdaj":5815,"instru":5816,"libroj":5817,"ĠBre":5818,"Ġrenov":5819,"Ġaliflanke":5820,"ĠaliÄĿ":5821,"Am":5822,"Ġapero":5823,"ĠÅĿatus":5824,"72":5825,"Ġdokumento":5826,"ĠbedaÅŃrinde":5827,"Ġagoj":5828,"ĠAu":5829,"Ġsxi":5830,"Ġinteg":5831,"ĠÄĪina":5832,"Ġpovo":5833,"viden":5834,"Ġreprezentas":5835,"ĠmalÅĿ":5836,"ĠKategorio":5837,"servo":5838,"Ġfut":5839,"Ġdankas":5840,"lismo":5841,"ĠMuzeo":5842,"Ġveni":5843,"malpli":5844,"ĠVene":5845,"book":5846,"Ġskulp":5847,"Ġkontras":5848,"Ġgub":5849,"Ġgravajn":5850,"vajo":5851,"Ġflanke":5852,"Ġtekstojn":5853,"Ġliston":5854,"http":5855,"baro":5856,"Ġpercep":5857,"ĠTago":5858,"Ġoportun":5859,"Gran":5860,"ĠOl":5861,"iu":5862,"zaÄµoj":5863,"ieron":5864,"forme":5865,"Ġmaljuna":5866,"Montri":5867,"Ġrilatojn":5868,"Ġdistingi":5869,"ĠvizaÄĿ":5870,"Ġatendi":5871,"Ġgxin":5872,"ĠÄīeestis":5873,"porto":5874,"hr":5875,"Ġmid":5876,"ĠDemokra":5877,"koraÅŃ":5878,"Ġprinco":5879,"ĠaÄīetis":5880,"ĠinaÅŃ":5881,"bicio":5882,"Ġvolonte":5883,"INVALIDINVALID":5884,"Ġkonfuz":5885,"igaj":5886,"Ġmezo":5887,"Ġricevos":5888,"ĠÅĿanÄĿis":5889,"Ġklasika":5890,"Ġkonflikto":5891,"ãĢ":5892,"Ġkampoj":5893,"Ġkristana":5894,"fika":5895,"anojn":5896,"ĠkonstruaÄµoj":5897,"vil":5898,"ĠFeli":5899,"Ġhelpos":5900,"ligitaj":5901,"gna":5902,"Dan":5903,"Ġprun":5904,"ÅĿon":5905,"Ġdemokratio":5906,"Ġpredi":5907,"ejojn":5908,"ege":5909,"Ġslova":5910,"Ġmalka":5911,"Ġscipo":5912,"Ġkantis":5913,"Kvankam":5914,"Ġ300":5915,"ablono":5916,"Ġabon":5917,"Ġtimo":5918,"Ġkompeten":5919,"Ġdifek":5920,"Ġrapid":5921,"Ġeniri":5922,"Ġintervju":5923,"cita":5924,"Ġbes":5925,"ĠSame":5926,"konsento":5927,"Ġsekureco":5928,"Ø§":5929,"cele":5930,"ĠOficejo":5931,"ĠMeksiko":5932,"Ġkver":5933,"Ġespero":5934,"dt":5935,"Ġkoman":5936,"Ġterura":5937,"fu":5938,"plej":5939,"ĠrenkontiÄĿoj":5940,"Ġkvara":5941,"Ġuzu":5942,"ĠAnjo":5943,"Ġinfanojn":5944,"ĠLiaj":5945,"Ġdemandojn":5946,"Ġmalkovris":5947,"AÅŃ":5948,"fino":5949,"Ġverkojn":5950,"Ġkanta":5951,"port":5952,"Ġrezultoj":5953,"76":5954,"Ġkoler":5955,"ĠÄīeÄ¥a":5956,"az":5957,"Ġentenas":5958,"ĠLern":5959,"kilo":5960,"...)":5961,"Ġinteresaj":5962,"ĠÅĿer":5963,"ĠGar":5964,"Ġuzanto":5965,"Ġagadon":5966,"pedi":5967,"54":5968,"pabla":5969,"Ġsituacion":5970,"Gla":5971,"IO":5972,"Ġdecidi":5973,"Ġmemoro":5974,"Ġperspekti":5975,"Ġspekta":5976,"Ġedzi":5977,"Ġpraktiko":5978,"Ã±":5979,"ĠkaÅŃzo":5980,"Ġperseku":5981,"âĢ¦]":5982,"Ġhejme":5983,"Ġklarigas":5984,"Trans":5985,"Ġoriente":5986,"Ġtelevi":5987,"Ġalbumo":5988,"ung":5989,"Ġkredis":5990,"kanto":5991,"ĠLA":5992,"Ġanti":5993,"ĠHu":5994,"ÄĽ":5995,"dago":5996,"Ġpligran":5997,"ĠÃª":5998,"cal":5999,"ĠFilo":6000,"Ġamuz":6001,"parolantoj":6002,"Ġhazarde":6003,"Ġradikoj":6004,"hom":6005,"Ġvon":6006,"dal":6007,"ĠleÄĿoj":6008,"IR":6009,"ĠVan":6010,"ĠIrano":6011,"Ġreprezentantoj":6012,"digo":6013,"Ġelmon":6014,"Ġder":6015,"Ġbezonis":6016,"Ġkvadra":6017,"Ġpermesis":6018,"Ġlun":6019,"Ġtoler":6020,"Ġinteligen":6021,"non":6022,"Ġsopi":6023,"Ġstudi":6024,"Â´":6025,"Ġtimas":6026,"deo":6027,"Ġentreprenoj":6028,"Ġlegen":6029,"Ġrespondas":6030,"Ġsimbol":6031,"Ġsidejo":6032,"mano":6033,"Ġdistanco":6034,"zino":6035,"Ġeldi":6036,"lande":6037,"Ġelektro":6038,"feroj":6039,"voje":6040,"ĠtaÅŃga":6041,"Ġteg":6042,"Ġmalfrue":6043,"Ġeldonis":6044,"Ġzono":6045,"Ġdonos":6046,"Ġportas":6047,"TM":6048,"Ġparame":6049,"ĠSh":6050,"ĠaÅŃdi":6051,"Ġcelon":6052,"Ġpreta":6053,"Ġdiskon":6054,"Ġoriginalo":6055,"ĠEuro":6056,"ĠKie":6057,"Ġrespektive":6058,"Ġvespere":6059,"tedralo":6060,"amon":6061,"Ġregn":6062,"Ġvarma":6063,"proble":6064,"ĠruÄĿ":6065,"Ġdemandi":6066,"Ġmalgrandan":6067,"listo":6068,"ĠAle":6069,"Ġpublike":6070,"ĠÄµur":6071,"pole":6072,"Ġproprajn":6073,"klin":6074,"ĠAb":6075,"ĠÄīia":6076,"Ġkaptis":6077,"Ġvege":6078,"Äĩ":6079,"ĠÄīiutaga":6080,"cin":6081,"Ġdisponebla":6082,"ĠHodiaÅŃ":6083,"monda":6084,"Ġlandli":6085,"tujo":6086,"Ġalportis":6087,"EE":6088,"Ġgej":6089,"liam":6090,"ĠWal":6091,"rojekto":6092,"Ġdro":6093,"ĠPara":6094,"aluton":6095,"Ġpejza":6096,"gin":6097,"Ġstudo":6098,"Ġknabino":6099,"58":6100,"Ġdiab":6101,"ĠFar":6102,"Ġflankoj":6103,"igxis":6104,"tona":6105,"Ġmulto":6106,"Ġgvidanto":6107,"Ġsimbolo":6108,"ĠmalÄĿoj":6109,"Ġkomunan":6110,"Ġprav":6111,"ĠKolom":6112,"jojn":6113,"Ġdenas":6114,"Ġrestos":6115,"ity":6116,"ĠkaÅŃzas":6117,"Ġkondukas":6118,"uzaiko":6119,"Ġversion":6120,"Ġcm":6121,"Ġgeedzi":6122,"Ġservas":6123,"Ġstarigis":6124,"Ġmuzikon":6125,"Ġinvitas":6126,"Ġsomero":6127,"emonio":6128,"Ġnomojn":6129,"Ġpriskribas":6130,"Ġjena":6131,"Afri":6132,"Ġsekv":6133,"Ġprodukto":6134,"Ġteritorioj":6135,"gantaj":6136,"Ġsendependa":6137,"yle":6138,"ĠHom":6139,"clap":6140,"Ġprefi":6141,"ĠKontakto":6142,"ĠMez":6143,"Ġprofesia":6144,"Ġmenciita":6145,"taga":6146,"paco":6147,"Ġvojoj":6148,"Ġsavi":6149,"Ġsciencistoj":6150,"42":6151,"ĨįãĨįãĨįãĨįãĨįãĨįãĨįãĨįã":6152,"Ġopiniis":6153,"99":6154,"Ġfro":6155,"Ġbelan":6156,"Ġinkluzivas":6157,"Ġanoncis":6158,"deble":6159,"ith":6160,"ĠMilito":6161,"Ġfrazoj":6162,"03":6163,"Ġfamaj":6164,"ĠRuman":6165,"ĠTiun":6166,"Ġeksterlandaj":6167,"ĠBudape":6168,"Ġmalfermis":6169,"tiaj":6170,"Ġmiz":6171,"Ġlign":6172,"Ġforgesis":6173,"ĠÅĿpar":6174,"Ġnormala":6175,"bado":6176,"Ġsamide":6177,"Ġnuntempa":6178,"Ġpasinta":6179,"57":6180,"Ġnee":6181,"Ġbesto":6182,"Ġkomfor":6183,"Ġsankt":6184,"47":6185,"ÅĿt":6186,"Ġdeziro":6187,"ĠÄĪeÄ¥io":6188,"fr":6189,"Ġdikta":6190,"kribu":6191,"Ġinstrui":6192,"Ġprovizor":6193,"Ġzorg":6194,"igata":6195,"ĠSpirito":6196,"Ġorganizis":6197,"Ġportuga":6198,"Ġdemandas":6199,"Ġenhavon":6200,"ui":6201,"uli":6202,"ĠWe":6203,"ĠsaÄĿ":6204,"Ġkonsentis":6205,"deko":6206,"Ġokcidente":6207,"Ġkoncerto":6208,"Ġfe":6209,"Ġ36":6210,"ĠMedia":6211,"Ġepo":6212,"Ġnego":6213,"53":6214,"ĠÂ©":6215,"ĠFu":6216,"Ġvalidas":6217,"Ġcirkonstancoj":6218,"Ġderi":6219,"ĠelÅĿu":6220,"ĠBj":6221,"ĠmorgaÅŃ":6222,"!)":6223,"Ġstratoj":6224,"Ġligitaj":6225,"Ġentrepreno":6226,"Ġsinjorino":6227,"âĢŀ":6228,"erna":6229,"Ġsukcesa":6230,"enato":6231,"Ġinkludas":6232,"esti":6233,"aÄĿe":6234,"41":6235,"ĠMari":6236,"Ġmalproksime":6237,"Sek":6238,"ĠVe":6239,"Ġnecese":6240,"Ġskribita":6241,"Ġelektroni":6242,"endaro":6243,"loven":6244,"Ġplano":6245,"Ġilus":6246,"Ġeblecon":6247,"Ġhistoriaj":6248,"let":6249,"dilo":6250,"ĠMalgraÅŃ":6251,"Ġpraktike":6252,"Ġaktuala":6253,"Ba":6254,"Ġdelonge":6255,"ĠHelpo":6256,"skribo":6257,"urojn":6258,"Ġeltro":6259,"Ġplus":6260,"Ġinsuloj":6261,"vorto":6262,"Ġkoncentri":6263,"Ġkonson":6264,"Ġekkri":6265,"Ġreligiaj":6266,"ç¤¼åĮħç¤¼åĮħç¤¼åĮħç¤¼åĮħç¤¼åĮħç¤¼åĮħç¤¼åĮħç¤¼åĮħç¤¼åĮħç¤¼åĮħç¤¼åĮħç¤¼åĮħç¤¼åĮħç¤¼åĮħç¤¼åĮħç¤¼åĮħç¤¼åĮħç¤¼åĮħç¤¼åĮħç¤¼åĮħç¤¼åĮħç¤¼åĮħç¤¼åĮħç¤¼åĮħç¤¼åĮħç¤¼åĮħç¤¼åĮħç¤¼åĮħç¤¼åĮħç¤¼åĮħç¤¼åĮħç¤¼åĮħ":6267,"lava":6268,"ĠEstr":6269,"iÄĿanta":6270,"Ġkontakti":6271,"Ġversioj":6272,"Ġdemon":6273,"cebook":6274,"Ġkore":6275,"hol":6276,"Ġprelego":6277,"ĠJean":6278,"pr":6279,"Ġkien":6280,"hibicio":6281,"ĠdaÅŃras":6282,"Ġilo":6283,"Ġtavo":6284,"Ġsekvi":6285,"Ġtomb":6286,"kanta":6287,"verso":6288,"ä¸":6289,"ĠLis":6290,"Ġinstan":6291,"Ġklarigis":6292,"ĠÄĿardeno":6293,"Ġrajto":6294,"yn":6295,"Ġ1920":6296,"Ã¹":6297,"Ġdetale":6298,"ĠvilaÄĿ":6299,"ÄĿado":6300,"ĠGal":6301,"orizon":6302,"Ġtalen":6303,"fre":6304,"ĠBor":6305,"Ġgvidantoj":6306,"kru":6307,"Ġreale":6308,"penha":6309,"Ġech":6310,"Ġrezolu":6311,"Ġverbo":6312,"lernejo":6313,"ĠMarta":6314,"Ġakci":6315,"ĠSankt":6316,"Ġpripens":6317,"ĠAlia":6318,"Ġeksteraj":6319,"logion":6320,"parolo":6321,"Ġ1960":6322,"ĠDanio":6323,"Ġ(=":6324,"Ġobjektoj":6325,"Ġdrin":6326,"ĠStan":6327,"Ġkrizo":6328,"insulo":6329,"Ġfinanca":6330,"dri":6331,"astio":6332,"Ġmerkato":6333,"Äīita":6334,"Ġ1992":6335,"Ġfrukto":6336,"zumo":6337,"Ġiros":6338,"tologio":6339,"meti":6340,"Ġmilita":6341,"ÅĤaw":6342,"Ġvalo":6343,"Ġmembrojn":6344,"Ġtradiciaj":6345,"ĠParlamento":6346,"Ġgenro":6347,"Ġcom":6348,"Ġ32":6349,"Ġsimpa":6350,"ĠsenÄī":6351,"Ġekzemploj":6352,"ĠBil":6353,"pus":6354,"ĠvizaÄĿon":6355,"ĠArgentino":6356,"ĠDSC":6357,"ĠIuj":6358,"Ġmetodoj":6359,"Ġoperaci":6360,"Ġpoemoj":6361,"Ġurbeto":6362,"Ġplenan":6363,"Ġinstruistoj":6364,"43":6365,"lingvoj":6366,"dom":6367,"cher":6368,"Ġgeamikoj":6369,"Ġrespubliko":6370,"Ġpartoprenas":6371,"ĠantaÅŃvi":6372,"Ġ1999":6373,"ĠAma":6374,"Ġokupis":6375,"Ġrememor":6376,"Ġetn":6377,"Ġeksplu":6378,"Ġabsolu":6379,"esko":6380,"Ġgrav":6381,"Ġteron":6382,"Ġpostulis":6383,"02":6384,"manoj":6385,"Ġellabor":6386,"Ġsimplaj":6387,"Ġfanta":6388,"Ġkreado":6389,"gumi":6390,"Ġheb":6391,"ĠInstituto":6392,"KK":6393,"iÄĿoj":6394,"tenon":6395,"Ġkompleta":6396,"Ġmodernaj":6397,"Ġporno":6398,"deknaÅŃ":6399,"Ġanalizo":6400,"Ġperfi":6401,"Ġvolus":6402,"ĠVirg":6403,"damo":6404,"juo":6405,"Ġrobo":6406,"Ġvaloron":6407,"Ġcertigi":6408,"ĠAmeri":6409,"ĠReÄĿ":6410,"Ġdetermin":6411,"Ġaperos":6412,"GlaÄīero":6413,"sol":6414,"Ġ48":6415,"Ġregistrita":6416,"Ġsano":6417,"Ġportis":6418,"Ġretejon":6419,"Ġamon":6420,"ÄĿante":6421,"Ġmetas":6422,"ĠÄīesis":6423,"Ġverki":6424,"Ġpopola":6425,"Ġhavus":6426,"Ġnenia":6427,"Ġpublikaj":6428,"âĸĳ":6429,"lantaj":6430,"ĠVieno":6431,"Sen":6432,"Wiki":6433,"Ġrezign":6434,"1234":6435,"ĠWor":6436,"esulino":6437,"Ġretpa":6438,"ĠRaj":6439,"Ġpersonojn":6440,"Ġnega":6441,"Ġhid":6442,"Ġlicen":6443,"ĠMis":6444,"Ġradiko":6445,"Ġfenomeno":6446,"dezi":6447,"lanoj":6448,"Jam":6449,"Saluton":6450,"Ġinterne":6451,"Ġprinc":6452,"ketoj":6453,"Ġpastroj":6454,"geno":6455,"ĠÅĿir":6456,"ĠkaÅŃz":6457,"Ġalko":6458,"ĠLigo":6459,"Ġsekure":6460,"Ġnere":6461,"danÄĿ":6462,"ĠKongo":6463,"Ġbildojn":6464,"Ġkristanoj":6465,"Ġgazetoj":6466,"123456":6467,"Äģ":6468,"haveno":6469,"Ġesprimas":6470,"Ä¥i":6471,"Ġejo":6472,"Ġjare":6473,"Ġgrado":6474,"Ġ1995":6475,"Ġfruaj":6476,"kino":6477,"pil":6478,"ĠWa":6479,"Ġkoloro":6480,"8765":6481,"deknaÅŃi":6482,".âĢľ":6483,"Ġfremd":6484,"ĠFlor":6485,"ĠinteresiÄĿas":6486,"Ġaraba":6487,"pru":6488,"taloj":6489,"Ġkonkurso":6490,"ksio":6491,"ĠÅĿata":6492,"ĠÄīeÄ¥":6493,"Ġlukto":6494,"ĠPortuga":6495,"Ġkaraktero":6496,"fia":6497,"dato":6498,"Ġleteron":6499,"balo":6500,"Ġklar":6501,"doro":6502,"dantaj":6503,"vortoj":6504,"ĠDankon":6505,"ĠMadri":6506,"cri":6507,"Ġdankon":6508,"Ġblankaj":6509,"Ġmontr":6510,"ĠfariÄĿi":6511,"Ġefiko":6512,"vadon":6513,"Ġakv":6514,"trejo":6515,"ĠKonstitu":6516,"Ġkapablo":6517,"Ġkunsido":6518,"Ġ×":6519,"Ġpinto":6520,"Ġkonker":6521,"Ġtaskon":6522,"Ġdatreveno":6523,"Ġsorto":6524,"EU":6525,"ĠFil":6526,"Ġparlamen":6527,"igan":6528,"Ġ1991":6529,"paci":6530,"debla":6531,"Kel":6532,"Ġukra":6533,"Ġ1998":6534,"ĠÄĿojo":6535,"Pe":6536,"Ġesprimis":6537,"nas":6538,"naÄµo":6539,"Ġagi":6540,"teloj":6541,"Ġplum":6542,"Ġrekonstru":6543,"ksaj":6544,"Ġretejoj":6545,"74":6546,"Ġmiliton":6547,"Ġadministran":6548,"Si":6549,"Ġporna":6550,"Ġmortigi":6551,"ĠmanÄĿas":6552,"\").":6553,"inan":6554,"ĠBud":6555,"PER":6556,"akte":6557,"ĠSim":6558,"Ġjubile":6559,"Ġcertaj":6560,"Ġetaj":6561,"ult":6562,"Ġoficejo":6563,"ĠJako":6564,"ĠNorve":6565,"stri":6566,"ĠBrita":6567,"Ġpasi":6568,"ĠKroa":6569,"Ġtrafi":6570,"Ġindiki":6571,"Ġintencas":6572,"Ġkomb":6573,"ĠVjet":6574,"Ġricev":6575,"Ġrigardo":6576,"ĠMoseo":6577,"Ġelstara":6578,"Ãª":6579,"Ġgim":6580,"emoj":6581,"tori":6582,"Ġ[...]":6583,"kuris":6584,"ĠAmbaÅŃ":6585,"Ġfilozofi":6586,"Ġmaterialoj":6587,"Ġtrafis":6588,"Ġokazoj":6589,"ĠVes":6590,"Ġrefor":6591,"ĠLibro":6592,"Ġeksterordin":6593,"Ġprenas":6594,"kie":6595,"ĠAnti":6596,"Ġcert":6597,"Ġprojekton":6598,"Ġdepartemento":6599,"mons":6600,"sion":6601,"Ġvarm":6602,"moni":6603,"ĠÄīefministro":6604,"63":6605,"Ġspertis":6606,"ĠtaÅŃgas":6607,"Ġrifuzis":6608,"ĠPala":6609,"Ġgrandeco":6610,"ĠFranca":6611,"Ġekspozicio":6612,"galo":6613,"BI":6614,"Tra":6615,"ĠEston":6616,"tagmeze":6617,"tito":6618,"dadon":6619,"Ġleganto":6620,"Ling":6621,"ĠStra":6622,"Ġrakontoj":6623,"Ġprincipoj":6624,"ĠWilliam":6625,"ĠPalestino":6626,"Ġegal":6627,"lejo":6628,"sor":6629,"Ġsul":6630,"ĠreÄĿis":6631,"Ġbono":6632,"Ġebleco":6633,"oso":6634,"Ġsencon":6635,"Ð²":6636,"Ġful":6637,"ĠRigar":6638,"Ġmankis":6639,"funkci":6640,"Ġvizitantoj":6641,"Ġareoj":6642,"spi":6643,"erni":6644,"mana":6645,"ĠnovaÄµoj":6646,"Ġsukcesas":6647,"citaj":6648,"ĠÅł":6649,"anÄĿ":6650,"ĠSt":6651,"ĠÅľablono":6652,"okaze":6653,"telon":6654,"Ġkompan":6655,"Ġ33":6656,"Ġmuzika":6657,"Ġ1993":6658,"61":6659,"ĠKen":6660,"wn":6661,"Ġpropri":6662,"Ġmiliar":6663,"anco":6664,"Ġpreten":6665,"Jo":6666,"ĠPopola":6667,"Ġrimedojn":6668,"Ġkulturaj":6669,"lip":6670,"Ġset":6671,"67":6672,"Di":6673,"Ġ38":6674,"Ġplurfoje":6675,"Ġkonduto":6676,"Ġfavore":6677,"libron":6678,"Ġarbar":6679,"Ġrespondon":6680,"Ġx":6681,"Ġlimoj":6682,"kia":6683,"kanoj":6684,"Ġadreso":6685,"Ġesprim":6686,"Ġredakti":6687,"wikipedia":6688,"ving":6689,"ĠinÄĿeni":6690,"Ġparale":6691,"Ġludoj":6692,"ĠorganizaÄµoj":6693,"Ġlev":6694,"Ġliteratura":6695,"Ġordinara":6696,"france":6697,"ĠGol":6698,"tinte":6699,"ĠDistribu":6700,"ĠMaj":6701,"Ġchiuj":6702,"ĠKatalun":6703,"ĠKomunejo":6704,"Ġjuro":6705,"ĠÄĪeÄ¥a":6706,"Kore":6707,"Ñĥ":6708,"ĠdaÅŃrigis":6709,"Ġkomencantoj":6710,"ĠJunulara":6711,"alistoko":6712,"ĠaÅŃtomate":6713,"atas":6714,"Ġalti":6715,"Ġekvidis":6716,"Ġmaldekstra":6717,"ĠeÅŃroj":6718,"Ġdiploma":6719,"ĠRumanio":6720,"Ġrezis":6721,"Ġinterre":6722,"Ġsuferis":6723,"ĠBiblio":6724,"Ġenga":6725,"ĠFrancisko":6726,"ĠTon":6727,"Ġkaf":6728,"Ġ150":6729,"ĠAleksandro":6730,"Ġos":6731,"digita":6732,"Ġinstruas":6733,"LEI":6734,"Ġlokojn":6735,"ĠPeter":6736,"Ġspecifa":6737,"Ġantau":6738,"Ġtransform":6739,"Ġtenis":6740,"taraj":6741,"ĠZam":6742,"Ġpozicio":6743,"inteco":6744,"Ġpovi":6745,"Ġmontoj":6746,"Ġmortigis":6747,"Ġesperantista":6748,"Ġagadoj":6749,"Ġteatro":6750,"ĠaliÄĿi":6751,"Ġâĸĳ":6752,"Ġâĸĳâĸĳ":6753,"Ġkonci":6754,"Ġlib":6755,"Ġekha":6756,"Ġrimarkin":6757,"enc":6758,"stata":6759,"Ġsinteno":6760,"Ġkoron":6761,"Ġmalfermita":6762,"ĠaranÄĿoj":6763,"Ġmalpu":6764,"ĠkuÅĿas":6765,"Ġkomplete":6766,"ĠHal":6767,"metis":6768,"Ġenkonduko":6769,"digas":6770,"ĠTeks":6771,"ĠDE":6772,"ĠRej":6773,"ĠÂ».":6774,"ĠkomenciÄĿas":6775,"ĠĠĠĠĠĠĠĠĠĠĠĠĠĠĠĠ":6776,"trikto":6777,"itajn":6778,"Ġbrak":6779,"gli":6780,"Ġmallar":6781,"tejoj":6782,"Ġhavebla":6783,"Ġvokis":6784,"Ġturnis":6785,"fina":6786,"Ġteni":6787,"Ġtemon":6788,",[":6789,"gvi":6790,"ĠTar":6791,"Ġdezir":6792,"nombraj":6793,"kson":6794,"Ġrikol":6795,"ĠLitera":6796,"Ġekspozi":6797,"ĠPA":6798,"ĠParto":6799,"Ġfratino":6800,"sekso":6801,"trita":6802,"Ġstatus":6803,"veblaj":6804,"menio":6805,"hen":6806,"Ġsing":6807,"tenoj":6808,"ĠGru":6809,"ĠOli":6810,"71":6811,"Ġvivanta":6812,"Ġnomataj":6813,"Ġnature":6814,"angla":6815,"Ġspertoj":6816,"Ġimpli":6817,"stroj":6818,"orado":6819,"ĠFrank":6820,"-)":6821,"Ġajnan":6822,"ÅĿtatoj":6823,"ĠRuÄĿa":6824,"ÄĻ":6825,"tila":6826,"este":6827,"ĠTan":6828,"Ġtemperaturo":6829,"Ġ1945":6830,"Ġatako":6831,"ĠBedaÅŃrinde":6832,"DO":6833,"Ġekestis":6834,"Ġtridek":6835,"linio":6836,"ĠÄĿojas":6837,"ĠlarÄĿa":6838,"ĠmesaÄĿo":6839,"tenis":6840,"ĠBos":6841,"Ġhorojn":6842,"ĠJohan":6843,"ĠfeliÄīa":6844,"Ġforton":6845,"lubo":6846,"ĠKantono":6847,"Ġimagi":6848,"Ġviva":6849,"Ġmiri":6850,"Äīeco":6851,"ĠhodiaÅŃa":6852,"Äīambro":6853,"htm":6854,"ĠÄīeesto":6855,"ĠmanÄĿo":6856,"Ġangulo":6857,"Ġkonstruo":6858,"Ġfojo":6859,"tinta":6860,"Ġprelegoj":6861,"Ġneaten":6862,"eman":6863,"blioteko":6864,"Ġunika":6865,"Ġmencio":6866,"ĠstaÄĿo":6867,"Ġfervor":6868,"Ġreveni":6869,"ĠGrekio":6870,"Ro":6871,"kara":6872,"Ġlitero":6873,"ĠkontraÅŃsta":6874,"ĠDosiero":6875,"Ġvico":6876,"Ġgu":6877,"premi":6878,"Ġadjek":6879,"chen":6880,"progra":6881,"Ġfrancaj":6882,"Ġnederlanda":6883,"eston":6884,"Ġdiros":6885,"Ġapartan":6886,"Ġtelevido":6887,"pt":6888,"Ġokcidento":6889,"Ġripro":6890,"grand":6891,"Ġhotelo":6892,"ĠRon":6893,"Ġtradukon":6894,"ĠMinis":6895,"ĠBr":6896,"Ġgrup":6897,"Ġpraktika":6898,"hard":6899,"Ġrealigi":6900,"ospita":6901,"Ġantikvaj":6902,"inga":6903,"Ġorganizita":6904,"ĠnaskiÄĿo":6905,"ĠvoÄīoj":6906,"CO":6907,"ĠDes":6908,"Ġbonfar":6909,"Ġtromp":6910,"ĠVerda":6911,"KOKOKOKOKOKOKOKOKOKOKOKOKOKOKOKO":6912,"Nia":6913,"ffi":6914,"Ġnenian":6915,"Ġsocialismo":6916,"esperanta":6917,"Ñı":6918,"Ġaldonas":6919,"Ġinformi":6920,"Ġprogramaro":6921,"mm":6922,"ige":6923,"Ġtemplo":6924,"ĠGri":6925,"ĠVortaro":6926,"oraj":6927,"ĠGro":6928,"Ġartistoj":6929,"Ġepiskopo":6930,"ĠMondmilito":6931,"lig":6932,"ÅĿipo":6933,"Ġvideblas":6934,"tuna":6935,"ĠLand":6936,"Ġveran":6937,"ĠTTT":6938,"Ġdissen":6939,"Ġesperantaj":6940,"Ġbonega":6941,"Me":6942,"dina":6943,"ise":6944,"cik":6945,"Ġglu":6946,"Ġkonstanta":6947,"Ver":6948,"Ġapara":6949,"Ġkorpon":6950,"Ġkategorio":6951,"bleco":6952,"ĠvilaÄĿoj":6953,"Ġnaturaj":6954,"Ġverkistoj":6955,"ĠdaÅŃr":6956,"ĠdisvolviÄĿo":6957,"ĠPrezidanto":6958,"xoj":6959,"Ġpensoj":6960,"Ġfurio":6961,"Ġmunicipo":6962,"US":6963,"ĠSinjor":6964,"ĠWar":6965,"Ġponto":6966,"Ġmask":6967,"tela":6968,"Ġinves":6969,"ĠFondumo":6970,"Ġprov":6971,"Ġpalaco":6972,"Ġfako":6973,"Äľis":6974,"lov":6975,"Ġinsek":6976,"Ġplanas":6977,"Ġmalamikoj":6978,"Ġkilometrojn":6979,"ĠEli":6980,"ĠKroatio":6981,"ĠSom":6982,"ĠPapo":6983,"51":6984,"ĠGPL":6985,"niko":6986,"formaj":6987,"ĠTurkio":6988,"ĠestiÄĿis":6989,"Ġ1994":6990,"unda":6991,"Ġfortan":6992,"Ġmapo":6993,"Ġproto":6994,"kono":6995,"ĠÅĿanÄĿojn":6996,"Ġeben":6997,"Ġfrancan":6998,"Ġperfekta":6999,"kluzive":7000,"ĠMediaWiki":7001,"ernio":7002,"Ġkompreno":7003,"Lo":7004,"Ġdioj":7005,"Ġplue":7006,"Ġfrene":7007,"Ġora":7008,"Ġoficialaj":7009,"ÄĿantaj":7010,"ĠBern":7011,"Ġlevis":7012,"ĠBah":7013,"Ġpoezio":7014,"Ġsupera":7015,"Ġprezidan":7016,"Ġtutmonde":7017,"kosta":7018,"umojn":7019,"uja":7020,"chi":7021,"ĠÂĹ":7022,"Ġkurson":7023,"Ġefika":7024,"Ġegale":7025,"Ġcelis":7026,"Ġkavali":7027,"ĠÄĿui":7028,"Ġblua":7029,"ĠCx":7030,"ĠHispana":7031,"Ġpriskribi":7032,"ĠserÄīo":7033,"kaux":7034,"tonoj":7035,"Ġpasigis":7036,"Ġvidebla":7037,"Ġenergi":7038,"Ġkovri":7039,"Ġgeneralo":7040,"sam":7041,"ĠKru":7042,"ĠKaro":7043,"ĠBas":7044,"ĠlaÅŃle":7045,"Ġjusteco":7046,"ĠPrago":7047,"tantan":7048,"ĠDion":7049,"ceano":7050,"Ġsveda":7051,"Ġbla":7052,"Ġ34":7053,"Ġpart":7054,"Ġ39":7055,"grafiaj":7056,"Ġdeveno":7057,"uling":7058,"osa":7059,"puro":7060,"Ġampleksa":7061,"kolora":7062,"Ð´":7063,"ĠMol":7064,"Ġkomentoj":7065,"64":7066,"legis":7067,"ĠAten":7068,"Ġnombroj":7069,"Ġ1930":7070,"Ġ00":7071,"lata":7072,"dioj":7073,"ĠPek":7074,"tuÅĿ":7075,"Ġnokte":7076,"Ġrespub":7077,"Ġproduktas":7078,"Ġkosmo":7079,"ÅĿte":7080,"Ġrekomendas":7081,"Ġsimilan":7082,"Ġhas":7083,"Ġregistaroj":7084,"ĠreÄĿimo":7085,"Ġecx":7086,"Ġdelika":7087,"Ġpotencon":7088,"Ġsenpage":7089,"uel":7090,"ĠPlu":7091,"Ġserv":7092,"ĠPrivata":7093,"wiki":7094,"Ġkilometroj":7095,"Ġjunulo":7096,"Ġ1997":7097,"terioj":7098,"ÃŃa":7099,"Ġcivitan":7100,"Ġtribun":7101,"Ġmilitoj":7102,"car":7103,"Ġmalakcep":7104,"tumo":7105,"Ġinfana":7106,"Ġkir":7107,"ĠMun":7108,"Ġindividuoj":7109,"Ġgramatiko":7110,"Ġvaloroj":7111,"Ġperforto":7112,"ĠFundamento":7113,"Ġkongresoj":7114,"ĠWikimedia":7115,"Be":7116,"fiki":7117,"Ġvers":7118,"Ġrit":7119,"ligen":7120,"rez":7121,"vantoj":7122,"ĠArmeo":7123,"ĠInterna":7124,"ĠÄīambr":7125,"ĠÄµetis":7126,"Ġveron":7127,"ĠÄĿuis":7128,"Ġpromesis":7129,"ĠUzanto":7130,"ĠGvineo":7131,"Ġoro":7132,"permesilo":7133,"Ġmoment":7134,"Ġiloj":7135,"Ġperdi":7136,"ille":7137,"turn":7138,"Ġebli":7139,"ĠPakis":7140,"prin":7141,"tristo":7142,"ip":7143,"âĹ":7144,"Ġekzek":7145,"ĠKvin":7146,"Ġverk":7147,"Ġleci":7148,"ĠAnna":7149,"Ġfunkciis":7150,"duso":7151,"ĠmesaÄĿ":7152,"vigo":7153,"Ġul":7154,"Ġpin":7155,"Ġpeza":7156,"Ġuniversala":7157,"Ġinforma":7158,"mono":7159,"eld":7160,"Ġkulp":7161,"Ġsono":7162,"ĠKonstan":7163,"Ġprezentita":7164,"ĠKopenha":7165,"Ġarmiloj":7166,"77":7167,"Ġhelpan":7168,"ĠUsona":7169,"Ġunufoje":7170,"Ġsubven":7171,"Ġstarigi":7172,"demokra":7173,"Ġ1910":7174,"ĠChi":7175,"Ġagrabla":7176,"Ġ<":7177,"Ġmalmo":7178,"Ġregulo":7179,"Ġfirme":7180,"Ġgeneracioj":7181,"Ġstacidomo":7182,"69":7183,"Ġmek":7184,"ose":7185,"Ġpersonaj":7186,"ĠPaul":7187,"Ġ1989":7188,"Ġpacon":7189,"Ġscienc":7190,"Ġmetrojn":7191,"Ġkamara":7192,"ĠFilip":7193,"Ġfaktoj":7194,"blajn":7195,"Ġnigraj":7196,"bser":7197,"celi":7198,"ĠHol":7199,"ĠadiaÅŃ":7200,"Ġtun":7201,"Ġinteresoj":7202,"NA":7203,"ĠMen":7204,"ĠpaÅĿo":7205,"paroj":7206,"ĠNikola":7207,"Kial":7208,"Ġtrajtoj":7209,"Ġkuba":7210,"iso":7211,"ĠEgiptio":7212,"Ġmirinda":7213,"Ġbild":7214,"uk":7215,"Ġelektas":7216,"Ġrezultojn":7217,"Ġklopodis":7218,"Ġaviadilo":7219,"Ġofta":7220,"Ġpasintaj":7221,"Ġkontribuis":7222,"Ġpoemo":7223,"Ġmalkres":7224,"ĠÄĮ":7225,"krimin":7226,"provi":7227,"Ġstudoj":7228,"vadministra":7229,"Ġhorizon":7230,"Ġmencias":7231,"vadoro":7232,"pajn":7233,"zado":7234,"Ġmat":7235,"62":7236,"Ġalteco":7237,"Ġdisko":7238,"Ġenhavadministra":7239,"agren":7240,"IC":7241,"Ã¡r":7242,"kot":7243,"Ġkalkul":7244,"Ġrimedo":7245,"73":7246,"tiÄĿon":7247,"fur":7248,"Ġpremo":7249,"Ġstacio":7250,"ĠRevolu":7251,"Ġspecialaj":7252,"ĠÃ¦":7253,"Ġsubtenon":7254,"Ġnokt":7255,"ĠtuÅĿ":7256,"pp":7257,"tonon":7258,"ĠCha":7259,"ĠÅĿatis":7260,"Ġununura":7261,"Na":7262,"mala":7263,"ejmo":7264,"ĠKomence":7265,"Ġmilionojn":7266,"Ġgrupon":7267,"Ġ1996":7268,"Ġgrundo":7269,"Ġrilaton":7270,"Ġhaltis":7271,"ĠdaÅŃrigi":7272,"Ġtrajno":7273,"Ġtombo":7274,"hoj":7275,"Ġkub":7276,"Ġign":7277,"ĠdisÄīi":7278,"Ġtradukita":7279,"tigu":7280,"ĠPen":7281,"tute":7282,"Ġprepari":7283,"ted":7284,"menko":7285,"Ġkonsistigas":7286,"ĠAsembleo":7287,"Ġkoordinatoj":7288,"mil":7289,"ĠiÄĿi":7290,"Ġmalfermi":7291,"ky":7292,"ganoj":7293,"grupoj":7294,"filo":7295,"Ġmalamiko":7296,"grade":7297,"Ġtitolon":7298,"ĠSto":7299,"Ġsteloj":7300,"ĠAfgan":7301,"dadis":7302,"Ġkana":7303,"Ġgita":7304,"ĠDistribuata":7305,"Fine":7306,"Ġesence":7307,"Ġinformis":7308,"ĠInterreto":7309,"gvajo":7310,"Ġpolitikan":7311,"Ġregulojn":7312,"Ġgeneracio":7313,"ĠPortugalio":7314,"bia":7315,"glu":7316,"lie":7317,"amas":7318,"ĠJoze":7319,"ĠfeliÄī":7320,"è¡":7321,"Ġdolaroj":7322,"prote":7323,"Ġeraro":7324,"ĠMuzaiko":7325,"tula":7326,"Ġamaso":7327,"Ġprotekti":7328,"ĠhieraÅŃ":7329,"ĠKur":7330,"Ġ55":7331,"Ã©s":7332,"Ġproponon":7333,"Ġoriento":7334,"Ġunuopaj":7335,"Ġvidpun":7336,"Ġfranc":7337,"ĠEsperantaj":7338,"noma":7339,"Kio":7340,"ls":7341,"kovri":7342,"Ġsalono":7343,"Ġmalvarma":7344,"idoj":7345,"lic":7346,"Ġvio":7347,"ĠOfte":7348,"Ġbelega":7349,"RE":7350,"aÅŃri":7351,"Ġnormale":7352,"ĠViki":7353,"ĠZe":7354,"ĠNuntempe":7355,"TV":7356,"hn":7357,"Ġdezajn":7358,"ĠÅĿanÄĿiÄĿis":7359,"Ġenmig":7360,"trata":7361,"Ġflago":7362,"Ġposedanto":7363,"Ġretiri":7364,"dejoj":7365,"BN":7366,"âĢ²":7367,"Ġmontaro":7368,"Ġfotojn":7369,"Ġvetero":7370,"rekven":7371,"ĠIMGP":7372,"Ġmanifesta":7373,"peris":7374,"Ġpropor":7375,"Ġkomis":7376,"ĠDar":7377,"Ġformi":7378,"Ġatente":7379,"Ġblank":7380,"ĠILEI":7381,"Ġdiskuti":7382,"Ġsuferas":7383,"Ġgxis":7384,"ĠRevuo":7385,"Ġestonta":7386,"Ġdirekti":7387,"Ġkonstatis":7388,"Ġmovadon":7389,"ws":7390,"Ġnove":7391,"ĠÅĿancon":7392,"Ġabsolute":7393,"Tre":7394,"uld":7395,"Ġjur":7396,"Ġsincer":7397,"gua":7398,"ĠRenkon":7399,"Ġniveloj":7400,"ĠSamtempe":7401,"ĠKoreio":7402,"teblaj":7403,"ĠKatalunio":7404,"tinon":7405,"parolis":7406,"Ġarkitek":7407,"Ġtalk":7408,"'.":7409,"tren":7410,"uis":7411,"tivon":7412,"Ġekspli":7413,"Ġbezono":7414,"Ġprokras":7415,"Ġtemis":7416,"ĠVladi":7417,"Ġdefendi":7418,"oria":7419,"ĠListo":7420,"Ġlaboroj":7421,"ĠKatolika":7422,"ĠSon":7423,"ĠKolombio":7424,"Ġpoloj":7425,"Ġfenomen":7426,"Ġ1950":7427,"Cen":7428,"Ġinvers":7429,"Ġnub":7430,"Ġindas":7431,"Ġparolado":7432,"fla":7433,"Ġpordon":7434,"ĠNiÄĿ":7435,"Ġlanda":7436,"Ġeblis":7437,"Ġkontrolo":7438,"Ġraporton":7439,"Ġkontinento":7440,"ĠÄĪeÄ¥os":7441,"Ġsens":7442,"Ġkian":7443,"ĠKara":7444,"Ġtiutempe":7445,"Ġpasinteco":7446,"ĠÂ»,":7447,"aÄĿa":7448,"ss":7449,"ĠmalÄĿus":7450,"Ġmalferma":7451,"Ġsenti":7452,"Ġmulton":7453,"ĠbuÅĿo":7454,"ĠetendiÄĿas":7455,"AJ":7456,"Ġmizer":7457,"Ġelekton":7458,"hem":7459,"enio":7460,"Ġfortaj":7461,"Ġgras":7462,"umita":7463,"Ġeblon":7464,"ĠMondo":7465,"Ġgastoj":7466,"Ġserioza":7467,"ĠCam":7468,"ĠRobert":7469,"Ġsupozeble":7470,"ĠÅĿu":7471,"ĠmesaÄĿon":7472,"entaj":7473,"Ġvel":7474,"Ġalveno":7475,"dajxo":7476,"Ġnekre":7477,"Ã¼n":7478,"Ġraportis":7479,"emoni":7480,"Ġsignoj":7481,"ĠEDE":7482,"Ġtrian":7483,"plik":7484,"Ġmalven":7485,"poka":7486,"Ġkomisiono":7487,"Ġrid":7488,"ĠlaÅŃlonge":7489,"cht":7490,"ĠCommons":7491,"ingen":7492,"ĠFern":7493,"Ġorigine":7494,"ebo":7495,"ĠSirio":7496,"Ġbezonoj":7497,"timo":7498,"ĠCivito":7499,"Ġagen":7500,"ĠÄīer":7501,"Ġinterrila":7502,"Ġdoktor":7503,"Ġekonomiaj":7504,"____":7505,"Ġ37":7506,"Ġ||":7507,"ĠinaÅŃgu":7508,"Ġhin":7509,"Ġhuman":7510,"Ġmaga":7511,"Ġflugo":7512,"Ġplenumas":7513,"win":7514,"orus":7515,"Ġjud":7516,"ĠMes":7517,"Ġeraroj":7518,"Ġgren":7519,"cos":7520,"AL":7521,"Ġkontraux":7522,"play":7523,"miloj":7524,"kcidente":7525,"ĠNovjor":7526,"Ġapliki":7527,"ĠaÄī":7528,"donis":7529,"Ġart":7530,"Ġspirita":7531,"koloj":7532,"cienco":7533,"ot":7534,"Ã¼r":7535,"Sub":7536,"Ġdume":7537,"Ġfremda":7538,"\"),":7539,"ĠTek":7540,"landon":7541,"Ġsuk":7542,"Ġpedago":7543,"Ġagas":7544,"Ġestante":7545,"Ġigis":7546,"Ġriveroj":7547,"Ġkomuniki":7548,"Ġtaskoj":7549,"ĠIu":7550,"Ġfido":7551,"reative":7552,"ĠDok":7553,"Ġliter":7554,"ĠLegu":7555,"Ġdoktoro":7556,"trajn":7557,"Ġspecoj":7558,"Nov":7559,"tiloj":7560,"uskri":7561,"fir":7562,"ĠPon":7563,"Ġsudori":7564,"Ġfolioj":7565,"Par":7566,"ji":7567,"Ġpord":7568,"veturi":7569,"ĠloÄĿejo":7570,"Ġasertis":7571,"Ġsku":7572,"Ġsidas":7573,"Ġforigo":7574,"Ġkoni":7575,"Ġplimul":7576,"Ġfrenez":7577,"Ġakademi":7578,"ulinoj":7579,"Gra":7580,"Ġpur":7581,"Ġpolitikistoj":7582,"ĠModulo":7583,"ms":7584,"Äīar":7585,"ĠKr":7586,"Ġinterkonsento":7587,"Ġ600":7588,"Ġlernej":7589,"ANTO":7590,"tetoj":7591,"Ġglo":7592,"ĠIrako":7593,"Ġkostas":7594,"Ġsolen":7595,"Ġelpens":7596,"Ġtrezor":7597,"Ġyou":7598,"ĠÄīiel":7599,"Ġsciencaj":7600,"Ġcxu":7601,"Ġkontribui":7602,"ander":7603,"ÅĿajn":7604,"ĠUnesko":7605,"Ġ{\\":7606,"Ġkalkuli":7607,"For":7608,"Ġstelo":7609,"Ġmelo":7610,"Ġdefendo":7611,"Ġske":7612,"ĠserÄīis":7613,"istaj":7614,"palo":7615,"wicz":7616,"ktanto":7617,"Ġbier":7618,"ĠSz":7619,"duro":7620,"ĠChris":7621,"Ġkampanjo":7622,"mez":7623,"Ġveraj":7624,"Ġturo":7625,"ĠaÅŃtomo":7626,"Ġmalof":7627,"ĠSocieto":7628,"98":7629,"IL":7630,"Ġnelonge":7631,"voja":7632,"Ġpravas":7633,"tions":7634,"Ġescepte":7635,"Or":7636,"mile":7637,"ĠHor":7638,"Ġcxiu":7639,"nor":7640,"aba":7641,"Ġmuroj":7642,"rigi":7643,"Ã³w":7644,"Ġkandidatoj":7645,"wer":7646,"Ġkrim":7647,"ĠGaza":7648,"Ġorgano":7649,"The":7650,"ĠEK":7651,"Ġaktivuloj":7652,"Ġspon":7653,"dite":7654,"Ġsamseks":7655,"Ġprovizi":7656,"ĠtranÄī":7657,"Ġjunulara":7658,"ball":7659,"ĠBudapeÅĿto":7660,"Ġnutra":7661,"æľĪ":7662,"Ġskribo":7663,"ĠParo":7664,"Ġproksimaj":7665,"Ġakceptita":7666,"Ġjenaj":7667,"Ġfem":7668,"viÄĿas":7669,"Ġtiele":7670,"ĠNobel":7671,"Ġopinioj":7672,"ĠstreÄī":7673,"Ġ42":7674,"Ġdefinition":7675,"veturis":7676,"guloj":7677,"Ġsurfaco":7678,"Ġkovras":7679,"tego":7680,"ĠFree":7681,"Ġsuver":7682,"Ġ~":7683,"Ġtroveblas":7684,"Ġeksciis":7685,"Multaj":7686,"âĢī":7687,"ĠUsti":7688,"Ġesplori":7689,"ĠTutmonda":7690,"ktantoj":7691,"gula":7692,"Ġherb":7693,"Ãł":7694,"mann":7695,"Ġmarks":7696,"Ã¶r":7697,"ksem":7698,"Ġamaskomunikiloj":7699,"Ġsankte":7700,"ĠKopenhago":7701,"kl":7702,"feron":7703,"Ġnunaj":7704,"Ġceremonio":7705,"Ġpereis":7706,"Ġforlasi":7707,"ankaÅŃ":7708,"erno":7709,"ĠÄĿiajn":7710,"Ġklasoj":7711,"taÄµon":7712,"Ġnulo":7713,"Ġefike":7714,"zaÄµo":7715,"Ġsumo":7716,"Ġmir":7717,"ĠSaint":7718,"Ġsubskribis":7719,"ĠLor":7720,"acian":7721,"lina":7722,"canoj":7723,"ug":7724,"Ġeterna":7725,"pata":7726,"ktato":7727,"ecaj":7728,"Ġnekonata":7729,"ĠSuper":7730,"Ġidoj":7731,"Ġmapoj":7732,"Ġlinioj":7733,"Ġrestari":7734,"plenaj":7735,"andar":7736,"Ġutilas":7737,"fto":7738,"âĢİ":7739,"gataj":7740,"Ġmoder":7741,"dav":7742,"ĠHit":7743,"venoj":7744,"Ġsamkiel":7745,"pud":7746,"Ġaspekton":7747,"Ġkulturon":7748,"Ġbabi":7749,"manta":7750,"Ġ49":7751,"ecan":7752,"entojn":7753,"Ġano":7754,"dekso":7755,"Ġkelke":7756,"Ġbazaj":7757,"Ġhttps":7758,"by":7759,"Ġklopodas":7760,"ĠrifuÄĿ":7761,"Ha":7762,"UR":7763,"Ġflank":7764,"Ġdonu":7765,"Ġhundo":7766,"Ġnigr":7767,"Ġghin":7768,"ĠVjetnam":7769,"89":7770,"Ġplaco":7771,"ĠJesu":7772,"OS":7773,"ĠÅĿto":7774,"Ġlegado":7775,"Ã£":7776,"Ġrigardon":7777,"ĠMadrido":7778,"Î±":7779,"ĠSol":7780,"vir":7781,"usz":7782,"donio":7783,"Ġinsul":7784,"Ġpotenca":7785,"Ġpalestin":7786,"ismoj":7787,"Ġgig":7788,"ĠtaÄī":7789,"Ġesperantan":7790,"Ġ400":7791,"Ġinformas":7792,"Ġkapitalismo":7793,"ĠFederacio":7794,"Ġigas":7795,"Ġforgesu":7796,"Ġmuze":7797,"Ġalfron":7798,"ĠjuÄĿis":7799,"Ġimpreson":7800,"Du":7801,"Ġavi":7802,"ĠKD":7803,"Ġkadro":7804,"Ġterur":7805,"ÇĶ":7806,"rata":7807,"ĠKia":7808,"Ġdato":7809,"Ġpioni":7810,"ĠmontriÄĿis":7811,"Ġaperi":7812,"Ġpunktoj":7813,"ĠEkonom":7814,"Ġgli":7815,"Ġesperante":7816,"Tiuj":7817,"Ġdekli":7818,"Ġekonomi":7819,"Ģè":7820,"logoj":7821,"Ġliberaj":7822,"Ġutili":7823,"Ġminimume":7824,"Ġdormo":7825,"ĠFacebook":7826,"Ġ01":7827,"Ġdiskutoj":7828,"Ġdezerto":7829,"Ġelemento":7830,"Ä¥io":7831,"Kro":7832,"rinte":7833,"Ġsubtenis":7834,"Ġpliajn":7835,"ĠKir":7836,"piskopo":7837,"ĠPakistano":7838,"ĠteÄ¥":7839,"Ġeksa":7840,"Ġfojojn":7841,"pia":7842,"ĠAnt":7843,"Ġstrange":7844,"ĠVere":7845,"Ġnordori":7846,"Ġorganizas":7847,"Ġsele":7848,"ĠelÅĿuti":7849,"Ġforumo":7850,"Ġreligioj":7851,"Ġmam":7852,"Ġfilon":7853,"ĠmaÅĿino":7854,"HodiaÅŃ":7855,"ĠÄīagren":7856,"Ġgol":7857,"erika":7858,"Ġrefle":7859,"Ġmontran":7860,"Ġvestoj":7861,"Ġgasti":7862,"ct":7863,"ĠneÄĿo":7864,"Ġkolo":7865,"ĠÄīefo":7866,"sign":7867,"Ġvarias":7868,"EM":7869,"ork":7870,"ĠKana":7871,"Ġdiverseco":7872,"gne":7873,"Ġamikojn":7874,"Ġrakont":7875,"ĠaranÄĿi":7876,"Eble":7877,"German":7878,"ĠBrus":7879,"ĠGab":7880,"Ġbezonata":7881,"ĠUrbo":7882,"Ġaplika":7883,"Ġteknologio":7884,"Koreio":7885,"atoj":7886,"ĠHan":7887,"pion":7888,"Ġlaborista":7889,"Ġtrio":7890,"Poste":7891,"Ġafab":7892,"Ġmonatojn":7893,"Ġpolitikisto":7894,"ĠMale":7895,"ĠBus":7896,"Ġkuir":7897,"Ġpopolon":7898,"Ġradika":7899,"ĠÄīambron":7900,"rantaj":7901,"Ġlastatempe":7902,"Ġtrupoj":7903,"Ġkonstitucio":7904,"omas":7905,"Ġlandaj":7906,"ĠNeces":7907,"Ġtereno":7908,"Ġsituanta":7909,"videbla":7910,"Ġhelpe":7911,"Ġasoci":7912,"Ġbrusto":7913,"Ġfestivalo":7914,"lima":7915,"Ġkunteksto":7916,"Ġfier":7917,"Ġesploro":7918,"ĠTradu":7919,"Ð¼":7920,"Ġkunpor":7921,"ĠNom":7922,"gma":7923,"ĠÅĿil":7924,"Kiu":7925,"ĠokupiÄĿas":7926,"grafo":7927,"Ġesplorado":7928,"ĠBulgario":7929,"Ġmalle":7930,"ĠMark":7931,"Ġesploroj":7932,"Ġmenciis":7933,"ĠNorvegio":7934,"ĠreÄĿa":7935,"ĠAIS":7936,"kore":7937,"fektive":7938,"Ġkonsideris":7939,"Ġkin":7940,"ĠKonferenco":7941,"ĠRegis":7942,"Ġviktimoj":7943,"ÄĿintaj":7944,"Ġokupas":7945,"reda":7946,"Ġorganiza":7947,"Ġkvanton":7948,"ĠEstraro":7949,"nur":7950,"Ġmikro":7951,"Ġmemstare":7952,"ĠRam":7953,"Ġmallonge":7954,"Ġveturis":7955,".-":7956,"Ce":7957,"Ġfleks":7958,"laude":7959,"Ġsila":7960,"Ġsindika":7961,"Ġkunlabori":7962,"Ġplenumis":7963,"voro":7964,"diono":7965,"ĠEx":7966,"Ġenketoj":7967,"Uni":7968,"ĠaÅŃdas":7969,"ĠKontraÅŃ":7970,"ĠZa":7971,"Ġmodifi":7972,"Ġadapti":7973,"Ġplezuro":7974,"istojn":7975,"ĠkuÅĿis":7976,"kcia":7977,"Ġekzist":7978,"ĠanstataÅŃe":7979,"Ġprovizas":7980,"Ġit":7981,"ĠFranc":7982,"Ġkoloroj":7983,"Ġgermanan":7984,"Ġevoluon":7985,"plon":7986,"ary":7987,"ĠpaÅĿoj":7988,"disku":7989,"sona":7990,"flor":7991,"xis":7992,"dion":7993,"tria":7994,"Ġvok":7995,"ĠbranÄīo":7996,"ĺĩ":7997,"art":7998,"ĠJES":7999,"Ġcivili":8000,"ardeno":8001,"Ġmaterialon":8002,"undoj":8003,"Ġkamp":8004,"ĠAliflanke":8005,"Ġargumentoj":8006,"adi":8007,"Ġarta":8008,"Ġbatali":8009,"ime":8010,"tikajn":8011,"ĠTuj":8012,"Ġkritiko":8013,"antajn":8014,"Äµa":8015,"tuo":8016,"Ġdisvastigi":8017,"Ġintervjuo":8018,"88":8019,"Ġdelegi":8020,"Ġrekom":8021,"ĀĀĀĀĀĀĀĀĀĀĀĀĀĀĀĀ":8022,"Ġportugala":8023,"feli":8024,"ÑĮ":8025,"rup":8026,"lavo":8027,"tipo":8028,"Ġfrun":8029,"Ġtrakti":8030,"Ġevoluis":8031,"Ġliteratur":8032,"Ġkatolikaj":8033,"bul":8034,"ĠanÄĿ":8035,"Ġtaksi":8036,"Ġdecidas":8037,"AP":8038,"Ġvino":8039,"Ġmos":8040,"Ġretum":8041,"Ġjene":8042,"Ġfilozofo":8043,"zil":8044,"Ã¡s":8045,"Ġkurs":8046,"Ġisra":8047,"Ġpene":8048,"ĠÄľuste":8049,"Ġdestin":8050,"ĠFal":8051,"Ġzorgas":8052,"ĠISBN":8053,"è¡Ģè":8054,"ĠSep":8055,"Ġbazon":8056,"Ġorganizantoj":8057,"Ġesperantistojn":8058,"Ġ{{":8059,"ĺĩæľĪ":8060,"è¡ĢèĺĩæľĪ":8061,"Ġkantas":8062,"trans":8063,"ðŁĺ¨":8064,"valoj":8065,"ĠGor":8066,"prenas":8067,"Ġplejparto":8068,"ĠOkaz":8069,"df":8070,"Ġ44":8071,"Ven":8072,"kiÄĿis":8073,"kongreso":8074,"Ġfinna":8075,"rigardis":8076,".).":8077,"ĠÄīapitro":8078,"Ġinterese":8079,"Ġregula":8080,"fru":8081,"berio":8082,"Ġprofesiaj":8083,"Ġmenciitaj":8084,"Ġoli":8085,"Ġsendas":8086,"ĠAndreo":8087,"ĠUstimenko":8088,"Ġhim":8089,"Ġplat":8090,"Ġklimato":8091,"Ġvapor":8092,"ðŁĺ¨ðŁĺ¨":8093,"Ġmalgaj":8094,"----":8095,"ĠmalriÄī":8096,"ficiala":8097,"Ġdecidoj":8098,"Ġinfluon":8099,"Ġiniciato":8100,"setti":8101,"vadis":8102,"Ġrub":8103,"vigi":8104,"Ġintereson":8105,"petalo":8106,"Ġunuajn":8107,"Ġvendre":8108,"Ġebligis":8109,"ÅĿtato":8110,"Ġatmos":8111,"ĠJordan":8112,"Ġekkriis":8113,"Ġ]":8114,"Ġkis":8115,"Ġprogreso":8116,"Ġruin":8117,"Ġmalsamajn":8118,"tikoj":8119,"Ġsimil":8120,"Ġkataluna":8121,"divi":8122,"Ġglute":8123,"Ġneceso":8124,"tto":8125,"style":8126,"Ġfono":8127,"ferm":8128,"Ġplor":8129,"rinda":8130,"ÄĿadis":8131,"Ġprintempo":8132,"Ġoriginalan":8133,"Ġtimis":8134,"Ġdufoje":8135,"Ġpostaj":8136,"ciklope":8137,"ctor":8138,"yo":8139,"ĠBla":8140,"soci":8141,"bona":8142,"Ġintencis":8143,"Ġchu":8144,"ĠÄµurnalisto":8145,"Ġalfabeto":8146,"Ġdefi":8147,"Ġgene":8148,"ĠaÅŃtuno":8149,"Ġfias":8150,"Ġproponoj":8151,"jaro":8152,"Ñĭ":8153,"ĠsenÄīese":8154,"Ġpse":8155,"Ġangle":8156,"-,":8157,"ÅĽ":8158,"Ġfeti":8159,"Ġfori":8160,"ĠKiom":8161,"Ġmalsanoj":8162,"falo":8163,"Ġdecidon":8164,"Ġrespekto":8165,"Ġelektitaj":8166,"2015":8167,"Sh":8168,"bris":8169,"gebla":8170,"Ġtan":8171,"Ġforigita":8172,"Ġfondinto":8173,"ĠJulio":8174,"Ġmeritas":8175,"ĠMu":8176,"Ġplian":8177,"Ġ1987":8178,"cus":8179,"kvali":8180,"Ġdenun":8181,"tikolo":8182,"Ġrakonti":8183,"Ġvalora":8184,"Ġordono":8185,"Ġuniversitatoj":8186,"lantaro":8187,"mun":8188,"Ġintertra":8189,"bela":8190,"MO":8191,"tte":8192,"Ġï»¿":8193,"uras":8194,"ĠKali":8195,"ĠSloven":8196,"ĠPaci":8197,"lanko":8198,"Ġdiskrimin":8199,"Ġrab":8200,"ĠSimp":8201,"vara":8202,"xon":8203,"tima":8204,"Ġsentoj":8205,"ĠJon":8206,"ĠleviÄĿis":8207,"Ġnuda":8208,"Ġproduktis":8209,"Ġglaci":8210,"joroj":8211,"lasta":8212,"Ġinformado":8213,"ĠaÅŃtomata":8214,"ln":8215,"Ġsud":8216,"ĠIzraeli":8217,"Ġmodif":8218,"Ġkriis":8219,"ĠiÄĿos":8220,"Ġprocentoj":8221,"laso":8222,"Ġsocieto":8223,"Ġmalbonaj":8224,"mus":8225,"Ġkonsil":8226,"Ġprofesi":8227,"ĠVenezu":8228,"ĠSar":8229,"Ġkorp":8230,"Ġdana":8231,"Ġekzameno":8232,"dosi":8233,"lori":8234,"Ġpremis":8235,"ĠÂ°":8236,"ĠIom":8237,"Ġkonscio":8238,"ĠIndone":8239,"Ġfrag":8240,"Ġkalendaro":8241,"ĠHungara":8242,"Ġreveno":8243,"Ġvenu":8244,"ĠAnkoraÅŃ":8245,"Ġturni":8246,"Ġrondo":8247,"ĠNigra":8248,"Ġnai":8249,"Ġkantojn":8250,"Ġbrazila":8251,"spaco":8252,"ĠLes":8253,"Ġlig":8254,"rajta":8255,"Ġinteresajn":8256,"fem":8257,"Ġmanuskri":8258,"Ġmastrum":8259,"nia":8260,"ĠCreative":8261,"Ġfakuloj":8262,"Ġ47":8263,"bek":8264,"ÃŁ":8265,"Ġinfek":8266,"ĠÅŃ":8267,"ĠÄīinaj":8268,"Ġbiero":8269,"ĠÅľan":8270,"ĠBea":8271,"ĠÄīarto":8272,"Ġdinastio":8273,"Ġribelo":8274,"ĠMicha":8275,"ÅĦski":8276,"radis":8277,"cias":8278,"ĠEri":8279,"Ġposteno":8280,"Ġreprezentanto":8281,"ĠretpoÅĿton":8282,"Ġ[âĢ¦]":8283,"bach":8284,"ĠplaÄīas":8285,"Ġdorso":8286,"Ġkongreson":8287,"Kion":8288,"eu":8289,"ĠPub":8290,"ĠmanÄĿis":8291,"hou":8292,"Ġkutimo":8293,"Ġmiskompren":8294,"Ġmallumo":8295,"kvar":8296,"Ġdiser":8297,"metas":8298,"Ġpapero":8299,"Ġvintro":8300,"Ġmortinta":8301,"84":8302,"ĠKla":8303,"rajto":8304,"Ġvortaroj":8305,"lamo":8306,"Ġtrankvile":8307,"Ġmanieroj":8308,"piÄīo":8309,"ĠEkz":8310,"Ġpatron":8311,"ĠHenriko":8312,"Ġortodo":8313,"ĠAntonio":8314,"è¡ĢèĺĩæľĪè¡ĢèĺĩæľĪ":8315,"Ġambas":8316,"ĠÄµet":8317,"Ġligiloj":8318,"Ġdiplom":8319,"ĠAnticipo":8320,"Ġento":8321,"Ġmembr":8322,"Ġkosto":8323,"Bo":8324,"Ġgal":8325,"Ġsuben":8326,"fratoj":8327,"Ġrestoracio":8328,"fona":8329,"itoj":8330,"Ġlegu":8331,"à¤":8332,"Ġperfekte":8333,"Kar":8334,"Ġkonferen":8335,"Ġinteresas":8336,"Ġstud":8337,"Ġgimna":8338,"foro":8339,"Ġadvo":8340,"Ġkutim":8341,"Ġaspektoj":8342,"Ġetos":8343,"ĠDen":8344,"alisma":8345,"Ġpreparis":8346,"Ġdepende":8347,"ĠdanÄĿero":8348,"DF":8349,"Ġromia":8350,"Ġpluvo":8351,"Ġprenu":8352,"ĠWiki":8353,"Ġenskrib":8354,"Komen":8355,"wit":8356,"Ġpentristo":8357,"ĠBaldaÅŃ":8358,"display":8359,"Ġhaveno":8360,"torioj":8361,"Ġtenas":8362,"Ġklientoj":8363,"rilate":8364,"fami":8365,"gni":8366,"Tiel":8367,"cerdo":8368,"Ġferi":8369,"Ġtekniko":8370,"ĠOndo":8371,"Ġformojn":8372,"umenta":8373,"Ġkarakteron":8374,"Ġcelojn":8375,"Jun":8376,"Ġrealo":8377,"ĠNE":8378,"Ġrigi":8379,"Ġpenis":8380,"ĠvojaÄĿis":8381,"vidente":8382,"ĠÅĿtono":8383,"Ġripar":8384,"ĠfariÄĿos":8385,"Ġindividuaj":8386,"ĠdediÄīita":8387,"mantoj":8388,"Ġgazetaro":8389,"92":8390,"cere":8391,"num":8392,"Ġprole":8393,"emp":8394,"ĠpaÄĿojn":8395,"Ġkongresanoj":8396,"Ġtrejnado":8397,"Ġepizo":8398,"500":8399,"Ġkonservas":8400,"supra":8401,"uda":8402,"Ġaf":8403,"ĠInstru":8404,"ederacio":8405,"ĠfeliÄīo":8406,"ĠneÅŃtrala":8407,"Ġ_":8408,"Ġbol":8409,"piÄīoj":8410,"Ġmet":8411,"Ġdecid":8412,"Ġmame":8413,"daÄµon":8414,"Ġ1919":8415,"nudaÄµo":8416,"Ġsvisa":8417,"ĠBata":8418,"iÄĿante":8419,"nive":8420,"Ġeldonejo":8421,"Vidu":8422,"Ġkapitalo":8423,"Ġevangelio":8424,"ĠMil":8425,"Ġavan":8426,"Ġkadav":8427,"Ġeksta":8428,"tigoj":8429,"donu":8430,"Ġfoton":8431,"Ġvest":8432,"Ġorigino":8433,"kordo":8434,"Ġfirm":8435,"Kongreso":8436,"displaystyle":8437,"dres":8438,"tene":8439,"Ġrol":8440,"Ġsilento":8441,"Ġpozicion":8442,"Ġmovadoj":8443,"Ġfiguro":8444,"ĠBela":8445,"ĠAnstataÅŃ":8446,"Ġoficistoj":8447,"aton":8448,"Ġtum":8449,"ĠPrus":8450,"ĠkontraÅŃdi":8451,"Ġjusta":8452,"Ġvikipedi":8453,"Ġcerbo":8454,"ĠGermanujo":8455,"Ġdomin":8456,"Åĳ":8457,"cip":8458,"ĠGeo":8459,"Ġkreo":8460,"bato":8461,"Ġkvindek":8462,"cii":8463,"komer":8464,"ĠRich":8465,"Ġaku":8466,"Ġfortojn":8467,"Ġekspedi":8468,"Ġkanton":8469,"adoj":8470,"klaku":8471,"Ġoficialan":8472,"Ġregiona":8473,"Ġpolitikon":8474,"Ġmalnovan":8475,"Ġdorm":8476,"Ġkonserva":8477,"ĠÅĿablono":8478,"Ġegip":8479,"turojn":8480,"Ġkomunaj":8481,"ĠLeon":8482,"hej":8483,"ĠØ":8484,"laÄµoj":8485,"Ġ43":8486,"Ġsperton":8487,"Ġdirekte":8488,"ĠKristnas":8489,"ĠVlaÄījo":8490,"Ġhospita":8491,"ĠMongo":8492,"Ġregulaj":8493,"datum":8494,"Ġkunordi":8495,"Ġkapabla":8496,"Ġkongresa":8497,"ĠGeorge":8498,"Ġprivi":8499,"Ġatento":8500,"Ġnord":8501,"Ġligilon":8502,"Ġ1905":8503,"Ġstrategi":8504,"Ġgro":8505,"Ġpago":8506,"Ġdonaco":8507,"Ġkreskanta":8508,"Sin":8509,"tatoj":8510,"Ġaktor":8511,"Ġfilmon":8512,"Ġdifinas":8513,"Ġinstitucio":8514,"Ġaposto":8515,"Ġfamilia":8516,"logie":8517,"Ġdolor":8518,"Ġeka":8519,"Ġprosper":8520,"Ġsenmo":8521,"Ġcertas":8522,"Ġsukcesos":8523,"Ġimpon":8524,"Ġedzin":8525,"ĠVjetnamio":8526,"BC":8527,"vy":8528,"laÄµo":8529,"Ġlaci":8530,"Äīojn":8531,"Ġmontro":8532,"Ġlingvan":8533,"Ġtrej":8534,"Ġknabinoj":8535,"arth":8536,"ĠIN":8537,"gaze":8538,"ĠBiblioteko":8539,"Ġrando":8540,"Ġmodifita":8541,"Ġpel":8542,"ĠOS":8543,"Ġpasint":8544,"Ġnajbaraj":8545,"ĠKons":8546,"ÅŃropa":8547,"Ġtiamaniere":8548,"Ġaspektis":8549,"gla":8550,"Ġkonsum":8551,"Ġcentoj":8552,"zerbaj":8553,"poni":8554,"forto":8555,"Ġfakul":8556,"Ġkomunum":8557,"Ġegalas":8558,"cki":8559,"ĠkaÅŃzoj":8560,"fluo":8561,"Ġgejun":8562,"Krom":8563,"Ġmorton":8564,"Ġrenvers":8565,"ÂĶ":8566,"Ġdungi":8567,"eran":8568,"Ġkomisi":8569,"Ġgvid":8570,"ĠpornaÄµo":8571,"Ġ(...)":8572,"ĠerotikaÄµo":8573,"San":8574,"entis":8575,"Ġkost":8576,"temaj":8577,"Neni":8578,"gs":8579,"omio":8580,"Ġportre":8581,"ĠdanÄĿera":8582,"Ġanstata":8583,"Ġkemi":8584,"ternacia":8585,"Ġspecife":8586,"Ġfunkcioj":8587,"Ġkruc":8588,"Ġatakoj":8589,"Ġrevizi":8590,"Ġkvina":8591,"ĠEstonio":8592,"Alia":8593,"listoj":8594,"ĠaÅŃstra":8595,"ĠarÄĿ":8596,"Ġaldone":8597,"Ġfidin":8598,"Ġsukceson":8599,"Ġinsis":8600,"ĠAtlan":8601,"Ġagrikulturo":8602,"ĠâĢİ":8603,"nivelo":8604,"Ġari":8605,"ketojn":8606,"heim":8607,"Ġelsendo":8608,"His":8609,"Ġfrekven":8610,"Ġsezono":8611,"lulo":8612,"ĠÄĪirkaÅŃ":8613,"ksitaj":8614,"utime":8615,"Ġrekompen":8616,"RI":8617,"klon":8618,"Ġkontrau":8619,"ĠVenezuelo":8620,"igus":8621,"Ġtraktas":8622,"Ġkontribuoj":8623,"Ġjara":8624,"Ġkomercaj":8625,"Ġreciproke":8626,"XXX":8627,"ice":8628,"zberg":8629,"ĠEspero":8630,"Ġfuneb":8631,"Ġelektra":8632,"ĠRoter":8633,"Ġslo":8634,"Ġ46":8635,"feti":8636,"Ġkristanaj":8637,"Ġdevi":8638,"ĠVas":8639,"Ġpasas":8640,"nuda":8641,"Ġprovincoj":8642,"Ġgraveco":8643,"Ġpolu":8644,"ĠAbra":8645,"Ġaparato":8646,"Ġsonas":8647,"ED":8648,"tve":8649,"temo":8650,"rina":8651,"Ġmalkovri":8652,"gram":8653,"Ġkreinto":8654,"Ġpermesi":8655,"Ġpropr":8656,"Ġlasas":8657,"ĠTogo":8658,"Ġpastr":8659,"Ġhidro":8660,"Î¿":8661,"mane":8662,"ĠSpeci":8663,"ĠHindio":8664,"ĠAfganio":8665,"ptoj":8666,"Ġhan":8667,"maÅĿ":8668,"chel":8669,"ĠPoz":8670,"Kelkaj":8671,"ĠÅĿipoj":8672,"gxon":8673,"Ġatakis":8674,"ĠScienca":8675,"TI":8676,"Ġtage":8677,"Ġbongus":8678,"Ġalkoho":8679,"EG":8680,"Ġporti":8681,"denta":8682,"ĠokazaÄµoj":8683,"Ġenirejo":8684,"beloj":8685,"miks":8686,"Ġkomputiloj":8687,"Ġmalforta":8688,"anaj":8689,"alt":8690,"ĠFab":8691,"Ġdetalojn":8692,"ojo":8693,"Ġsateli":8694,"ĠaÅŃskultis":8695,"Ekzistas":8696,"Ġfur":8697,"Ġsurfa":8698,"Ġservojn":8699,"Ġ41":8700,"Ġflughaveno":8701,"intajn":8702,"poten":8703,"grado":8704,"ktata":8705,"ĠToki":8706,"ĠheredaÄµo":8707,"bjek":8708,"ĠAp":8709,"Ġformor":8710,"Ġimpos":8711,"iÄĿinte":8712,"Tiam":8713,"Ġgajni":8714,"Ġsupr":8715,"Ġpropagando":8716,"Äħ":8717,"Ġarkite":8718,"has":8719,"Ġsensen":8720,"Ġkorto":8721,"Ġofice":8722,"ĠLuksem":8723,"Ġinvitis":8724,"Ġmalpe":8725,"Ġsidi":8726,"ĠLat":8727,"Ġkanti":8728,"Ġpriskribis":8729,"Ġpruvi":8730,"Ġmalaltaj":8731,"Ġmezepoko":8732,"Ġkonstati":8733,"ĠmallaÅŃ":8734,"Ġverkas":8735,"ĠjuÄĿ":8736,"Ġsonor":8737,"gosla":8738,"Ġvegeta":8739,"dul":8740,"fano":8741,"koti":8742,"kursoj":8743,"ĠNapole":8744,"Ġmencii":8745,"ĠPrinco":8746,"Ġdimen":8747,"Ġtertre":8748,"amori":8749,"Ġtatuajes":8750,"OJ":8751,"pugo":8752,"belulino":8753,"ĠTraktato":8754,"moro":8755,"Ġsubstre":8756,"ronon":8757,"ĠdaÅŃro":8758,"Ġkursojn":8759,"Ġdonacoj":8760,"Ġnep":8761,"Ġmani":8762,"Ġfervojo":8763,"Ġ1940":8764,"Ġdiferenci":8765,"čĊ":8766,"Ġgi":8767,"Ġfinon":8768,"ĠRajtoj":8769,"Ã¦":8770,"Ġ1917":8771,"ĠNepalo":8772,"Ġpublikigas":8773,"ĠvoÄīon":8774,"kr":8775,"wo":8776,"Ġbien":8777,"Ġpure":8778,"Ġ1000":8779,"ĠUl":8780,"Ġpag":8781,"Ġefikon":8782,"ĠriÄīaj":8783,"vna":8784,"cico":8785,"pova":8786,"ght":8787,"Ġring":8788,"Ġkapitalis":8789,"ĠFundamen":8790,"Ġrigardu":8791,"Ġvenontaj":8792,"Ze":8793,"Ġskato":8794,"deman":8795,"Ġmalsama":8796,"Ġatend":8797,"Ġpreciz":8798,"talino":8799,"Ġparadi":8800,"ĠVirgulino":8801,"fonoj":8802,"kum":8803,"Ġjunularo":8804,"Ġofertas":8805,"cata":8806,"mamo":8807,"ĠGener":8808,"ĠnovaÄµo":8809,"Ġkapabloj":8810,"Ġ1948":8811,"Ġharmoni":8812,"ĠAngla":8813,"ktulo":8814,"ward":8815,"Ġalproksim":8816,"ĠAdam":8817,"Ġmateno":8818,"sider":8819,"ĠÄľene":8820,"Ġdiferencoj":8821,"dorf":8822,"ĠTeo":8823,"ĠBis":8824,"Ġplejmulto":8825,"Ġkorid":8826,"Ġareon":8827,"ĠNovjorko":8828,"hx":8829,"Ġperdo":8830,"Ġleteroj":8831,"Ġnajbara":8832,"sis":8833,"Ġkatedralo":8834,"Ġdekstre":8835,"Ġrevuon":8836,"jaran":8837,"Ġnekuti":8838,"Ġsuba":8839,"kantoj":8840,"vario":8841,"Ġinfluis":8842,"ĠreÄĿino":8843,"Ġkomponisto":8844,"atajn":8845,"bras":8846,"yd":8847,"ĠKra":8848,"Ġfilm":8849,"mamoj":8850,"ĠaÄĿa":8851,"leton":8852,"ĠMus":8853,"Ġmalbono":8854,"Ġforpe":8855,"Ġligilo":8856,"ĠfetiÄīismo":8857,"Ñĩ":8858,"Ġbun":8859,"Ġ1918":8860,"Ġkolom":8861,"ĠÅľia":8862,"kaco":8863,"Ġsciencoj":8864,"Ġparolata":8865,"peci":8866,"Ġ800":8867,"Ġabomen":8868,"Ġmalfrua":8869,"85":8870,"cicoj":8871,"ĠTokio":8872,"Ġmastro":8873,"ĠQu":8874,"urs":8875,"Ġdensa":8876,"Ġgenu":8877,"ĠJosÃ©":8878,"Las":8879,"cero":8880,"ĠNiko":8881,"Ġnacian":8882,"Ġklima":8883,"gluteoj":8884,"pugoj":8885,"vinte":8886,"oriento":8887,"ekshibicio":8888,"gluteo":8889,"mamego":8890,"mamegoj":8891,"civi":8892,"pitaj":8893,"Ġdiskut":8894,"Ġinternaciajn":8895,"95":8896,"Ġå":8897,"gener":8898,"Ġrubri":8899,"Ġreciproka":8900,"ĠÄµurnalo":8901,"erotismo":8902,"Ġkomune":8903,"Ġbap":8904,"Ġinternaj":8905,"ATO":8906,"))":8907,"kokri":8908,"Ġekrano":8909,"jeviÄī":8910,"ĠJose":8911,"html":8912,"zerbajÄĿ":8913,"deto":8914,"ĠRevolucio":8915,"Ġtradukisto":8916,"Ġpeko":8917,"Ġjunulino":8918,"ĠBjalistoko":8919,"Ġfunkcion":8920,"Ġproviz":8921,"ĠBone":8922,"ction":8923,"pono":8924,"toria":8925,"Ġsubjekto":8926,"ĠAN":8927,"Ġgvidas":8928,"logian":8929,"Ġsamajn":8930,"zeno":8931,"ĠpasaÄĿ":8932,"Ġpopularaj":8933,"Ġdisvasti":8934,"Ġproceso":8935,"Ġneevi":8936,"ĠPekino":8937,"fetiÄīismo":8938,"daro":8939,"tiu":8940,"Ġfum":8941,"lokoj":8942,"celist":8943,"midzi":8944,"ĠInfanoj":8945,"Ġaci":8946,"Ġsenton":8947,"Ġesprimoj":8948,"Ġmalferm":8949,"ĠIzraelidoj":8950,"elli":8951,"ques":8952,"Ġ1939":8953,"tabuo":8954,"ĠBran":8955,"Äīiesulino":8956,"ĠWorld":8957,"langumi":8958,"Ġplie":8959,"dentoj":8960,"Ġeblaj":8961,"âĢĻ,":8962,"seksumi":8963,"midzo":8964,"midzumo":8965,"sesdeknaÅŃi":8966,"Ġlernu":8967,"Ġbataloj":8968,"ĠInternational":8969,"83":8970,"SS":8971,"sia":8972,"Ġilu":8973,"Ġdentoj":8974,"])":8975,"osto":8976,"Ġtemojn":8977,"zeco":8978,"Ġkulti":8979,"Ġuzadon":8980,"kano":8981,"ĠDomo":8982,"Ġoftaj":8983,"Ġokulo":8984,"Ġpotenc":8985,"ÅĤo":8986,"Ġkristanismo":8987,"Ġkompi":8988,"Ġpublikigi":8989,"Ġtradicie":8990,"zito":8991,"ĠIvan":8992,"ĠFes":8993,"ĠMag":8994,"think":8995,"tegori":8996,"dismo":8997,"Ġstrukturoj":8998,"Lu":8999,"Ġplua":9000,"ĠaranÄĿis":9001,"Ġrezulton":9002,"Ġefekti":9003,"ĠbranÄīoj":9004,"Ġkatastrofo":9005,"ĠSoma":9006,"Ġpira":9007,"Ġkonsistis":9008,"Ġkongresejo":9009,"Ġresan":9010,"ĠIlia":9011,"Ġkolektis":9012,"ciis":9013,"ĠÄĿem":9014,"ont":9015,"Ġskalo":9016,"ĠlanÄīis":9017,"Ġgepatra":9018,"ciklopedio":9019,"dino":9020,"zaro":9021,"ters":9022,"Ġmaluti":9023,"ĠFla":9024,"Ġstaton":9025,"Ġsolvon":9026,"Ġhered":9027,"Ġaliron":9028,"Ġartisto":9029,"Ġaldono":9030,"Ġeblo":9031,"Ġsacerdo":9032,"Ġrigardante":9033,"Ġenhavis":9034,"Ġkomunik":9035,"retario":9036,"ĠmanÄĿaÄµo":9037,"Ġunuso":9038,"siko":9039,"Ġterminojn":9040,"Ġnivelon":9041,"kes":9042,"ute":9043,"Estis":9044,"Ġerarojn":9045,"Ġ$":9046,"tiro":9047,"ĠDec":9048,"ĠCO":9049,"titan":9050,"ĠindiÄĿ":9051,"Ġese":9052,"logis":9053,"Ġnegle":9054,"Ġmonumento":9055,"Ġfakton":9056,"Ġromi":9057,"Ġindiko":9058,"Ġamikeco":9059,"Ġripoz":9060,"ĠIndi":9061,"Ġelektoj":9062,"amik":9063,"Komun":9064,"ĠTute":9065,"ville":9066,"ĠfondiÄĿis":9067,"ĠPrezi":9068,"Ġpremion":9069,"Ġredukti":9070,"Ġpricelist":9071,"Ġimper":9072,"Ġinstancoj":9073,"ĠIndonezio":9074,"Ġvivantaj":9075,"tuala":9076,"ĠpaÄĿaro":9077,"Ġkrimo":9078,"Ġklarigo":9079,"ĠÄĿuas":9080,"Ġplenkreskuloj":9081,"AE":9082,"eba":9083,"Ġesperanton":9084,"ĠChu":9085,"2005":9086,"Ġenergion":9087,"ĠpseÅŃ":9088,"Ġlibr":9089,"Ġunueco":9090,"Ġesting":9091,"Ġjunula":9092,"Ġdeputi":9093,"Ġribel":9094,"Ġokcidentaj":9095,"Afriko":9096,"raÅŃ":9097,"Ġcar":9098,"kunsi":9099,"jam":9100,"Ġmilitis":9101,"Ġfrat":9102,"Ġekzemplon":9103,"Ġpreciza":9104,"omente":9105,"Ġestab":9106,"Ġliberan":9107,"Ġkaptitaj":9108,"Ġ1968":9109,"Ġtransformi":9110,"Ġdevo":9111,"log":9112,"tantojn":9113,"ĠÄīirkaÅŃaÄµo":9114,"Ġfruktoj":9115,"Ġlernolibro":9116,"tantajn":9117,"profun":9118,"ĠKarl":9119,"ĠSerbio":9120,"ĠSor":9121,"Ġfajr":9122,"Ġenkondukis":9123,"rey":9124,"Ġeska":9125,"ĠHum":9126,"Ġmara":9127,"ponon":9128,"Ġtaksas":9129,"Ġfek":9130,"Ġkomenca":9131,"Ġdanc":9132,"lim":9133,"arado":9134,"Ġfilme":9135,"ĠÄĿust":9136,"Ġhipote":9137,"Ġfanto":9138,"ĠIII":9139,"Ġtatuaje":9140,"ism":9141,"Ġprezoj":9142,"vinco":9143,"Ġrilataj":9144,"turado":9145,"Ġdialogo":9146,"TML":9147,"ĠRoterdamo":9148,"my":9149,"Ġdest":9150,"Ġligoj":9151,"Ġvesto":9152,"EI":9153,"keno":9154,"ĠEven":9155,"Ġsendita":9156,"veni":9157,"Ġkvaza":9158,"dareco":9159,"Ġmalagra":9160,"Ġmalproksima":9161,"Ġrevuoj":9162,"kiuj":9163,"Ġvidin":9164,"ĠEsperantan":9165,"Ġmunici":9166,"Ġintegri":9167,"tifi":9168,"Ġinci":9169,"Ġankorau":9170,"Ġkvardek":9171,"Ġkapablis":9172,"opini":9173,"Ġsocialisma":9174,"ĠEvange":9175,"âĢ¢":9176,"Ġmov":9177,"Ġkant":9178,"Ġvastan":9179,"ktante":9180,"omi":9181,"Ġcigar":9182,"ĠHerzberg":9183,"ĠCX":9184,"2014":9185,"ĠmonaÄ¥ejo":9186,"Ġkondamn":9187,"Pol":9188,"rana":9189,"Ġalire":9190,"ĠÅĿtataj":9191,"Ġmatematiko":9192,"Ġimi":9193,"cezo":9194,"Ġinteresan":9195,"Ġadministrado":9196,"Ġtransdonis":9197,"Ġavo":9198,"Ġesploris":9199,"Ġkliento":9200,"Ġtendaro":9201,"ĠMora":9202,"iÄĿus":9203,"Ġaliloke":9204,"uth":9205,"Ã£o":9206,"Nur":9207,"Pas":9208,"cke":9209,"kongres":9210,"ĠBrun":9211,"ludo":9212,"Ġmekan":9213,"Plej":9214,"Ġsla":9215,"rantoj":9216,"Ġpartoprenos":9217,"Ġamike":9218,"Ġdivido":9219,"Ġekzisti":9220,"Ġstudento":9221,"one":9222,"intojn":9223,"dok":9224,"olk":9225,"Ġrestado":9226,"ĠHistorio":9227,"Ġmallongaj":9228,"Ġkolonioj":9229,"ĠRigardu":9230,".),":9231,"ĠÄĿeneralan":9232,"Ġgravecon":9233,"ĠlaÅŃte":9234,"Ġklarigojn":9235,"ĠIslando":9236,"Ġgrafi":9237,"Ġ1932":9238,"Ġindustria":9239,"Ġincen":9240,"Ġarbi":9241,"Ġpagas":9242,"Ġ:)":9243,"Ġkaraj":9244,"Ġmiliardoj":9245,"Ġpole":9246,"Ġaron":9247,"Ġakcen":9248,"Ġnormo":9249,"igitan":9250,"Ġterminoj":9251,"iza":9252,"Ġpano":9253,"Ġpentris":9254,"favor":9255,"Ġnecesaj":9256,"Ġbrun":9257,"Ġsubme":9258,"Ġ1988":9259,"lego":9260,"ĠEtio":9261,"Ġ75":9262,"komunumo":9263,"Ġ>":9264,"vejo":9265,"kana":9266,"Ġpiedi":9267,"tigos":9268,"Ġklopodoj":9269,"Ġmaleb":9270,"ĠNikolao":9271,"Ġbuti":9272,"Ġverdaj":9273,"ĠokazaÄµo":9274,"Ġkompletigi":9275,"Ð¾Ð²":9276,"Ġhungaroj":9277,"mara":9278,"Î¹":9279,"ĠnomiÄĿis":9280,"Ġmali":9281,"karto":9282,"Ġelstaraj":9283,"Ġkomplika":9284,"Ġsenes":9285,"Ġkonsento":9286,"Ġtrankvila":9287,"Ġformato":9288,"ĠSeb":9289,"Ġdika":9290,"ĠGlo":9291,"Ġprezentado":9292,"laboro":9293,"ĠvojaÄĿi":9294,"IT":9295,"ĠfiniÄĿas":9296,"Ġkanalo":9297,"Ġrenkontas":9298,"Ġdirite":9299,"Ġfizika":9300,"mur":9301,"poro":9302,"Ġliterojn":9303,"Ġinterkompren":9304,"Ġmastr":9305,"ĠThomas":9306,"Ġestraranoj":9307,"Ġgejunuloj":9308,"ĠenloÄĿ":9309,"Ġdubas":9310,"fort":9311,"stacio":9312,"Ġceter":9313,"Ġregistaron":9314,"Ġabsur":9315,"Ġvizitas":9316,"ĠRomia":9317,"Ġduobla":9318,"ilvan":9319,"ĠGub":9320,"peno":9321,"ĠKomunumo":9322,"Ġ54":9323,"eblajn":9324,"ĠHispan":9325,"ĠlarÄĿ":9326,"Ġvigla":9327,"Ġeterne":9328,"mena":9329,"periodo":9330,"????":9331,"tein":9332,"ĠAus":9333,"Ġgrafo":9334,"Ġpensojn":9335,"Ġkapablon":9336,"Ġfrazon":9337,"?)":9338,"Ġgor":9339,"Ġmaldi":9340,"Ġkomunismo":9341,"Ġamis":9342,"ĠDomini":9343,"PS":9344,"hl":9345,"Ġino":9346,"daÅŃro":9347,"konto":9348,"mila":9349,"Ġturistoj":9350,"Ġsocian":9351,"Ġinfluas":9352,"94":9353,"Man":9354,"lero":9355,"Ġ52":9356,"Ġakcept":9357,"Ġgrandparte":9358,"Ġprotekto":9359,"lovaka":9360,"Ġpreterpas":9361,"Ġkonscias":9362,"picxo":9363,"ĠMichael":9364,"scen":9365,"enda":9366,"Ġges":9367,"Ġkomento":9368,"Ġtreege":9369,"puÅĿ":9370,"Ġparolo":9371,"gxas":9372,"PA":9373,"Ġkus":9374,"ciajn":9375,"Ġtuto":9376,"Ġmalsanu":9377,"Ġdistriktoj":9378,"ĠSekure":9379,"Ġrom":9380,"Ġgvido":9381,"Ġhorlo":9382,"ĠLingva":9383,"Ġurbestro":9384,"Ġfloro":9385,"Ġthat":9386,"ĠPal":9387,"Ġlandojn":9388,"Ġsinde":9389,"nudajxo":9390,"ĠJac":9391,"Ġegaleco":9392,"Ġmaldekstre":9393,"Ġestrarano":9394,"picxoj":9395,"geto":9396,"ĠGrupo":9397,"fro":9398,"Ġade":9399,"ĠKrako":9400,"Ġopera":9401,"Ġ1986":9402,"Ġekzamenon":9403,"Ġsimboloj":9404,"tigojn":9405,"ĠZag":9406,"Ġfenestroj":9407,"Ġfirmaoj":9408,"Cetere":9409,"Ã´":9410,"Ġalin":9411,"Ġ58":9412,"Ġaktivaj":9413,"Ġkontaktoj":9414,"ĠAfrika":9415,"Ġ250":9416,"Ġnesu":9417,"Ġigi":9418,"ujoj":9419,"medi":9420,"ĠÄĪilio":9421,"ĠBarcel":9422,"ach":9423,"hara":9424,"Ġzorge":9425,"ĠMalaj":9426,"Ġaliro":9427,"Ġhoman":9428,"Ġdisponas":9429,"ĠaÅŃtomob":9430,"CH":9431,"Ġkern":9432,"ĠestaÄµo":9433,"ĠAlban":9434,"Ġofic":9435,"ĠmesaÄĿojn":9436,"Ġlakto":9437,"indaj":9438,"Ġmontrata":9439,"gadis":9440,"Ġpublikigo":9441,"nome":9442,"ĠokupiÄĿis":9443,"hun":9444,"Ġtipa":9445,"Ġelti":9446,"puta":9447,"Ġfakoj":9448,"Ġplanto":9449,"Ġmemorigas":9450,"Ġligilojn":9451,"lernis":9452,"Ġteknika":9453,"Ġentomb":9454,"Ġtropi":9455,"Ġlasu":9456,"Ġharoj":9457,"partoj":9458,"Ġbatalis":9459,"ĠMuzi":9460,"toron":9461,"Ġekspor":9462,"Ġokazigis":9463,"enerale":9464,"Ġlastajn":9465,"Ġmajstro":9466,"ktajn":9467,"ĠLud":9468,"ĠFlu":9469,"mond":9470,"Ġsinoni":9471,"Ġlabora":9472,"PERANTO":9473,"zoro":9474,"lian":9475,"Ġdifinitaj":9476,"ĠSlovenio":9477,"riÄī":9478,"ĠStalino":9479,"Ġsendependeco":9480,"Unue":9481,"stein":9482,"dejon":9483,"Ġdeziron":9484,"Ġciviliz":9485,"Ġbanko":9486,"plor":9487,"Ġaspi":9488,"Ġmanieron":9489,"sel":9490,"Ġefektiva":9491,"oritato":9492,"vivo":9493,"Ġutiligi":9494,"Ġorganoj":9495,"ĠCorsetti":9496,"Ġmej":9497,"Ġplanoj":9498,"ĠPeruo":9499,"Ġdonacis":9500,"Ġwith":9501,"Ġeroj":9502,"mao":9503,"Ġfermita":9504,"ÅĿing":9505,"Ġpripensi":9506,"Ġcan":9507,"Ġbonkor":9508,"Ġestabli":9509,"ĠhaÅŃto":9510,"Ġsamideanoj":9511,"Ġsekcioj":9512,"Ġkuris":9513,"Ġimpor":9514,"ĠDemokratia":9515,"Ġpostuloj":9516,"Ġrusaj":9517,"ĠGrand":9518,"ĠJerusalem":9519,"ĠKonstitucio":9520,"LU":9521,"liÄĿas":9522,"Ġpartoprenon":9523,"Ġedzinon":9524,"dero":9525,"naj":9526,"ĠKing":9527,"Ġpostulo":9528,"Ġscenejo":9529,"Ġsoj":9530,"ĠSinga":9531,"Ġakor":9532,"litera":9533,"ĠLegi":9534,"Ġtendenco":9535,"indi":9536,"ĠAzerbajÄĿ":9537,"usa":9538,"nivela":9539,"hav":9540,"Ġ51":9541,"Ġ1933":9542,"vilo":9543,"Ġvendi":9544,"Ġvortaron":9545,"kultur":9546,"bili":9547,"ney":9548,"Ġrevenas":9549,"ĠEarth":9550,"Ġligas":9551,"miro":9552,"Ġekzistantaj":9553,"ĠÄīambroj":9554,"Ġprivataj":9555,"Ġejoj":9556,"Ġfalo":9557,"Ġesprimon":9558,"Ġrevenos":9559,"Ġmortintoj":9560,"KA":9561,"Kara":9562,"igataj":9563,"devena":9564,"ĠelÄīer":9565,"Ġpostenon":9566,"Ġakre":9567,"Ġondoj":9568,"Ġsablo":9569,"Ġskribu":9570,"Ġpovon":9571,"Ġflava":9572,"ligon":9573,"ĠAldone":9574,"ĠrenkontiÄĿis":9575,"Ġrimarkas":9576,"ĠlingvaÄµo":9577,"Ġkomitatanoj":9578,"Cer":9579,"blu":9580,"ĠJus":9581,"Ġlegan":9582,"Ġekscii":9583,"elsen":9584,"ĠGon":9585,"ĠGas":9586,"stato":9587,"Ġfondo":9588,"Ġvaloras":9589,"Ġgeografia":9590,"Ġvenki":9591,"profi":9592,"ĠReÄĿo":9593,"logioj":9594,"ĠFinfine":9595,"ĠJames":9596,"Ġmont":9597,"Ġekvival":9598,"Ġmalhelpas":9599,"uc":9600,"Ġstel":9601,"Ġmalkla":9602,"Ġfara":9603,"Ġkandidato":9604,"ID":9605,"Ġlumon":9606,"Ġmonar":9607,"Ġindiferen":9608,"inten":9609,"ralo":9610,"Ġpostula":9611,"simp":9612,"Ġtrovita":9613,"ĠHavano":9614,"Ġdialektoj":9615,"Î½":9616,"Ġpom":9617,"ĠEm":9618,"Ġgloro":9619,"Ġsekvanta":9620,"Ġkutimaj":9621,"Ġagor":9622,"Ġvane":9623,"ĠEblas":9624,"Ġaktoro":9625,"Ġfazo":9626,"Ġfini":9627,"Ġembar":9628,"ĠÏ":9629,"Ġpes":9630,"lilo":9631,"viva":9632,"Ġsincere":9633,"cepte":9634,"Ġklaku":9635,"ĠArmenio":9636,"amenhof":9637,"Ġdense":9638,"Ġnumeron":9639,"Ġbrul":9640,"Krome":9641,"Ġfr":9642,"Ġfros":9643,"ĠSun":9644,"ĠMel":9645,"emuloj":9646,"Ġfian":9647,"Ġfluas":9648,"Ġuniverso":9649,"Ġdatumojn":9650,"ĠfreÅĿ":9651,"Ġstrategio":9652,"Centro":9653,"tigante":9654,"ĠHans":9655,"ĠBoli":9656,"ĠJerusalemo":9657,"Ø§Ù":9658,"Ġtravivis":9659,"igojn":9660,"monio":9661,"ĠTiaj":9662,"Ġekzistanta":9663,"Ġjeto":9664,"Ġfaden":9665,"Ġebligi":9666,"Ġrenkont":9667,"Ġpruvas":9668,"kunveno":9669,"Ġduling":9670,"ĠCez":9671,"ĠkondiÄīojn":9672,"ĠLeo":9673,"Ġleterojn":9674,"Ġbonege":9675,"ĠmaÅĿin":9676,"Usono":9677,"ĠAla":9678,"dela":9679,"decon":9680,"ĠMac":9681,"blog":9682,"Ġtaskojn":9683,"Ġrideto":9684,"Ġtelefonvo":9685,"peco":9686,"Ġdiligen":9687,"ĠAlÄĿ":9688,"Ġdeviga":9689,"Ġfacil":9690,"Ġindividuo":9691,"Ġpordego":9692,"oman":9693,"Ġrok":9694,"Ġtradukas":9695,"Ġakcepto":9696,"Ġrango":9697,"ĠHitler":9698,"taks":9699,"Ġjc":9700,"Ġekiris":9701,"Ġturmen":9702,"Ġenkonduki":9703,"Ġkonstatas":9704,"Ġguberni":9705,"Ġlit":9706,"ĠClaude":9707,"Ġskriba":9708,"Ġador":9709,"Ġmultfoje":9710,"droj":9711,"ĠBoris":9712,"ĠVis":9713,"ĠLibano":9714,"Ġfundamento":9715,"kesto":9716,"Ġheli":9717,"ĠkondiÄīo":9718,"pozicioj":9719,"Ġgrandegan":9720,"ĠTesta":9721,"ĠpreÄĿo":9722,"Ġpezo":9723,"ĠindiÄĿen":9724,"Ġ1985":9725,"ĠTais":9726,"ĠÄľenerale":9727,"ĠBlanka":9728,"Ġenigi":9729,"Ġido":9730,"Ġluno":9731,"Ġagon":9732,"Ġkolero":9733,"Ġ1944":9734,"Ġsenpaga":9735,"DR":9736,"ic":9737,"lejoj":9738,"Ġsana":9739,"ĠreÄĿlando":9740,"ĠSomalio":9741,"ĠlaÅŃeble":9742,"Ġurbaj":9743,"Ġsimilajn":9744,"ĠXian":9745,"ĠantaÅŃan":9746,"centa":9747,"ĠmarÅĿ":9748,"ĠnovaÄµojn":9749,"Ġ1967":9750,"Ġdividi":9751,"Ġombro":9752,"Ġetoson":9753,"Ġmalver":9754,"zonon":9755,"Ġgefratoj":9756,"ĠKulturo":9757,"To":9758,"yer":9759,"Ġreago":9760,"Ġteritorion":9761,"Ġsving":9762,"Ġperdas":9763,"Ġinterromp":9764,"âĪŀâĪŀâĪŀâĪŀâĪŀâĪŀâĪŀâĪŀ":9765,"Ge":9766,"ĠEta":9767,"Ġintera":9768,"ettes":9769,"ĠAÅŃgusto":9770,"ĠMaroko":9771,"isman":9772,"ĠRio":9773,"Ġfaka":9774,"Ġsituacioj":9775,"nombra":9776,"ĠÄīeestas":9777,"Ġprogrameroj":9778,"ĠFilipinoj":9779,"ĠJaro":9780,"Ġkromaj":9781,"Ġkurac":9782,"Ġbando":9783,"Ġordinaraj":9784,"Ġmalgrandajn":9785,"Ġdividita":9786,"Ġevidenta":9787,"ĠCharles":9788,"muziko":9789,"Fon":9790,"leri":9791,"lev":9792,"Ġmig":9793,"Ġesperantlingva":9794,"ĠInsuloj":9795,"ĠÄľenevo":9796,"ĠBet":9797,"ĠVivo":9798,"ĠAndr":9799,"Ġinstruo":9800,"Ġgvidi":9801,"Ġopiniojn":9802,"Ġintenco":9803,"ĠJud":9804,"ĠÅľtato":9805,"Tem":9806,"ĠTrin":9807,"Ġunuflanke":9808,"ĠJas":9809,"Dankon":9810,"Ġlerte":9811,"Ġatestas":9812,"ĠPom":9813,"ĠNAS":9814,"Ġmorala":9815,"Ġ59":9816,"kantaj":9817,"ĠServo":9818,"ĠÄĪeÄ¥oslovakio":9819,"pta":9820,"beto":9821,"Ġsendependaj":9822,"lingvanoj":9823,"Ġnuan":9824,"Ã¶n":9825,"Ġsilent":9826,"86":9827,"Ġanalo":9828,"ĠKomer":9829,"ktadon":9830,"Ġjura":9831,"Ġeniras":9832,"Fin":9833,"tilon":9834,"espri":9835,"ĠKat":9836,"Ġlecion":9837,"ĠRusia":9838,"Ġkunvenoj":9839,"Soci":9840,"Share":9841,"Hun":9842,"Ġtransprenis":9843,"ĠMalfer":9844,"Ġ1977":9845,"ĠOriento":9846,"ware":9847,"Ġribe":9848,"Ġsocial":9849,"Ġstrukturon":9850,"Ġanimon":9851,"\";":9852,"wil":9853,"inK":9854,"ĠHomoj":9855,"ĠÅľajnas":9856,"Ġkonduki":9857,"Ġeliri":9858,"Ġnumeroj":9859,"tarojn":9860,"Ġrestu":9861,"ĠValen":9862,"daÄµojn":9863,"Ġgermane":9864,"Ġkonkreta":9865,"LS":9866,"zam":9867,"Ġarkeo":9868,"Ġekskurso":9869,"ĠZuri":9870,"Ġkonvink":9871,"ĠbroÅĿ":9872,"Radio":9873,"fojn":9874,"Ġmalsimi":9875,"Ġtradukojn":9876,"ĠParko":9877,"Ġabstra":9878,"ĠSaksio":9879,"Ġfidela":9880,"deÅĿo":9881,"Ġelparo":9882,"say":9883,"Ġuniversitata":9884,"ĠProjekto":9885,"Ġkompro":9886,"imar":9887,"Ġanimaloj":9888,"dum":9889,"tivajn":9890,"Ġbest":9891,"ĠAuld":9892,"kuro":9893,"ĠÂĸ":9894,"Ġdonacon":9895,"ĠpoÅĿtkodo":9896,"!...":9897,"rad":9898,"mesa":9899,"Ġsimplan":9900,"Ġvicprezidanto":9901,"Ġscipovas":9902,"pur":9903,"raÄµo":9904,"Ġelmig":9905,"Ġproponita":9906,"RAT":9907,"Ġpod":9908,"ĠAntar":9909,"Ġvaroj":9910,"ftvaro":9911,"Äįek":9912,"Ġliberecon":9913,"ĠplaÄīis":9914,"ĠVilhel":9915,"Ligo":9916,"Ġsamnoma":9917,"ĠPoÅĿt":9918,"ĠÅĿanÄĿas":9919,"Ġrapideco":9920,"Ġekzamenoj":9921,"Ġalvenas":9922,"gilo":9923,"rektoro":9924,"ghis":9925,"ĠSalom":9926,"corde":9927,"Ġdefinitive":9928,"ĠFilipo":9929,"Ġecoj":9930,"Ġape":9931,"ĠLatin":9932,"ĠRegno":9933,"ĠengaÄĿ":9934,"kovrilaj":9935,"100":9936,"Ġinoj":9937,"Ġ1914":9938,"anao":9939,"ĠNatur":9940,"Ġdiablo":9941,"the":9942,"Ġrego":9943,"Ġ53":9944,"ĠMovado":9945,"Ġkunlaborantoj":9946,"Ġposedis":9947,"Ġnekompren":9948,"prezi":9949,"Ġster":9950,"arojn":9951,"vola":9952,"turilo":9953,"Ġebri":9954,"logiajn":9955,"Ġknaboj":9956,"Ġastero":9957,"Ġ#?":9958,"danÄĿer":9959,"Ġprivilegi":9960,"Ġintertempe":9961,"haus":9962,"vinta":9963,"ĠMeze":9964,"sky":9965,"ilejo":9966,"Ġlandlimo":9967,"ret":9968,"Ġekzi":9969,"ĠMalnova":9970,"Ġfamilion":9971,"Ġtransiris":9972,"Ġislama":9973,"ĠTajvano":9974,"Ġperspektivo":9975,"Pres":9976,"Ð¹":9977,"Ġvenk":9978,"Ġhonoro":9979,"Ġkovrita":9980,"91":9981,"CE":9982,"lari":9983,"Ġsiavice":9984,"Ġekonomian":9985,"Ġminutojn":9986,"Ġtras":9987,"Ġkoin":9988,"Ġplanon":9989,"Ġtota":9990,"ĠdediÄīis":9991,"Ġkategorioj":9992,"Lia":9993,"elaj":9994,"Ġkerno":9995,"ĠreÄĿoj":9996,"Ġprovoj":9997,"ĠTea":9998,"ĠCan":9999,"Ġsinte":10000,"hava":10001,"Ġmalhelpi":10002,"Ġaprobis":10003,"dun":10004,"Ġport":10005,"Ġkuire":10006,"enove":10007,"Ġnecesajn":10008,"ĠSocia":10009,"Ġfunkciado":10010,"ĠvojaÄĿoj":10011,"lernejoj":10012,"Ġusonanoj":10013,"ĠHenri":10014,"Ġkompanioj":10015,"ĠZagre":10016,"Ġfeb":10017,"ĠFoje":10018,"Ġformis":10019,"Ġkuri":10020,"Ġ57":10021,"ĠAlberto":10022,"Ġindividua":10023,"Zelando":10024,"Ori":10025,"ĠfiÅĿkap":10026,"Alike":10027,"cro":10028,"dern":10029,"ii":10030,"Ġaltaro":10031,"igiloj":10032,"Ġeksklu":10033,"Ġkomputila":10034,"Ġseminario":10035,"ShareAlike":10036,"lao":10037,"plano":10038,"Ġfaman":10039,"Ġmalliberejo":10040,"klino":10041,"teble":10042,"meno":10043,"klubo":10044,"ĠOrganizaÄµoj":10045,"ĠDokumentoj":10046,"tico":10047,"ĠGam":10048,"Ġsklavoj":10049,"kamen":10050,"Ġtipoj":10051,"Ġ56":10052,"umena":10053,"ĠdeÄµ":10054,"lot":10055,"Ġprocen":10056,"Ġdirus":10057,"Ġsenlabor":10058,"olingo":10059,"ĠMarko":10060,"ĠPaco":10061,"ĠaÅŃtoritatoj":10062,"Ġkonfliktoj":10063,"Ġetike":10064,"Ġmeksi":10065,"Ġfraz":10066,"ĠJapan":10067,"Ġrezultas":10068,"Ġspertojn":10069,"Ġ1979":10070,"ĠtranslokiÄĿis":10071,"Ġdevenis":10072,"ierre":10073,"Ġbruo":10074,"Kompreneble":10075,"ĠAzerbajÄĿano":10076,"97":10077,"Ġenre":10078,"ĠFaj":10079,"Ġkonversacio":10080,"Ġforpasis":10081,"Ġmalhela":10082,"filoj":10083,"Ġperd":10084,"ĠHi":10085,"Ġsuperas":10086,"Ġkarto":10087,"ye":10088,"inario":10089,"tite":10090,"Ġrevo":10091,"ĠAk":10092,"Ġbondezi":10093,"Ġaperinta":10094,"Ġdeklaras":10095,"Ġtombejo":10096,"ĠApri":10097,"Ġgratu":10098,"ĠForumo":10099,"Ġregionaj":10100,"äº":10101,"Ġex":10102,"ranto":10103,"Ġkonservis":10104,"esperantistoj":10105,"Ġhistoriisto":10106,"Ġbron":10107,"Ġleksi":10108,"Ġbrila":10109,"ĠAntver":10110,"cino":10111,"âĶ":10112,"Ġdisdon":10113,"Ġtam":10114,"Ġkomprenebla":10115,"Ġtelevid":10116,"Ġvolontuloj":10117,"ĠBosnio":10118,"Ġ:-)":10119,"Ġprave":10120,"tegia":10121,"Ġmalfermo":10122,"Ġtrink":10123,"jes":10124,"Ġenig":10125,"Ġkritika":10126,"Ġrakonton":10127,"farado":10128,"Ġmultnombraj":10129,"Ġalloga":10130,"ĠPluraj":10131,"lekto":10132,"ighis":10133,"ĠMc":10134,"Ġmalgra":10135,"ĠOrganizo":10136,"maro":10137,"Ġdevon":10138,"Ġmm":10139,"Ġesperon":10140,"Ġbril":10141,"Ġtransporto":10142,"Ġstatuto":10143,"Ġjo":10144,"Ġservon":10145,"Ġbaga":10146,"ĠdaÅŃra":10147,"ÄĿantoj":10148,"Ġresto":10149,"marko":10150,"Ġrum":10151,"kapablo":10152,"ĠBruselo":10153,"Ġafa":10154,"ĠProfes":10155,"ĠVerÅĿajne":10156,"Ġkatolikoj":10157,"muloj":10158,"Å¼":10159,"Ġvizita":10160,"ĠLar":10161,"Ġoran":10162,"Ġbeleco":10163,"ĠÄµa":10164,"Ġkonvinki":10165,"ega":10166,"festo":10167,"tulojn":10168,"war":10169,"ĠKlubo":10170,"vat":10171,"ĠFettes":10172,"paÄµo":10173,"Ġkaver":10174,"mentaj":10175,"respon":10176,"Ġamuzi":10177,"Ġplanedoj":10178,"hismo":10179,"emajn":10180,"ĠUru":10181,"Ġgraf":10182,"Ġviando":10183,"Ġkuraci":10184,"Ġdoloro":10185,"ĠSingapuro":10186,"AB":10187,"Ä«":10188,"Ġdras":10189,"Ġvendis":10190,"ĠrenkontiÄĿon":10191,"Ġeksplodis":10192,"Ġmedicino":10193,"kipedion":10194,"tikisto":10195,"Ġkorup":10196,"Ġstudado":10197,"Ġplial":10198,"Ġaktiveco":10199,"ĠDiskuto":10200,"mith":10201,"Ġakra":10202,"Ġkurio":10203,"Ġpozitiva":10204,"Ġrealigo":10205,"dolf":10206,"ĠStanis":10207,"Ġnesto":10208,"Ġhier":10209,"Ġmalsupre":10210,"ĠdisvastiÄĿis":10211,"Ġidenteco":10212,"VD":10213,"Ġpilo":10214,"Ġenor":10215,"Ġkomunistoj":10216,"ĠfeliÄīe":10217,"Ġagnoskas":10218,"Ġgusto":10219,"ĠPreskaÅŃ":10220,"Ġabsoluta":10221,"ĠTogolando":10222,"ĠRed":10223,"Ġroz":10224,"Ġtradicioj":10225,"Ġinternacie":10226,"Ġalportas":10227,"ĠÅĿatata":10228,"Ġsonoj":10229,"ĠEfektive":10230,"âĢĳ":10231,"Ġpapa":10232,"centra":10233,"Ġpensado":10234,"Ġkruco":10235,"Ġseka":10236,"malo":10237,"Ġcerb":10238,"ĠMont":10239,"jariÄĿo":10240,"Ġapuda":10241,"germana":10242,"Karaj":10243,"OM":10244,"Ġplas":10245,"ĠMiaj":10246,"Ġkamparo":10247,"Ġ1908":10248,"Ġdialekto":10249,"estron":10250,"ĠTol":10251,"Ġund":10252,"Ġtraktado":10253,"Ġfalas":10254,"ĠJuan":10255,"Ġalvoko":10256,"kolon":10257,"cego":10258,"Ġnocio":10259,"Ġvarmo":10260,"Ġpopulacio":10261,"iel":10262,"Ġagis":10263,"Äīen":10264,"Ġfero":10265,"ĠÄīevaloj":10266,"Ġrusoj":10267,"ĠMediteran":10268,"sx":10269,"Ġby":10270,"Ġlipoj":10271,"ĠLicen":10272,"bazo":10273,"Ġpriskribita":10274,"ĠaÅŃtoritato":10275,"Ġdetruis":10276,"ĠKle":10277,"ĠÄľin":10278,"ĠsorÄī":10279,"ĠEkster":10280,"ĠVaÅĿing":10281,"Ġdron":10282,"stina":10283,"ĠparoÄ¥":10284,"Ġuzitaj":10285,"''":10286,"cir":10287,"viv":10288,"dekaj":10289,"ĠWin":10290,"Ġ65":10291,"Ġaserto":10292,"96":10293,"tter":10294,"Ġshi":10295,"ĠRek":10296,"Ġverkado":10297,"ĠmalriÄīaj":10298,"Ġdokumenton":10299,"Ġdokumentojn":10300,"ÑģÑĤ":10301,"ep":10302,"nik":10303,"Ġtrafiko":10304,"Ġtrium":10305,"Ġnaskita":10306,"ĠÅĿtonoj":10307,"Ġ@":10308,"ĠMaÅŃri":10309,"dad":10310,"Ġromanoj":10311,"Ġkonkuren":10312,"UNK":10313,"nan":10314,"ĠneÄĿ":10315,"Ġelementojn":10316,"Ã©r":10317,"ĠJapana":10318,"Ġ1976":10319,"Ġulo":10320,"teblas":10321,"Ġbord":10322,"Ġghis":10323,"ĠPr":10324,"Ġnomitaj":10325,"ĠpentraÄµoj":10326,"profita":10327,"ĠSvisio":10328,"!!!":10329,"ĠreÄĿisoro":10330,"emor":10331,"patrino":10332,"pilo":10333,"parta":10334,"ĠEkzem":10335,"ĠÃł":10336,"Ġblogon":10337,"Ġ1982":10338,"Ġraportoj":10339,"Ġekstrema":10340,"Ġatribui":10341,"etojn":10342,"Ġqu":10343,"osta":10344,"ĠGil":10345,"Ġgrandio":10346,"Ġfrazojn":10347,"Ġrifuzas":10348,"Ġkategorion":10349,"Ġlogiko":10350,"all":10351,"Ġbalan":10352,"Ġ120":10353,"ĠkonatiÄĿis":10354,"Ġenlanda":10355,"ĠKvar":10356,"Ġpagis":10357,"tine":10358,"historio":10359,"gono":10360,"Ġeblos":10361,"Ġspecifaj":10362,"Ġregionon":10363,"Ġspite":10364,"ĠKartve":10365,"Ġarbus":10366,"ĠÄµurnalistoj":10367,"Ġkonforme":10368,"ĠTeri":10369,"ĠLago":10370,"ĠtuÅĿas":10371,"Ġoriginale":10372,"ĠKongresoj":10373,"ada":10374,"Ġpr":10375,"ÄĿeto":10376,"piro":10377,"Ġakuza":10378,"Ġfinita":10379,"ĠbedaÅŃras":10380,"ĠÄĪam":10381,"komple":10382,"Ġmalamo":10383,"late":10384,"Ġenvi":10385,"Ġfle":10386,"Ġreformo":10387,"Ġserpen":10388,"fluas":10389,"kataj":10390,"Ġvivoj":10391,"ĠBol":10392,"ĠkaÅĿi":10393,"ĠkontraÅŃa":10394,"Ġoft":10395,"jaroj":10396,"koto":10397,"ĠAR":10398,"ĠPie":10399,"pane":10400,"ĠÄīefan":10401,"parol":10402,"Ġ1978":10403,"ĠKultura":10404,"Ġartefarita":10405,"Peter":10406,"sh":10407,"Ġeo":10408,"Ġdeko":10409,"ĠMajo":10410,"ĠVian":10411,"Ġdevigis":10412,"Ġordinare":10413,"Ġkvaliton":10414,"kvankam":10415,"ĠaÄµoj":10416,"ÄĿinte":10417,"Ġnokton":10418,"ĠnovaÄµ":10419,"Ġkarno":10420,"Ġpriskriba":10421,"ĠBelorus":10422,"lla":10423,"eldon":10424,"Ġbv":10425,"Ġelektu":10426,"press":10427,"ĠLiteratura":10428,"Ġetan":10429,"teca":10430,"Ġtelefonvokoj":10431,"Ġtesta":10432,"Ġfora":10433,"Ġfunkcii":10434,"ĠHai":10435,"zes":10436,"Ġunuavice":10437,"here":10438,"liÄĿo":10439,"Ġpermesiloj":10440,"Ġtradukitaj":10441,"ĠMontri":10442,"ĠMalajzio":10443,"jaraj":10444,"Ġrezon":10445,"ĠProjek":10446,"porta":10447,"ĠKim":10448,"ĠWol":10449,"Ġplenigis":10450,"Ġprogramojn":10451,"tekni":10452,"riÄĿis":10453,"ĠaÅŃten":10454,"ebleco":10455,"Fakte":10456,"Ġfakaj":10457,"ĠinteresiÄĿis":10458,"Ġ1983":10459,"ĠÅĿanÄĿiÄĿas":10460,"Ġlimojn":10461,"vila":10462,"Ġforiri":10463,"programo":10464,"mals":10465,"Ġ1984":10466,"ĠHazar":10467,"Ġstrebas":10468,"Ġrevolucia":10469,"uta":10470,"Ġvira":10471,"Ġvikipedio":10472,"ĠDor":10473,"Ġkapi":10474,"Ġminer":10475,"Ġtrinki":10476,"Ġalvokon":10477,"Ġsingar":10478,"liga":10479,"amaso":10480,"Ġovo":10481,"ĠNek":10482,"oniko":10483,"Ġekziston":10484,"Ġoriginalaj":10485,"ĠTurk":10486,"Ġkrono":10487,"fig":10488,"tonio":10489,"preno":10490,"Ġambi":10491,"Ġestroj":10492,"Ġrektan":10493,"ĠÅĿte":10494,"vej":10495,"Ġpermeso":10496,"ĠetaÄĿo":10497,"Ġregistritaj":10498,"ç¤¼åĮħç¤¼åĮħç¤¼åĮħç¤¼åĮħç¤¼åĮħç¤¼åĮħç¤¼åĮħç¤¼åĮħç¤¼åĮħç¤¼åĮħç¤¼åĮħç¤¼åĮħç¤¼åĮħç¤¼åĮħç¤¼åĮħç¤¼åĮħç¤¼åĮħç¤¼åĮħç¤¼åĮħç¤¼åĮħç¤¼åĮħç¤¼åĮħç¤¼åĮħç¤¼åĮħç¤¼åĮħç¤¼åĮħç¤¼åĮħç¤¼åĮħç¤¼åĮħç¤¼åĮħç¤¼åĮħç¤¼åĮħç¤¼åĮħç¤¼åĮħç¤¼åĮħç¤¼åĮħç¤¼åĮħç¤¼åĮħç¤¼åĮħç¤¼åĮħç¤¼åĮħç¤¼åĮħç¤¼åĮħç¤¼åĮħç¤¼åĮħç¤¼åĮħç¤¼åĮħç¤¼åĮħç¤¼åĮħç¤¼åĮħç¤¼åĮħç¤¼åĮħç¤¼åĮħç¤¼åĮħç¤¼åĮħç¤¼åĮħç¤¼åĮħç¤¼åĮħç¤¼åĮħç¤¼åĮħç¤¼åĮħç¤¼åĮħç¤¼åĮħç¤¼åĮħ":10499,"uton":10500,"zin":10501,"Ġaltran":10502,"ĠSier":10503,"ford":10504,"Ġ1887":10505,"ĠÅľa":10506,"Ġfinancaj":10507,"Ġkontenta":10508,"ĠpejzaÄĿo":10509,"ĠJozefo":10510,"adas":10511,"Ġgvidan":10512,"ĠLatvio":10513,"Ġekva":10514,"Ġrespondeco":10515,"igxas":10516,"ĠfiÅĿoj":10517,"Ġkonkeris":10518,"ĠNapoleono":10519,"uan":10520,"Ġenter":10521,"Ġtrun":10522,"Ġkemia":10523,"ĠMika":10524,"Ġkorea":10525,"Ã©n":10526,"Ġkutimas":10527,"Ġoperacio":10528,"ĠFrancujo":10529,"peton":10530,"ĠFR":10531,"ĠRenato":10532,"ĠkontraÅŃas":10533,"ĠReÄĿa":10534,"burga":10535,"Ġ1975":10536,"Ġkarakteriza":10537,"ĠsovaÄĿ":10538,"liaj":10539,"Ġesenco":10540,"Ġretoj":10541,"umaj":10542,"struk":10543,"ĠMonto":10544,"ĠtagmanÄĿo":10545,"ĠpoÅĿtele":10546,"Ġ##":10547,"ÏĤ":10548,"Ġsavo":10549,"ĠmembroÅĿtatoj":10550,"Eni":10551,"ĠKaÅŃ":10552,"renkon":10553,"Ġrespondoj":10554,"Ġesperantistaj":10555,"ĠRichard":10556,"iston":10557,"ĠDel":10558,"ĠHTML":10559,"Ġpiedo":10560,"tikedoj":10561,"Ġzorgi":10562,"Ġekspluata":10563,"Ġaparatoj":10564,"Ġdezajno":10565,"ĠKalifor":10566,"PIV":10567,"jono":10568,"tagon":10569,"ĠPlan":10570,"zanio":10571,"Ġnajbaroj":10572,"ilvanio":10573,"kris":10574,"Å¬":10575,"Ġque":10576,"Ġkino":10577,"ĠPh":10578,"Ġpostlas":10579,"Ġkamarado":10580,"Ġkoordinatojn":10581,"ĠBarcelono":10582,"âĢķ":10583,"dez":10584,"ĠIl":10585,"ÅŃropaj":10586,"ĠZim":10587,"Internacia":10588,"ĠDistrikto":10589,"koloraj":10590,"ĠFederacia":10591,"ĠKva":10592,"ĠPDF":10593,"Ġeblecoj":10594,"Ġ1938":10595,"Ġpanon":10596,"93":10597,"ĠkontraÅŃle":10598,"Ġceremoni":10599,"Ġankoraux":10600,"Ġpolitike":10601,"Ġdig":10602,"ĠpaÄĿ":10603,"pano":10604,"Ġinstigis":10605,"Ġkonstruitaj":10606,"Ġproponojn":10607,"ĠRusa":10608,"Ġmaljunulo":10609,"Nova":10610,"Ġinvado":10611,"ĠSab":10612,"Ġsufo":10613,"Ġprem":10614,"Ġkonsiloj":10615,"Ġtransdoni":10616,"Ġdetrui":10617,"ĠReÄĿlando":10618,"Ġfondi":10619,"ĠsaÄĿa":10620,"Ġ1956":10621,"Ġ1922":10622,"Ġobservi":10623,"****":10624,"ĠSia":10625,"Ġcivila":10626,"ĠmontriÄĿas":10627,"Ġfundamenta":10628,"Ġstatuo":10629,"tintaj":10630,"Ġturismo":10631,"Ġjapanaj":10632,"Ġkantado":10633,"Ġtren":10634,"Ġkomencan":10635,"Ġterure":10636,"ĠMarkso":10637,"ĠruÄĿaj":10638,"Ġvagon":10639,"Ġrisko":10640,"Ġesenca":10641,"Ġ(âĢľ":10642,"ĠAg":10643,"poz":10644,"verbo":10645,"Ġmole":10646,"tinto":10647,"Ġanglalingva":10648,"Ġradikojn":10649,"ĠAmazon":10650,"isa":10651,"Ġoleo":10652,"ĠEsper":10653,"Ġlernejon":10654,"Ġkontribuo":10655,"Ġdiferencas":10656,"komence":10657,"ĠretpoÅĿta":10658,"Ġtraktato":10659,"Ġdebato":10660,"82":10661,"gedio":10662,"ĠsenÅĿan":10663,"ĠÄīefur":10664,"Ġnormoj":10665,"Ġprofundan":10666,"Ġkontribuas":10667,"fing":10668,"Ġkapelo":10669,"Ġmalsato":10670,"ĠMax":10671,"Ġsukcesaj":10672,"Ġobservis":10673,"ĠNecesas":10674,"suba":10675,"tanio":10676,"Ġinterreta":10677,"vojoj":10678,"Ġbelajn":10679,"Ġcxiam":10680,"Ġ1974":10681,"Ur":10682,"tea":10683,"Ġelvo":10684,"Ġkoncernaj":10685,"Ġ1931":10686,"Ġtitoloj":10687,"Ġanalizi":10688,"ĠKrakovo":10689,"banoj":10690,"ĠGla":10691,"Ġmovo":10692,"Ġmalsek":10693,"goro":10694,"Ġsie":10695,"ĠLibroj":10696,"ĠkaÅŃzi":10697,"Ġkunlaboron":10698,"Ġduonon":10699,"Ġrezolucio":10700,"Â·":10701,"Ġpripen":10702,"oldo":10703,").[":10704,"Ġduoninsulo":10705,"Ġmontrante":10706,"orgio":10707,"Ġtono":10708,"estra":10709,"kampo":10710,"Ġatingebla":10711,"Ġkares":10712,"Ġ1949":10713,"Ġmaljus":10714,"Ġekstreme":10715,"\"-":10716,"OL":10717,"ĠSkrib":10718,"kse":10719,"ĠHeb":10720,"Ġpatroj":10721,"ube":10722,"Ġkreitaj":10723,"Ġliberigi":10724,"Ġsolena":10725,"Ġkonsiderataj":10726,"Ġrusan":10727,"ĠaranÄĿ":10728,"Ġteatra":10729,"Ġinterlingvis":10730,"Ġeksi":10731,"Ġnorve":10732,"Ġturka":10733,"ther":10734,"ĠDuolingo":10735,"Ġmedioj":10736,"Ġescepto":10737,"Ġhebrea":10738,"dron":10739,"tulon":10740,"Ġsistem":10741,"enton":10742,"Ġlikvi":10743,"ĠAlpoj":10744,"Ã³r":10745,"Ġpraktiki":10746,"ĠYou":10747,"Ġrespondec":10748,"ĠFestivalo":10749,"08765":10750,"Pl":10751,"uf":10752,"Ġreganto":10753,"Ġpolus":10754,"kedo":10755,"Ġ1981":10756,"Ġfavora":10757,"Ġspacon":10758,"ĠEgiptujo":10759,"Ġafrikaj":10760,"Ġnaskis":10761,"Ġunusola":10762,"radon":10763,"Ġpromo":10764,"Ġneniuj":10765,"ĠÅĿtaton":10766,"Ġmuzikistoj":10767,"Ġkomerc":10768,"kalku":10769,"Ġmedicina":10770,"ppe":10771,"kaÄµojn":10772,"ĠSri":10773,"Ġmotoro":10774,"Ġlernanto":10775,"Ġsignifis":10776,"Ġkuracistoj":10777,"Ġaktivis":10778,"cxo":10779,"ĠPetr":10780,"Ġ1936":10781,"ĠOnline":10782,"Ġambasad":10783,"xojn":10784,"Ġskol":10785,"Ġvido":10786,"ÅĿar":10787,"Ġsurvoje":10788,"Ġleter":10789,"enojn":10790,"dalo":10791,"ĠaplaÅŃ":10792,"ĠOra":10793,"Ġscivole":10794,"antaro":10795,"Ġfrakas":10796,"ĠaÅŃskult":10797,"ĠStalin":10798,"Ġnuklea":10799,"Ġprefijo":10800,"Ġsala":10801,"umeno":10802,"ĠPUNK":10803,"Ġhavante":10804,"ĠlanÄīita":10805,"Ġlongo":10806,"ĠSian":10807,"ĠmanÄĿaÄµoj":10808,"ĠGram":10809,"Ġpafmor":10810,"Ġarkitekturo":10811,"Ġminorita":10812,"Ġsciigis":10813,"Ġdeklaro":10814,"ĠBarbara":10815,"ĠGeorgo":10816,"ĠJugosla":10817,"Ġtrankvil":10818,"Ġkamparanoj":10819,"Ġbonvenaj":10820,"ĠAntverpeno":10821,"Ġalmen":10822,"Ġreak":10823,"Ġfiksita":10824,"Ġrezignis":10825,"Ġnemal":10826,"ĠLos":10827,"vito":10828,"Ġunuj":10829,"manier":10830,"Ġapude":10831,"glis":10832,"likon":10833,"uspe":10834,"gale":10835,"Ġmotivoj":10836,"Ġmortas":10837,"orienta":10838,"ĠmalfacilaÄµoj":10839,"Ġtavolo":10840,"Eks":10841,"ladon":10842,"Ġdanco":10843,"Ġatingo":10844,"Ġmalfermitaj":10845,"Ġegala":10846,"RATIA":10847,"ĠIam":10848,"Ġhavanta":10849,"ĠkontraÅŃe":10850,"ĠmalriÄīa":10851,"ĠDomino":10852,"Ġoma":10853,"Ġacido":10854,"diko":10855,"pioj":10856,"Ġpaca":10857,"Ġorn":10858,"Ġnunan":10859,"Ġimag":10860,"Ġgramatika":10861,"ĠinterÅĿanÄĿo":10862,"csay":10863,"zul":10864,"testro":10865,"Ġpoetoj":10866,"kondiÄīoj":10867,"ĠInformoj":10868,"Ġhistorie":10869,"gxoj":10870,"Ġkruroj":10871,"Ġkongrua":10872,"Ġmalplen":10873,"Ġmalplena":10874,"versaj":10875,"Ġkolegoj":10876,"Ġmedikamen":10877,"Ġvirinojn":10878,"Ġideologio":10879,"Ġdisvastigo":10880,"ĠGaze":10881,"Ġfingroj":10882,"IRRATIA":10883,"ĨįãĨįãĨįãĨįãĨįãĨįãĨįãĨįãĨįãĨįãĨįãĨįãĨįãĨįãĨįãĨįã":10884,"ĠPUNKIRRATIA":10885,"gvo":10886,"kron":10887,"lom":10888,"Ġakri":10889,"Ġbaro":10890,"Ġheg":10891,"poloj":10892,"Ġca":10893,"Ġpostul":10894,"ĠÄĿustan":10895,"Ġhejma":10896,"Ġprelegis":10897,"ĠMongolio":10898,"DA":10899,"à´":10900,"Ġsupro":10901,"anov":10902,"ĠTajlando":10903,"datumoj":10904,"Ġinstin":10905,"varm":10906,"Ġludantoj":10907,"Ġfluo":10908,"Ġbiblio":10909,"jaraÄĿa":10910,"Ġ1934":10911,"ĠKartvelio":10912,"Ä±":10913,"cilio":10914,"ĠleÄĿon":10915,"ĠpentraÄµo":10916,"cxe":10917,"vus":10918,"Ġondo":10919,"Ġpruvis":10920,"2018":10921,"Ġchiu":10922,"/,":10923,"projek":10924,"×Ļ":10925,"Ġflus":10926,"ĠAS":10927,"ĠIdo":10928,"Ġatingos":10929,"Ġprofund":10930,"Ġarkitekto":10931,"lapu":10932,"zila":10933,"Ġkui":10934,"Ġmiliono":10935,"erikaj":10936,"Ġrezigni":10937,"Ġdors":10938,"ovo":10939,"Ã¥":10940,"istino":10941,"Ġsepa":10942,"ĠaÅŃg":10943,"Ġverkaro":10944,"ĠInc":10945,"dintoj":10946,"Ġtelefono":10947,"Ġalvokoj":10948,"ÄĪefa":10949,"Univers":10950,"EP":10951,"kvin":10952,"limo":10953,"Ġmagi":10954,"lingvajn":10955,"ĠÃģ":10956,"Ġferm":10957,"ĠretpaÄĿo":10958,"ding":10959,"ĠÅĿtel":10960,"Ġpatrio":10961,"Ġkomenton":10962,"penna":10963,"Ġstudas":10964,"Ġ1947":10965,"Ġsemajnojn":10966,"Ġformale":10967,"Ġkongruas":10968,"Ð³":10969,"ĠBlu":10970,"menoj":10971,"ĠMezoriento":10972,"Ġmito":10973,"Ġbak":10974,"enerala":10975,"ĠsufiÄīa":10976,"Ġarmeon":10977,"Ġdividas":10978,"Ġpostuli":10979,"Ġinstali":10980,"Ġmun":10981,"Ġvosto":10982,"Ġakum":10983,"Ġkompletan":10984,"Ġsubstantivo":10985,"sci":10986,"timis":10987,"Ġvivan":10988,"pie":10989,"Ġplis":10990,"ÄĿitaj":10991,"Ġjunan":10992,"Ġfrancoj":10993,"Ġkamaradoj":10994,"Ġnea":10995,"ĠInvers":10996,"Ġhodia":10997,"ĠVojo":10998,"Ġhebre":10999,"Ġadministranto":11000,"ĠKer":11001,"Ġeklezioj":11002,"Ġinklin":11003,"ĠKalo":11004,"paÄĿon":11005,"Ġkontrakto":11006,"Ġplanis":11007,"Ġkovris":11008,"Ġprononco":11009,"patr":11010,"Ġapre":11011,"ĠbuÅĿ":11012,"Ġintence":11013,"Ġkono":11014,"dua":11015,"Ġapliko":11016,"Ġlegadon":11017,"Ġelekt":11018,"Ġbaze":11019,"Ġetno":11020,"Ġekskursoj":11021,"Voj":11022,"Ġamata":11023,"ĠPlen":11024,"ĠTj":11025,"Ġmultan":11026,"ĠOceano":11027,"Ġokazigi":11028,"Ġeksterlande":11029,"istemon":11030,"Ġfunkciojn":11031,"certo":11032,"Ġkompari":11033,"ĠdanÄĿer":11034,"Ġkluboj":11035,"ĠHenry":11036,"inf":11037,"ceo":11038,"Ġpretaj":11039,"Ġ1912":11040,"Ġtrovitaj":11041,"Ġkapt":11042,"unua":11043,"ĠSkot":11044,"Ġpriorita":11045,"ĠCla":11046,"Ġdub":11047,"Ġnavig":11048,"ĠAÅŃtuno":11049,"Ġgasto":11050,"Ġmezepoka":11051,"ĠfreÅĿa":11052,"Ġdistribui":11053,"Ġciferoj":11054,"Ġabo":11055,"ĠaÅŃda":11056,"ktos":11057,"gramoj":11058,"Ġebloj":11059,"Ġdirektis":11060,"ĠNeniam":11061,"ÑĢÐ°":11062,"Ġhispanaj":11063,"Ġheroo":11064,"ĠEtiopio":11065,"Ġsuna":11066,"tioj":11067,"letojn":11068,"els":11069,"Ġprezentitaj":11070,"Ġjenajn":11071,"ĠÄĪef":11072,"Ġplejo":11073,"grafion":11074,"Ġtrar":11075,"ĠEsperantistojn":11076,"Ġtegmento":11077,"bala":11078,"cite":11079,"Ġreputa":11080,"ĠSeulo":11081,"Ġstrat":11082,"Ġonline":11083,"Ġfiziko":11084,"Ġsubstanco":11085,"Ġafrika":11086,"ï¼ģ":11087,"Ġpornografio":11088,"ĠAlbanio":11089,"sistemoj":11090,"patro":11091,"Ġparolos":11092,"Ġcetera":11093,"ĠÄĪiam":11094,"Ġvizit":11095,"Ġprofito":11096,"Ġtribunalo":11097,"feliÄī":11098,"ĠSho":11099,"ĠJuna":11100,"Ġkantisto":11101,"Ġkunlaboris":11102,"Ġraso":11103,"Ġforgesi":11104,"Ġ1928":11105,"Ġkotizo":11106,"hum":11107,"ĠendanÄĿer":11108,"Ġsena":11109,"Ġrajt":11110,"Ġdistrikta":11111,"Ġ1969":11112,"Ġsugestas":11113,"ĠFried":11114,"Bra":11115,"Tri":11116,"enz":11117,"Ġkortu":11118,"Ġ1921":11119,"ĠBolivio":11120,"Ri":11121,"iÄĿantaj":11122,"Ġorel":11123,"ĠWord":11124,"Ġmalvarme":11125,"Ġfiguroj":11126,"Ġkonfirmis":11127,"ĠfortikaÄµo":11128,"ĠBangla":11129,"Ġsciu":11130,"Ġpluaj":11131,"Ġargumento":11132,"Ġeuro":11133,"Ġpremio":11134,"mpis":11135,"Ġ1973":11136,"ĠevidentiÄĿis":11137,"Ġartefar":11138,"INVALIDINVALIDINVALIDINVALID":11139,"asa":11140,"ĠAgen":11141,"dustrio":11142,"ĠVilhelmo":11143,"veloj":11144,"inia":11145,"ĠSp":11146,"manieron":11147,"ĠJi":11148,"ĠKaza":11149,"Ġutilaj":11150,"Ġstrang":11151,"Ġkatalun":11152,"âĢ³":11153,"ĠArki":11154,"Ġzorgis":11155,"Ġsovetia":11156,"ĠTanzanio":11157,"haro":11158,"Ġaj":11159,"ĠSha":11160,"ĠDra":11161,"Ġlokan":11162,"dent":11163,"Ġmaturi":11164,"ĠTies":11165,"Ġscion":11166,"ĠKondiÄī":11167,"Ġturisma":11168,"Ġkonduk":11169,"tekstoj":11170,"ĠeÅŃrojn":11171,"Ser":11172,"Ġburo":11173,"Ġtes":11174,"illo":11175,"Ġpermeson":11176,"Ġkutimoj":11177,"Ġinfanon":11178,"Ġadreson":11179,"regiono":11180,"Ġregantoj":11181,"ĠIst":11182,"Ġforigis":11183,"ĠÄīarma":11184,"Ġmaron":11185,"Ġplibonigo":11186,"Ġ1907":11187,"Ġamikino":11188,"Ġtrajtojn":11189,"Ġinstrumen":11190,"lizab":11191,"ĠJakob":11192,"kestro":11193,"ĠKutime":11194,"Ġodor":11195,"Ġadmon":11196,"Ġtipe":11197,"ksig":11198,"Ġvertika":11199,"korp":11200,"Ġmalpura":11201,"vigis":11202,"lat":11203,"Ġinte":11204,"ĠDer":11205,"ĠIpernity":11206,"cela":11207,"Ġmonteto":11208,"Ġdue":11209,"Ġamika":11210,"posed":11211,"Ġkostoj":11212,"Ġtitolita":11213,"Ġmetodon":11214,"Ġpritraktas":11215,"Ġflugiloj":11216,"gho":11217,"pom":11218,"Ġvitro":11219,"ĠSV":11220,"ĠGron":11221,"ĠMian":11222,"Ġamuza":11223,"Ġsignifa":11224,"Ġdiskutis":11225,"ĠAlÄĿerio":11226,"Ġelef":11227,"briÄĿi":11228,"Ġstrioj":11229,"ĠFonduso":11230,"ood":11231,"Ġekkoni":11232,"germane":11233,"ĠTokiponon":11234,"hÃ¡":11235,"well":11236,"Ġprimi":11237,"pose":11238,"ĠMili":11239,"Ġsolaj":11240,"ĠplaÄī":11241,"Ġ1929":11242,"Ġsoldato":11243,"Ġenmeti":11244,"Ġlicencitaj":11245,"Komunejo":11246,"Ġkonto":11247,"ĠÄīevalo":11248,"Ġsonon":11249,"ĠFreder":11250,"Ġsoveta":11251,"Ġfaktoroj":11252,"Ġalproksi":11253,"Ġhaj":11254,"dimen":11255,"ĠSene":11256,"ĠMeto":11257,"Ġfarus":11258,"ĠtuÅĿis":11259,"ĠbonÅĿan":11260,"Ġekskluzive":11261,"folio":11262,"Ġspertas":11263,"Ġmaso":11264,"Ġhundoj":11265,"Ġdosieruja":11266,"Ġsekura":11267,"Ġrespondecas":11268,"Ġpoezi":11269,"ĠPaÄĿo":11270,"Ġnecesis":11271,"Ġbazan":11272,"Ġ1906":11273,"Ġuto":11274,"Ġmaksimume":11275,"dreso":11276,"Ġnot":11277,"ĠOkcidento":11278,"respe":11279,"ĠÅľtata":11280,"Ġurbojn":11281,"Ġmalkonten":11282,"Ġmirinde":11283,"ĠBandar":11284,"Ġkafo":11285,"ĠNico":11286,"Ġatenti":11287,"Ġsanktaj":11288,"Ġvolumo":11289,"Ġjenan":11290,"Ġpugo":11291,"Ġparametron":11292,"vÃ¡n":11293,"Ġserion":11294,"Ġprezent":11295,"ĠZamenhofa":11296,"Ġkonsistanta":11297,"ĠRespon":11298,"Ġstarigas":11299,"ĠRoman":11300,"cegovino":11301,"ĠÄīiaj":11302,"ĠGva":11303,"Ġsalut":11304,"Ġarmea":11305,"Ġgriza":11306,"ighas":11307,"ĠInsulo":11308,"ĠKis":11309,"mea":11310,"edro":11311,"rinta":11312,"ticle":11313,"ĠOlimpi":11314,"ew":11315,"ert":11316,"oran":11317,"Ġrecep":11318,"nikov":11319,"Ġmemori":11320,"ĠÄīeesti":11321,"czy":11322,"ĠdisÄīiploj":11323,"signi":11324,"Ġlimas":11325,"Ġjuraj":11326,"Ġpros":11327,"ildo":11328,"Ġbelulino":11329,"Ġgubernio":11330,"kler":11331,"Ã«":11332,"Ġagres":11333,"Ġkonvena":11334,"ĠStel":11335,"ĠÄīiela":11336,"ĠfaÅĿ":11337,"Ġsavis":11338,"Ġmurdis":11339,"Ġ1959":11340,"ĠBerno":11341,"==":11342,"erto":11343,"ĠIvano":11344,"Ġalporti":11345,"Ġakompanis":11346,"Ġtumul":11347,"IP":11348,"Zamenhof":11349,"ĠTen":11350,"tena":11351,"Ġatent":11352,"Ġprojektojn":11353,"nomon":11354,"opera":11355,"Ġkonso":11356,"oseo":11357,"ĠEsperantilo":11358,"Ġfilmojn":11359,"Ġoficisto":11360,"lerni":11361,"Ġmalbonan":11362,"krom":11363,"ĠNASA":11364,"tejon":11365,"ĠÅĿve":11366,"eblo":11367,"Ġekstra":11368,"Ġroko":11369,"hoo":11370,"Ġhonora":11371,"Ġkonceptoj":11372,"Ġmalpermesis":11373,"ĠNordameriko":11374,"Ġ###":11375,"Ġoce":11376,"Ġ101":11377,"ĠNask":11378,"Ġaliuloj":11379,"ĠSvisa":11380,"Ġaltru":11381,"Ġperdita":11382,"Ġkapri":11383,"bula":11384,"Ġmalsana":11385,"Ġkritik":11386,"ĠedziÄĿis":11387,"81":11388,"ago":11389,"ĠÄīeloj":11390,"ĠÅĿal":11391,"Ġsufikso":11392,"Ġliveras":11393,"yl":11394,"Ġetimo":11395,"ĠSuno":11396,"ĠleÄĿojn":11397,"igitajn":11398,"Ġhelpu":11399,"antino":11400,"Ġbezonon":11401,"Ġsomera":11402,"\":":11403,"Ġdekoj":11404,"Ġalmo":11405,"Ġplenaj":11406,"Ġdonaci":11407,"Ġsuperre":11408,"Ġsav":11409,"Ġdecidojn":11410,"Ġvideblaj":11411,"ĠÅľanh":11412,"?...":11413,"Est":11414,"indas":11415,"Ġreal":11416,"povo":11417,"ĠLibio":11418,"Ġnuntempaj":11419,"Ġparolu":11420,"Ġskribitaj":11421,"Ġredakcio":11422,"ĠvojaÄĿon":11423,"Ġfals":11424,"ÅĿutita":11425,"ĠBuller":11426,"ĠNiÄĿerio":11427,"Îµ":11428,"Ġvag":11429,"Ġanoni":11430,"Ġpublikigitaj":11431,"flanka":11432,"Ġpiedojn":11433,"Ïģ":11434,"Ġidio":11435,"Ġlimon":11436,"zelo":11437,"Ġkulturan":11438,"ĠAntaÅŃa":11439,"Ġfesti":11440,"Ġvekis":11441,"Ġpoemojn":11442,"aper":11443,"tablo":11444,"Ġdeka":11445,"ĠNas":11446,"Ġvendo":11447,"ĠDoc":11448,"Ġvirinon":11449,"Ġestontaj":11450,"ekzamen":11451,"ÐĶ":11452,"Ġza":11453,"Ġrepa":11454,"ĠLapenna":11455,"tenojn":11456,"Ġgrupojn":11457,"Ġestonte":11458,"ĠImperi":11459,"Ġekzempleroj":11460,"Ġakcidento":11461,"Ġeksterordinara":11462,"ĠRenkontiÄĿo":11463,"zel":11464,"ĠestaÄµoj":11465,"Ġelpa":11466,"ĠIT":11467,"Ġsend":11468,"Ġpublikan":11469,"Ġsesa":11470,"ĠStefan":11471,"Ġkopii":11472,"ĠafiÅĿo":11473,"ĠTekstoj":11474,"ĠDol":11475,"Ġkodon":11476,"Ġplanita":11477,"Ġobjektojn":11478,"Ġmalkovro":11479,"Ġ1909":11480,"Ġbibliotekoj":11481,"Ġsevera":11482,"Ġterorismo":11483,"Komence":11484,"Ġnesufi":11485,"'re":11486,"xas":11487,"ÂĿ":11488,"Ñľ":11489,"Ġdepon":11490,"Ġinva":11491,"Ġuzebla":11492,"Ġregistris":11493,"ĠKazi":11494,"unuo":11495,"ĠMON":11496,"ĠMona":11497,"ĠSekva":11498,"Ġbazajn":11499,"ĠPrusio":11500,"ĠZuriko":11501,"klojn":11502,"vaÄµojn":11503,"Ġekzakte":11504,"tindaj":11505,"Ġrilatajn":11506,"Ġkuracis":11507,"Ġsperta":11508,"Ġaspekt":11509,"ĠPlie":11510,"Ġsignojn":11511,"ĠvoÄīdonado":11512,"ĠDeklara":11513,"ĠLuksemburgo":11514,"ĠEvidente":11515,"pot":11516,"Ġhalo":11517,"Ġcertan":11518,"Ġprincipojn":11519,"Ġminaco":11520,"Ġsevere":11521,"guage":11522,"ĠLam":11523,"aÅŃl":11524,"Ġkaze":11525,"Ġtrano":11526,"Ġinternan":11527,"Ġinstituto":11528,"Ġfanfar":11529,"Ġseminar":11530,"Ġping":11531,"ĠNiaj":11532,"Ġrezisto":11533,"Ġpersonon":11534,"Tial":11535,"Ġrusia":11536,"Ġesperantistaro":11537,"Ġdefendas":11538,"Ġokupita":11539,"Ġinstrumentoj":11540,"Ġtertremo":11541,"ĠAni":11542,"Ġkunvenis":11543,"fizi":11544,"ĠEngel":11545,"Ġfruktojn":11546,"Ġmalfacilaj":11547,"Ġfamilianoj":11548,"ĠpoÅĿto":11549,"ĠkaÅĿas":11550,"Ġdemokratia":11551,"Ġbalotoj":11552,"Don":11553,"ilu":11554,"Ġskolo":11555,"Ġbrem":11556,"ĠVikipedia":11557,"Ġtriboj":11558,"Ġapogis":11559,"Ġmallongan":11560,"ĠdolÄī":11561,"Ġetendis":11562,"Ġbabilejo":11563,"ĠBurundo":11564,"tivojn":11565,"ĠAmo":11566,"facon":11567,"Ġ1941":11568,"ĠÄīeestantoj":11569,"Ġmizero":11570,"MA":11571,"ktanta":11572,"Ð·":11573,"Ġkonfor":11574,"stria":11575,"Ġ1900":11576,"Ġmetita":11577,"ĠPreparoj":11578,"ĠEstu":11579,"ĠLasta":11580,"ĠSmith":11581,"ĠunuiÄĿo":11582,"fera":11583,"Ġmetio":11584,"Ġbritaj":11585,"bs":11586,"pÃ©":11587,"ĠÙ":11588,"Ġverboj":11589,"Ġdetruita":11590,"kapablon":11591,"çļ":11592,"nomoj":11593,"Ġprincipe":11594,"Ġmomenton":11595,"ĠTonkin":11596,"Ġprovos":11597,"Ġmulti":11598,"Ġbieno":11599,"Ġpolitikajn":11600,"Ġrespondecon":11601,"Ġligon":11602,"ĠeldonaÄµoj":11603,"ĠvilaÄĿon":11604,"Ġesperis":11605,"Ġkoncepton":11606,"Ġleciono":11607,"Ġfarante":11608,"mondo":11609,"Ġkonfuzi":11610,"tat":11611,"roc":11612,"Ġovojn":11613,"aleco":11614,"ĠÄĿeneralaj":11615,"Esperanta":11616,"Ġbuso":11617,"Ġglas":11618,"Ġgradoj":11619,"ĠloÄĿata":11620,"ĠEkvadoro":11621,"Ġakiras":11622,"talogo":11623,"2016":11624,"info":11625,"Ġagojn":11626,"Ġrompi":11627,"Ø±":11628,"ĠSel":11629,"tualaj":11630,"Ġsocioj":11631,"portoj":11632,"propri":11633,"ĠHungar":11634,"Ġglavo":11635,"Ġdirekton":11636,"ĠMemor":11637,"Ju":11638,"ĠSara":11639,"kontro":11640,"Ġracia":11641,"Ġsiatempe":11642,"Ġlerneja":11643,"Ġhistorian":11644,"âĢĻ.":11645,"Ġmalnovajn":11646,"Ġreligion":11647,"Ġlingvistiko":11648,"ĠOsmo":11649,"domoj":11650,"Ġzo":11651,"Ġera":11652,"ĠÄīo":11653,"ĠShi":11654,"ĠItala":11655,"ĠGali":11656,"Ġtroa":11657,"Ġkredon":11658,"Ġtribo":11659,"ĠserÄīado":11660,"Ġresta":11661,"rajtoj":11662,"ĠMat":11663,"Ġdormi":11664,"Ġraportas":11665,"Ġ1942":11666,"Ġoportuna":11667,"ĠUrugvajo":11668,"Ġadek":11669,"Ġsektoro":11670,"Ġspecialajn":11671,"Ġflankon":11672,"ĠPermes":11673,"Ġgast":11674,"Ġplibone":11675,"Ġ1923":11676,"ĠÄĿenti":11677,"Ġneatendite":11678,"Ġdemis":11679,"ĠâĢĻ":11680,"ĠBron":11681,"Ġhavigi":11682,"Ġvirina":11683,"Ġstarigo":11684,"ĠSerÄīi":11685,"On":11686,"ĠKipro":11687,"Ã¡h":11688,"ĠMay":11689,"Ġrimarki":11690,"Ġstrikte":11691,"Ġrememoris":11692,"Ġkonkludo":11693,"PR":11694,"Ġtransformas":11695,"ĠdimanÄīo":11696,"Ġsalajro":11697,"Ġpartnero":11698,"dge":11699,"ä»":11700,"aciojn":11701,"ĠHej":11702,"mejo":11703,"Ġlega":11704,"Ġeblus":11705,"Ġpeco":11706,"Ġklarigoj":11707,"Institu":11708,"Ġsabato":11709,"Ã¨re":11710,"ĠKalocsay":11711,"HA":11712,"Ġbezonos":11713,"Ġsociala":11714,"Ġmodeloj":11715,"Ġteknikaj":11716,"ĠBanko":11717,"kfoje":11718,"Ġkriterioj":11719,"Ġintenc":11720,"Ġbazitan":11721,"Ġimago":11722,"Ġdistingas":11723,"jev":11724,"ĠEvangelio":11725,"Ġspri":11726,"enaj":11727,"Ġhela":11728,"ĠGanao":11729,"irka":11730,"Ġjudaj":11731,"Ġprofilon":11732,"Ġpruvo":11733,"Ġrekonis":11734,"Ġspiriton":11735,"ĠSilfer":11736,"babvo":11737,"ĠMunkeno":11738,"kil":11739,"titajn":11740,"arch":11741,"Ġenka":11742,"Ġkuketojn":11743,"Ġkomunikadon":11744,"Ġlongajn":11745,"KOKOKOKOKOKOKOKOKOKOKOKOKOKOKOKOKOKOKOKOKOKOKOKOKOKOKOKOKOKOKOKO":11746,"losi":11747,"ditan":11748,"bergo":11749,"Ġmilitistoj":11750,"Ġinstigi":11751,"ĠSudano":11752,"ĠPlena":11753,"Ġkoinci":11754,"Ġsenli":11755,"Ġsanktan":11756,"ĠLevi":11757,"ĠLouis":11758,"Ġbara":11759,"Ġkab":11760,"ĠantaÅŃdi":11761,"Ġsanktuloj":11762,"daux":11763,"Ġlingvajn":11764,"Ġmotor":11765,"ĠkreiÄĿis":11766,"Ġfrapis":11767,"bitaj":11768,"Ġpresti":11769,"Ġvizitoj":11770,"Ġ1946":11771,"ĠpreÄĿejoj":11772,"ĠTria":11773,"âĹĭ":11774,"Ġpolemi":11775,"Ġinv":11776,"Ġneniom":11777,"Ġvestojn":11778,"Bonvolu":11779,"Rila":11780,"ĠManu":11781,"Ġdise":11782,"Ġ64":11783,"Ġasembleo":11784,"Ġeklezia":11785,"Ġbestojn":11786,"Junularo":11787,"ĠJoseph":11788,"titoj":11789,"Ġmalhon":11790,"milita":11791,"Ġduko":11792,"linioj":11793,"Ġcivitano":11794,"php":11795,"MalgraÅŃ":11796,"ĠPalaco":11797,"mapo":11798,"Ġ1911":11799,"ktataj":11800,"Ġsupraj":11801,"Sta":11802,"dikto":11803,"Ġgala":11804,"geco":11805,"Ġbeko":11806,"Ġsignife":11807,"ĠSendepen":11808,"Ġ1958":11809,"Ġkoncentrejo":11810,"Ġaviadiloj":11811,"Ġhezitu":11812,"ao":11813,"ĠApud":11814,"pek":11815,"Ġpapi":11816,"Ġvendas":11817,"mini":11818,"Ġproduktita":11819,"Ġdoktrino":11820,"Ġmontrita":11821,"Ġmomentoj":11822,"Ġboj":11823,"ĠÄīian":11824,"ĠVera":11825,"aÅŃde":11826,"materi":11827,"ĠEntute":11828,"Ġkomunista":11829,"Ġpetro":11830,"way":11831,"ĠÅĿanÄĿon":11832,"ĠXi":11833,"ĠÅĿtuparo":11834,"ĠAugus":11835,"ĠMinisterio":11836,"aÅŃa":11837,"fido":11838,"Ġmagis":11839,"ĠZo":11840,"Ġludanto":11841,"ĠKarolo":11842,"lekso":11843,"dagas":11844,"Ġtabelo":11845,"Ġespereble":11846,"ĠPrecipe":11847,"finan":11848,"Pollando":11849,"Ġkran":11850,"Ġdevoj":11851,"Ġsenkom":11852,"Ġnobe":11853,"Ġsupozis":11854,"Ġstrangaj":11855,"Ġkoncertoj":11856,"Ġestablis":11857,"Ġparencoj":11858,"Ġole":11859,"mpro":11860,"rinoj":11861,"Ġsekvo":11862,"Ġnafto":11863,"Ġfrance":11864,"Ġkolekton":11865,"ĠHazarda":11866,"ĠKondiÄīoj":11867,"ĠJudoj":11868,"Ġbankoj":11869,"digitaj":11870,"ĠKenjo":11871,"kampan":11872,"Ġkarbon":11873,"Ġaboni":11874,"Ġkapitano":11875,"Ġspektaklo":11876,"Ġstatuso":11877,"Societo":11878,"Ġaltajn":11879,"kaÄµon":11880,"Ġreganta":11881,"trin":11882,"Ġkomentojn":11883,"uokaze":11884,"Ġbrako":11885,"Nuntempe":11886,"ETV":11887,"ĠrifuÄĿintoj":11888,"gun":11889,"alta":11890,"tajpu":11891,"Ġkunvi":11892,"ĠBele":11893,"kcion":11894,"Ġkolum":11895,"Ġfermis":11896,"Ġmalnov":11897,"Ġ1937":11898,"supre":11899,"Ġmalaperas":11900,"Ġmemstara":11901,"ĠKonstantino":11902,"ĠJugoslavio":11903,"Go":11904,"hing":11905,"Âĵ":11906,"Ġela":11907,"Ġpanta":11908,"Ġsko":11909,"tiel":11910,"Ġkonjek":11911,"ÅĿir":11912,"vatorio":11913,"petoj":11914,"ket":11915,"Ġracio":11916,"pare":11917,"ĠMargar":11918,"amiko":11919,"Ġsimpl":11920,"Ġfacilan":11921,"Ġvideble":11922,"Ġstatuson":11923,"gmail":11924,"Rus":11925,"Ġemis":11926,"Ġdam":11927,"likoj":11928,"vataj":11929,"Ġsubit":11930,"ĠrestaÄµoj":11931,"Kie":11932,"Ġâĸ":11933,"ĠaranÄĿon":11934,"ĠÐ¿":11935,"ĠeÅŃropanoj":11936,"Ġpanor":11937,"ĠKambo":11938,"Ġgustum":11939,"Ġkomision":11940,"EC":11941,"anier":11942,"Äīado":11943,"kir":11944,"Ġkredantoj":11945,"Ġfidas":11946,"Ġatmosfero":11947,"Jor":11948,"dur":11949,"enca":11950,"Ġparoj":11951,"Ġtrovig":11952,"tikoloj":11953,"Ġfaktojn":11954,"Ġplenumo":11955,"Ġinstigas":11956,"Ġproduktojn":11957,"ĠDume":11958,"cript":11959,"Ġmontros":11960,"ĠBelorusio":11961,"ĠSkotlando":11962,"Ġrele":11963,"Ġsupozi":11964,"pic":11965,"Ġpecoj":11966,"Ġsuperflu":11967,"Ġkariero":11968,"Ġsemajnon":11969,"Ġasertoj":11970,"ĠUNES":11971,"Ġfantas":11972,"ĠZimbabvo":11973,"Ġdete":11974,"tilio":11975,"Ġnedi":11976,"ĠSenato":11977,"uzis":11978,"Ġkelka":11979,"ĠWit":11980,"Ġpreferis":11981,"Ġ1966":11982,"ĠdaÅŃrigas":11983,"Ġkontinentoj":11984,"Ġpreterlas":11985,"Ġinstrumento":11986,"Ġproprieto":11987,"Ġekhavis":11988,"Vo":11989,"kaÅĿ":11990,"ust":11991,"aÅŃto":11992,"golo":11993,"Ġtragedio":11994,"Ã¡l":11995,"ĠDiego":11996,"Ġzorgo":11997,"Ġsilente":11998,"Ð¿":11999,"Ġmaldika":12000,"Ġkunigi":12001,"ĠTiele":12002,"Ġsintenon":12003,"Ġamba":12004,"ette":12005,"ĠÅĿanco":12006,"Ġsocion":12007,"ĠsonÄĿo":12008,"Ġmalkovrita":12009,"Ġanonci":12010,"ÐµÐ½":12011,"pelis":12012,"Ġelektronika":12013,"Ġjudojn":12014,"Ġmamoj":12015,"dozo":12016,"ĠpreÄĿi":12017,"Ġaperigis":12018,"Ġurbocentro":12019,"Ġinteresojn":12020,"Ġsciencisto":12021,"ĠKari":12022,"Ġimplik":12023,"Ġrekonas":12024,"Ġkunsidoj":12025,"ĠLernejo":12026,"mina":12027,"ĠElizab":12028,"Ġalimaniere":12029,"kaja":12030,"Ġkodoj":12031,"havas":12032,"Ġplanko":12033,"Ġ99":12034,"ĠDie":12035,"Ġkristnas":12036,"ĠvespermanÄĿo":12037,"Ġlarmoj":12038,"phy":12039,"Ġestablita":12040,"Hejmo":12041,"falis":12042,"rintoj":12043,"tintoj":12044,"Ġindikis":12045,"Ġordonojn":12046,"ĠBenino":12047,"ĠArabio":12048,"Ġlegendo":12049,"Ġkg":12050,"vera":12051,"Ġspeciali":12052,"Ġlogika":12053,"ess":12054,"ĠÄĿoje":12055,"Ġpriju":12056,"Ġhomamaso":12057,"ĠAlta":12058,"Ġrezultis":12059,"Ġmalfermas":12060,"Ġamasoj":12061,"Ġkomandanto":12062,"Ġkafejo":12063,"ĠBangladeÅĿo":12064,"!Â»":12065,"king":12066,"ĠSci":12067,"Ġokci":12068,"tanaj":12069,"Ġpafi":12070,"Ġpapera":12071,"socia":12072,"vojaÄĿ":12073,"ĠâĪ":12074,"ĠlarÄĿe":12075,"Ġefektivigi":12076,"Ġfervoja":12077,"arbo":12078,"ĠItal":12079,"ĠViaj":12080,"vinoj":12081,"Ġkonstruas":12082,"vortaro":12083,"Ġkonsonantoj":12084,"zambi":12085,"LY":12086,"xu":12087,"pala":12088,"ĠNovaj":12089,"ĠUniversity":12090,"Ġmezuro":12091,"Ġfojfoje":12092,"Ġchiam":12093,"Ġmaljunuloj":12094,"ĠKosovo":12095,"Ġklasifi":12096,"Ġkontraste":12097,"ĠgeedziÄĿo":12098,"ĠVladimir":12099,"ĠBru":12100,"Ġfortik":12101,"Ġkorpoj":12102,"ĠtransloÄĿ":12103,"Ġvinber":12104,"ĠKune":12105,"Ġgeografiaj":12106,"ĠAir":12107,"Ġposttagmeze":12108,"Ġkovritaj":12109,"ĠAri":12110,"Ġspekti":12111,"ÅĿima":12112,"Ġ1925":12113,"Ġfajron":12114,"Ġfutbalo":12115,"ĠLisbono":12116,"ĠKy":12117,"kodi":12118,"ĠAaron":12119,"Ġmalre":12120,"Ġmagn":12121,"ĠRegiono":12122,"Ġatentigis":12123,"Ġeksterlandanoj":12124,"multaj":12125,"Ġmalbonon":12126,"Ġeksperimen":12127,"âĹĭâĹĭ":12128,"Ġoreloj":12129,"dinta":12130,"Ġeldoni":12131,"Ġliteraturon":12132,"ÅĿanÄĿ":12133,"Ġsporto":12134,"Ġskemo":12135,"xe":12136,"ĠMur":12137,"Ġkontakton":12138,"Ġpalestinanoj":12139,"estaj":12140,"Ġmiras":12141,"mezo":12142,"Ġpentr":12143,"Ġkomunisma":12144,"ĠmalfermiÄĿis":12145,"kondukis":12146,"Ġapogi":12147,"Ġkorekti":12148,"ĠSimple":12149,"Federacio":12150,"KE":12151,"ĠÄĿer":12152,"ĠRemo":12153,"Ä¥an":12154,"Ġlitova":12155,"Ġitalaj":12156,"Ġ`":12157,"Ġkomplik":12158,"Ġkonscien":12159,"Tiun":12160,"Ġmezuri":12161,"ffice":12162,"Eniru":12163,"diÄĿi":12164,"Ġmiris":12165,"ĠEsperante":12166,"bezon":12167,"Ġdiskuton":12168,"Ġbotan":12169,"ĠfuÄĿis":12170,"batalo":12171,"tegorioj":12172,"gha":12173,"rime":12174,"ĠKab":12175,"ĠStran":12176,"ĠPÃ©":12177,"dube":12178,"Ġdisponigas":12179,"ĠNikara":12180,"Ġrapido":12181,"Ġaktivas":12182,"Ġidentigi":12183,"Ġcifereca":12184,"Ġtrapasi":12185,"Ġilojn":12186,"ĠFlori":12187,"ĠBavario":12188,"Ġamasa":12189,"ĠVerduloj":12190,"ĠSekretario":12191,"Ġdiferencon":12192,"ĠtaÅŃgan":12193,"Ġaraboj":12194,"ĠGramTrans":12195,"dk":12196,"Ġaltern":12197,"Ġverkitaj":12198,"ĠraÅŃ":12199,"Ġsolan":12200,"Ġkontrolon":12201,"ÅĿanÄĿo":12202,"Ġ1962":12203,"Ġmurdo":12204,"CC":12205,"Ligiloj":12206,"Ġlitur":12207,"Ġgaja":12208,"ziÄĿis":12209,"ĠFut":12210,"Ġmortos":12211,"ĠUnuiÄĿo":12212,"ĠebenaÄµo":12213,"Ġkomparo":12214,"celo":12215,"Ġsentojn":12216,"kuri":12217,"Ġles":12218,"ĠAndal":12219,"Ġidealoj":12220,"Ġprogramado":12221,"Ġpreskrib":12222,"Ġsignifoj":12223,"Ġampleksan":12224,"ĠVarsovia":12225,"tebr":12226,"Ġregxo":12227,"ĠHab":12228,"pari":12229,"Ġkolektas":12230,"Ġmajus":12231,"Ġanonco":12232,"ĠKalifornio":12233,"Bi":12234,"ktro":12235,"ĠFesto":12236,"ekdo":12237,"ĠJem":12238,"old":12239,"Ġliberigis":12240,"Ġrigardata":12241,"ĠSiberio":12242,"ĠanstataÅŃigi":12243,"ĠIsla":12244,"tempan":12245,"Ġsolidareco":12246,"ĠTuni":12247,"Ġplivas":12248,"Ġtraf":12249,"Ġsanktulo":12250,"Ġstilon":12251,"kvanto":12252,"lumo":12253,"Ġmuz":12254,"Ġlen":12255,"Ġripozi":12256,"Ġkorte":12257,"Äīefe":12258,"Ġdomojn":12259,"Ġgarantias":12260,"facil":12261,"EÄī":12262,"ĠriÄīe":12263,"veturo":12264,"Ġgvidado":12265,"Ġ240":12266,"Ġ1927":12267,"Ġlegebla":12268,"ĠISO":12269,"tadoj":12270,"todo":12271,"peo":12272,"ekde":12273,"tropo":12274,"Ġuzos":12275,"ĠOb":12276,"Ġmortigas":12277,"Ġtotala":12278,"Ġ1972":12279,"ĠKamer":12280,"Francio":12281,"SA":12282,"low":12283,"Ġrekor":12284,"ĠRub":12285,"prezento":12286,"Ġkomunumon":12287,"sone":12288,"ĠSupra":12289,"Ġstarigita":12290,"upr":12291,"tab":12292,"ĠÄīem":12293,"Ġvirus":12294,"Ġekis":12295,"Ġfali":12296,"Ġbicik":12297,"ĠSudo":12298,"Ġmisio":12299,"Ġblankan":12300,"kompreneble":12301,"ĠHercegovino":12302,"ĠJosef":12303,"Ġlecionoj":12304,"Ch":12305,"ajnis":12306,"Ġpriparo":12307,"ĠTV":12308,"Ġmondaj":12309,"ĠÅģ":12310,"ĠPatrino":12311,"Ġabrup":12312,"Ġboato":12313,"ĠTag":12314,"sukces":12315,"Ġstatistiko":12316,"Ġbudhis":12317,"Ġdestinita":12318,"fama":12319,"pento":12320,"Ġorden":12321,"Ġnecesan":12322,"Ġflugas":12323,"Ġmemoru":12324,"ĠÐ²":12325,"2010":12326,"Ġmalsupra":12327,"Ġstimu":12328,"ĠUzbek":12329,"Ġfronto":12330,"tale":12331,"ase":12332,"regi":12333,"ĠMeso":12334,"ĠaÅŃtoj":12335,"verko":12336,"ĠÐĶ":12337,"konduko":12338,"ĠKongreson":12339,"ĠJordanio":12340,"gana":12341,"Ġdog":12342,"portis":12343,"ĠÃī":12344,"andro":12345,"Ġpotencoj":12346,"Ġveturas":12347,"Ġepiskopoj":12348,"Ġies":12349,"ĠSva":12350,"ĠGen":12351,"Ġpotenci":12352,"Ġatak":12353,"Ġ1924":12354,"Ġjardeko":12355,"umentation":12356,"pti":12357,"pez":12358,"Ġekparolis":12359,"Ġkoroj":12360,"Ġankora":12361,"Ġsangon":12362,"Ġalvokis":12363,"Ġhispanan":12364,"III":12365,"Ġtrajto":12366,"ĠEduardo":12367,"ĠVaÅĿingtono":12368,"VI":12369,"tl":12370,"inamo":12371,"esan":12372,"Ġnefor":12373,"Ġgento":12374,"Ġkompleksa":12375,"Ġvesperon":12376,"ĠYo":12377,"Ġgardi":12378,"Ġatesto":12379,"ciÃ³n":12380,"demo":12381,"aÅŃskul":12382,"ĠHomo":12383,"Ġkiamaniere":12384,"ĠÄīefro":12385,"ĠRein":12386,"Ġpersonan":12387,"ĠBach":12388,"Ġeventon":12389,"Ġnaturon":12390,"ĠAkademi":12391,"ĠFrancisco":12392,"Ġdenaska":12393,"nar":12394,"sas":12395,"wig":12396,"rigis":12397,"Ġvigle":12398,"Ġlimigi":12399,"Ġmaljunaj":12400,"ĠformiÄĿis":12401,"Ġfabriko":12402,"ĠJohann":12403,"Ad":12404,"ort":12405,"Ġfolk":12406,"gue":12407,"Ġprofeto":12408,"vitavy":12409,"Ġdosierojn":12410,"Ġregadon":12411,"tisma":12412,"ÅĿin":12413,"ĠMadagas":12414,"Ġkruela":12415,"ĠÄīap":12416,"Ġtransiro":12417,"Ġplejofte":12418,"Land":12419,"cl":12420,"iam":12421,"Ġsfero":12422,"Ġaldonita":12423,"Ġrespondojn":12424,"kostaj":12425,"publik":12426,"Ġvesperman":12427,"Ġkomencos":12428,"Ġagnoskis":12429,"ĠÄĿenas":12430,"Ġmomente":12431,"Ġteorion":12432,"ĠBatalo":12433,"homa":12434,"mova":12435,"ĠFebruaro":12436,"prenantoj":12437,"longa":12438,"Ġkielo":12439,"ĠStatu":12440,"Ġreprodukti":12441,"ĠaÄĿ":12442,"ĠNan":12443,"ĠAndro":12444,"Ġminuto":12445,"Tago":12446,"Ġafable":12447,"Ġsume":12448,"librojn":12449,"perfek":12450,"Ġsenkul":12451,"Ġsenuti":12452,"Ġklavar":12453,"ĠKvinpetalo":12454,"kadis":12455,"vala":12456,"ĠBene":12457,"Ġfarata":12458,"Ġkaco":12459,"Ġcerteco":12460,"Ġkreskon":12461,"Ġmilda":12462,"ĠPoÅĿtkodo":12463,"ap":12464,"Ġvidante":12465,"Ġoksig":12466,"ĠAÄ¥":12467,"Ġnad":12468,"ĠPatri":12469,"Ġevoluas":12470,"ĠSufi":12471,"ĠbuÄĿeto":12472,"ĠZamTV":12473,"Ġpodkas":12474,"ĠHaitio":12475,"Ġ\\":12476,"Ġsino":12477,"Ġalkuti":12478,"Ġil":12479,"Ġviron":12480,"lantojn":12481,"ĠHas":12482,"Ġsciante":12483,"Ġ1965":12484,"Ġapogo":12485,"ĠMolda":12486,"Ġekzeku":12487,"sson":12488,"Ġgeni":12489,"Ġsendos":12490,"Ġrilat":12491,"Ġmodesta":12492,"Ġ1954":12493,"fred":12494,"ĠinÄĿeniero":12495,"Pra":12496,"Ġpuno":12497,"Ġmalfavor":12498,"ĠHA":12499,"Ġnomumita":12500,"...\"":12501,"Ġspegu":12502,"Ġmarko":12503,"komo":12504,"Ġ1964":12505,"ĠMikaelo":12506,"kli":12507,"ĠÅĿtor":12508,"lana":12509,"reno":12510,"Ġmetu":12511,"Ġanglaj":12512,"Ġrajtis":12513,"ĠSimile":12514,"2012":12515,"mpa":12516,"ËĨ":12517,"åı":12518,"une":12519,"ĠNami":12520,"iado":12521,"Ġarti":12522,"Ġklaran":12523,"Ġpersonajn":12524,"egro":12525,"ĠfuÅĿ":12526,"ĠkaÅĿita":12527,"ĠCxu":12528,"gr":12529,"ledo":12530,"Ġvivos":12531,"Ġmigran":12532,"Ġlikva":12533,"ĠTel":12534,"Ġkatoj":12535,"Ġsociajn":12536,"Ġrakontojn":12537,"Ġrezulte":12538,"Ġ1971":12539,"Ġimperiismo":12540,"Ġarabaj":12541,"Ġtaksis":12542,"Ã§o":12543,"dreson":12544,"ping":12545,"grandaj":12546,"ĠMonato":12547,"Ġfotilo":12548,"Ġflanken":12549,"Ġduone":12550,"Ġfalsa":12551,"ĠBalta":12552,"inujo":12553,"ĠLigoj":12554,"ĠAL":12555,"dec":12556,"kies":12557,"Ġkonsilas":12558,"alista":12559,"membroj":12560,"Ġalvokas":12561,"Ġrond":12562,"Ġvenont":12563,"Ġhistoriistoj":12564,"Ġaba":12565,"Ġellas":12566,"trop":12567,"ĠantaÅŃju":12568,"orgaÅŃ":12569,"ĠBerlin":12570,"Ġemble":12571,"landano":12572,"Ġstulta":12573,"Ġnuboj":12574,"Nor":12575,"ÂĹ":12576,"teko":12577,"ĠTal":12578,"ĠIF":12579,"uzio":12580,"ekzis":12581,"Ġlernadon":12582,"Ġliberigita":12583,"multe":12584,"Ġ1963":12585,"Ġfestoj":12586,"2004":12587,"ĠpaÅĿojn":12588,"ĠposedaÄµo":12589,"çļĦ":12590,"aÄī":12591,"organo":12592,"ĠKem":12593,"Ġkunfan":12594,"vanoj":12595,"Ġpermesinto":12596,"Ġpraktikaj":12597,"iguel":12598,"ĠWikipedia":12599,"Ġagrable":12600,"Ġsimpati":12601,"Ġfemin":12602,"yi":12603,"Ġflo":12604,"ĠGr":12605,"Ġrolas":12606,"Ġeraron":12607,"ghas":12608,"ĠDiser":12609,"Ġherbo":12610,"Ġfundamentaj":12611,"Ġaludas":12612,"ebro":12613,"Ġgraco":12614,"Ġ1957":12615,"Ġtrum":12616,"Via":12617,"vuloj":12618,"Ġcind":12619,"Ġsurloke":12620,"Ġ62":12621,"Ġeksteren":12622,"Ġdevigas":12623,"ĠBohem":12624,"Ġprofesie":12625,"ĠkonatiÄĿi":12626,"Ab":12627,"Rim":12628,"Ġial":12629,"Ġgard":12630,"Ġgiganta":12631,"vico":12632,"Ġeklo":12633,"geo":12634,"Ġfilinon":12635,"Ġkompleks":12636,"Ġkovrilo":12637,"Ġprincipon":12638,"ĠAlex":12639,"ĠindiÄĿenaj":12640,"Ġmamo":12641,"Ġintri":12642,"Ġkuna":12643,"Ġformita":12644,"Ġorgen":12645,"turno":12646,"ĠBour":12647,"insuloj":12648,"ĠNikaragvo":12649,")[":12650,"Ġalto":12651,"Ġtabuo":12652,"ktejo":12653,"Ġeldonon":12654,"Ġfaciligi":12655,"Ġestontecon":12656,"Ġnaturan":12657,"Ġvenontan":12658,"Ġsurprizo":12659,"Ġproklamis":12660,"ĠNomspaco":12661,"vina":12662,"Ġæ":12663,"viÄĩ":12664,"ĠParis":12665,"Ġvundi":12666,"Ġfenomenoj":12667,"Ele":12668,"Ġlai":12669,"Ġkunvenon":12670,"Ġforvi":12671,"Ġpenson":12672,"ĠÅ½":12673,"Ġkunlaboras":12674,"benaÄµo":12675,"iujn":12676,"Ġpsikologio":12677,"Ġstandar":12678,"Ġekstaris":12679,"ĠDocumentation":12680,"Ġvis":12681,"ement":12682,"ĠloÄĿi":12683,"ches":12684,"Ġoficiroj":12685,"Ġnumer":12686,"Ġsomer":12687,"Ġagnoski":12688,"undation":12689,"derna":12690,"keton":12691,"Ġhelpa":12692,"strato":12693,"Ġgazeton":12694,"Ġhalt":12695,"Ġeminenta":12696,"Ġslovaka":12697,"ciÄĿis":12698,"Ġrekt":12699,"ĠAktu":12700,"Ġmalvas":12701,"Ġinterno":12702,"Ġventro":12703,"ĠKatedralo":12704,"Ġsesio":12705,"Ġklopodo":12706,"Ġmalpermesita":12707,"Ġkvieta":12708,"Ġtrapasis":12709,"manto":12710,"ĠAnta":12711,"ĠKomunista":12712,"Ġsang":12713,"Ġsituo":12714,"Ġdens":12715,"ĠÄīefepiskopo":12716,"Ġlimigoj":12717,"ĠArabaj":12718,"Peterburgo":12719,"Ga":12720,"Ð±":12721,"ĠMembro":12722,"Ġnaciismo":12723,"Instru":12724,"Ġeliras":12725,"BA":12726,"Ġks":12727,"Ġlige":12728,"ĠPierre":12729,"Ġfarm":12730,"gando":12731,"ĠMilano":12732,"Ġ1961":12733,"Ġbrakoj":12734,"Ġmalvarm":12735,"oku":12736,"tiÄĿoj":12737,"Ġalparo":12738,"ĠSvitavy":12739,"Ġgel":12740,"Ġpete":12741,"Ġkontaktojn":12742,"2011":12743,"Ġsupoziganta":12744,"Ġsalutas":12745,"ĠKorea":12746,"Ġoperaciumo":12747,"ĠWikiTrans":12748,"km":12749,"Ġtris":12750,"Ġligna":12751,"Ġgamo":12752,"initaj":12753,"Ġobsta":12754,"ĠpuÅĿ":12755,"Ġcxiujn":12756,"Ġisraela":12757,"garo":12758,"dit":12759,"ĠDr":12760,"tenegro":12761,"Ġ1901":12762,"ĠRezul":12763,"Ġforlasas":12764,"ĠAntaÅŃe":12765,"Ġsorton":12766,"Åį":12767,"kao":12768,"Ġtapi":12769,"Ġnobel":12770,"Ġscioj":12771,"Ġplenigi":12772,"Ġpartoprenantojn":12773,"ĠUnion":12774,"ĠRoy":12775,"Ġprezentos":12776,"Ġritmo":12777,"Certe":12778,"Gvineo":12779,"ey":12780,"even":12781,"Ġaeron":12782,"ĠMed":12783,"ĠRad":12784,"fere":12785,"Ġnomatan":12786,"ĠÄīuro":12787,"serio":12788,"Ġpreparas":12789,"Ġrondoj":12790,"Ġenspezoj":12791,"ĠAbraham":12792,"wald":12793,"inen":12794,"Ġredon":12795,"âĢĺ":12796,"osaÅŃ":12797,"Ġprelegon":12798,"ĠmaÅĿinoj":12799,"ĠaveraÄĿa":12800,"Ġpekoj":12801,"ĠbolÅĿe":12802,"Ġekspedicio":12803,"alto":12804,"Ġreton":12805,"ĠPhi":12806,"buro":12807,"Ġaktivado":12808,"friko":12809,"Ġeniro":12810,"Ġ1953":12811,"Ġpublikon":12812,"Ġkompromis":12813,"MS":12814,"emis":12815,"ĠGuj":12816,"vere":12817,"danoj":12818,"Ġspecif":12819,"Ġlaste":12820,"ĠFoundation":12821,"Ġmaterialojn":12822,"Ġteorioj":12823,"Ġtrono":12824,"Ġsolid":12825,"aktiva":12826,"Ġrimarkinda":12827,"DL":12828,"Ġpolan":12829,"ĠÄīies":12830,"tube":12831,"Ġsolvoj":12832,"Ġveter":12833,"Ġasis":12834,"Ġ1926":12835,"ĠButano":12836,"Ġvalorojn":12837,"2009":12838,"ĠPanamo":12839,"ĠFuku":12840,"pris":12841,"ĠEmir":12842,"Ġsuperis":12843,"ĠMalsupra":12844,"skultu":12845,"Ġmensogo":12846,"Ġetnaj":12847,"eÄī":12848,"Ġá":12849,"Ġovoj":12850,"ĠVI":12851,"verboj":12852,"meco":12853,"Ġvendejoj":12854,"lingvon":12855,"Ġmilitaj":12856,"Ġatentigas":12857,"Ġbatalon":12858,"Ġriveron":12859,"Ġbrilis":12860,"Ġagadojn":12861,"ÅĻÃŃ":12862,"Ä¥ivo":12863,"ĠinaÅŃguro":12864,"Okaz":12865,"UEA":12866,"ĠÑģ":12867,"elj":12868,"ÅĿtono":12869,"ĠApo":12870,"Ġpend":12871,"Ġorient":12872,"Ġperiodoj":12873,"ĠaÅŃskultas":12874,"ĠOrganizaÄµo":12875,"ĠaÅŃtonom":12876,"Fun":12877,"ropo":12878,"ÅŃten":12879,"kop":12880,"bolo":12881,"Ġhomajn":12882,"ados":12883,"Ġgeome":12884,"strate":12885,"tradukoj":12886,",,":12887,"ÃĦ":12888,"Ġindul":12889,"ranoj":12890,"duo":12891,"laja":12892,"Ġkomprenon":12893,"Ġliberigo":12894,"Ġridetis":12895,"ĠSrilanko":12896,"Î»":12897,"Ġipernity":12898,"ild":12899,"Ġsekundoj":12900,"ĠÅľtu":12901,"certe":12902,"Ġdekomence":12903,"Ġreform":12904,"ĠLando":12905,"ĠÄīefajn":12906,"ĠReda":12907,"ĠmalriÄīeco":12908,"Ġaktualaj":12909,"ĠUSD":12910,"HO":12911,"ĠneÅŃ":12912,"ĠkaÅĿis":12913,"Ġkonscienco":12914,"Ġmorta":12915,"Ġbatis":12916,"Ġmarnivelo":12917,"komputi":12918,"Ġvojojn":12919,"Ġkuras":12920,"ĠAleksander":12921,"ĠomaÄĿe":12922,"Ġukraina":12923,"armeo":12924,"Ġ1913":12925,"Ġpatri":12926,"ĠdatiÄĿas":12927,"Ġbonon":12928,"ĠWind":12929,"Ġatentu":12930,"ĠÅĿtalo":12931,"ĠMontenegro":12932,"Ġfokus":12933,"Ġamase":12934,"Ġintensa":12935,"kvalita":12936,"Ġpolvo":12937,"[âĢ¦]":12938,"Ġenam":12939,"ĠTr":12940,"ĠforÄµe":12941,"Ġkuiri":12942,"irkaux":12943,"Ġpresita":12944,"Ġpatrinon":12945,"Ġgaso":12946,"foja":12947,"ĠJorge":12948,"Ġdistingivoj":12949,"nacia":12950,"Ġtimu":12951,"ĠLub":12952,"Ġpatrujo":12953,"Ġkomercistoj":12954,"Ġprofiti":12955,"Ġkvalifi":12956,"ĠMadagaskaro":12957,"Ami":12958,"gxi":12959,"Ġsinta":12960,"Ġspegulo":12961,"temalo":12962,"Ġislamanoj":12963,"Ġslovakoj":12964,"Is":12965,"Ġitin":12966,"Ġportu":12967,"kontraÅŃ":12968,"ĠFami":12969,"Ġnotoj":12970,"Ġfrap":12971,"Ġ95":12972,"Ġsalon":12973,"Ġdormis":12974,"Ġpreparita":12975,"Ġreaki":12976,"Ġgrandegaj":12977,"Ġintelekt":12978,"Ġcivilizo":12979,"familio":12980,"TU":12981,"Ġenkorp":12982,"ĠNata":12983,"Ġmank":12984,"Ġhavigis":12985,"Ġregularo":12986,"ĠEstus":12987,"Ġekkonis":12988,"'ll":12989,"Kan":12990,"mulo":12991,"Ġpret":12992,"ĠJamaj":12993,"Ġapartajn":12994,"Ġkaptas":12995,"Ġinflui":12996,"Ġkritikis":12997,"tj":12998,"ÏĦ":12999,"Ġlagoj":13000,"Ġreferenco":13001,"paron":13002,"Ġinsu":13003,"Ġspeciojn":13004,"Ġveturo":13005,"ĠGolfo":13006,"ĠĠĠĠĠĠĠĠĠĠĠĠĠĠĠĠĠĠĠĠĠĠĠĠĠĠĠĠĠĠĠĠ":13007,"ĠSekureco":13008,"ĠKazaÄ¥io":13009,"ĠSS":13010,"konkurso":13011,"ĠVizito":13012,"aligo":13013,"Ġrilata":13014,"Ġ700":13015,"ĠMalgranda":13016,"flugis":13017,"Ġordinar":13018,"Ġbalotado":13019,"Ġhip":13020,"ĠavantaÄĿojn":13021,"ĠKongresa":13022,"Ġarestita":13023,"ĠWalter":13024,"Ġteamoj":13025,"Ġsekvon":13026,"prokras":13027,"Ġkontrolis":13028,"birdoj":13029,"Ġasek":13030,"lokon":13031,"ĠFS":13032,"olon":13033,"Ġkonspi":13034,"ĠKomita":13035,"ĠjuÄĿo":13036,"Ġdonac":13037,"Ġinvito":13038,"ĠpaÅĿon":13039,"Ġeventuala":13040,"fara":13041,"Ġkilo":13042,"Ġopozi":13043,"prenu":13044,"ĠEnlanda":13045,"Ġpeton":13046,"Ġgvidata":13047,"Ġprenita":13048,"ĠJuven":13049,"Ġnigran":13050,"ĠdolÄīa":13051,"Ġnervo":13052,"wis":13053,"toma":13054,"ĠStre":13055,"Ġkunpre":13056,"Ġkompen":13057,"noto":13058,"ĠcitaÄµo":13059,"Ġsignifojn":13060,"Ġadresoj":13061,"Ġkalkulas":13062,"Ġmembraro":13063,"ĠvidindaÄµoj":13064,"feld":13065,"od":13066,"sz":13067,"Ġlibre":13068,"terno":13069,"Ġnenie":13070,"ĠMarx":13071,"daÅŃra":13072,"ĠXXX":13073,"ĠperiodaÄµoj":13074,"ĠParagvajo":13075,"Ġhimno":13076,"tigado":13077,"Ġopozicio":13078,"ĠPio":13079,"ĠTam":13080,"Ġanglo":13081,"Ġesploristoj":13082,"ĠIsraelon":13083,"Ġinverse":13084,"tavo":13085,"ĠÄīinoj":13086,"ĠCis":13087,"Ã©e":13088,"Ġoptim":13089,"Ġvidvino":13090,"Ġkapablojn":13091,"INA":13092,"Ġseksumi":13093,"Ġrealeco":13094,"Ġmalvenko":13095,"Ġtrejna":13096,"Kvin":13097,"ĠDas":13098,"ĠÅĿipon":13099,"ĠWas":13100,"ĠPortalo":13101,"Ġhaltigi":13102,"Ġegalaj":13103,"Ġaprobita":13104,"Ġkategoriigi":13105,"AC":13106,"cka":13107,"dema":13108,"Ġhaven":13109,"ĠPapu":13110,"ĠJoMo":13111,"Ġdentojn":13112,"2013":13113,"Ġbaloto":13114,"ĠVatikan":13115,"Ġreprodukta":13116,"Ġtelevida":13117,"Ġprovizora":13118,"Ġprovizore":13119,"Te":13120,"tov":13121,"ĠStar":13122,"ĠlaÅŃdire":13123,"Ġmotivo":13124,"Ġparolante":13125,"Ġkortego":13126,"Ġkomprenos":13127,"Ġcetero":13128,"Ġsignifi":13129,"ĠÅĿtatan":13130,"ĠRobin":13131,"Ġgrandska":13132,"Ġeksplodo":13133,"ĠsovaÄĿa":13134,"Ġviktimo":13135,"Granda":13136,"Ġrubriko":13137,"Her":13138,"bes":13139,"tistojn":13140,"ĠHil":13141,"Ġamason":13142,"ĠBoc":13143,"tinato":13144,"interes":13145,"ĠteatraÄµo":13146,"Ġripeti":13147,"ĠinformiÄĿi":13148,"Ġpromeni":13149,"Ġpalpe":13150,"birdo":13151,"ĠmalÄĿusta":13152,"peranta":13153,"Ġdiino":13154,"treto":13155,"Ġmalapro":13156,"Ġmalavanta":13157,"speci":13158,"ĠFranco":13159,"Ġmasak":13160,"Ġhoron":13161,"Ġeklezi":13162,"dn":13163,"tagoj":13164,"Ġastro":13165,"Ġakces":13166,"Ġfinas":13167,"ĠDank":13168,"ĠtaÅŃgaj":13169,"Ġsomere":13170,"Ġterminon":13171,"fado":13172,"ĠsidiÄĿis":13173,"oling":13174,"Ġordeno":13175,"Ġaldonan":13176,"bat":13177,"ales":13178,"Ġredaktor":13179,"Ġobservas":13180,"Ġcirklo":13181,"breco":13182,"ĠSamuel":13183,"Ġlibero":13184,"ĠCXar":13185,"EÅŃro":13186,"Ġiaj":13187,"ernak":13188,"Ġbici":13189,"Ġlerta":13190,"ĠmesaÄĿoj":13191,"Ġmalhelpis":13192,"×ķ":13193,"Ġ).":13194,"tabulo":13195,"ĠAristo":13196,"ĠseÄĿo":13197,"madon":13198,"Ġtaba":13199,"ktiko":13200,"Ġemeri":13201,"Ġklientojn":13202,"telitaj":13203,"ĠFernando":13204,"ĠJemeno":13205,"\"?":13206,"ÅĿojn":13207,"precipe":13208,"Ġfidel":13209,"Ġbrile":13210,"Ġamplekso":13211,"Ġgramatikaj":13212,"ĠmallarÄĿa":13213,"Ġber":13214,"Ġsime":13215,"vet":13216,"ĠChe":13217,"Ġrapidan":13218,"ĠÃ¸":13219,"Ġmodelon":13220,"Ġredaktis":13221,"Ġesploras":13222,"2006":13223,"Ġbulteno":13224,"Ġornamita":13225,"Ġsinsekvaj":13226,"Ġbabilado":13227,"Ġeseo":13228,"giaj":13229,"cker":13230,"ĠmanÄĿaÄµon":13231,"Ġorientaj":13232,"rigard":13233,"Ġsekretari":13234,"Ġkroni":13235,"Ameriko":13236,"Instituto":13237,"ĠMoldavio":13238,"Klubo":13239,"ĠGÃ¶":13240,"Ġpaten":13241,"Ġnocioj":13242,"Ġpez":13243,"Ġprenos":13244,"ĠfeliÄīon":13245,"Ġapog":13246,"Ġprezidanton":13247,"bero":13248,"cc":13249,"sing":13250,"ril":13251,"Ġakvoj":13252,"Ġfontojn":13253,"Ġfundo":13254,"Ġfilojn":13255,"Ġkonservado":13256,"ĠFondaÄµo":13257,"Ġsabate":13258,"Ġbaston":13259,"ĠTransilvanio":13260,"Ġnukleaj":13261,"kolekto":13262,"Ġgelern":13263,"BO":13264,"Venon":13265,"ĠMy":13266,"Ġprovu":13267,"ĠBeli":13268,"ĠUgando":13269,"Ġnotis":13270,"Ġkroata":13271,"Ġfluti":13272,"Ġimpreso":13273,"ĠokupiÄĿi":13274,"Ġembaras":13275,"ĠFriedrich":13276,"sat":13277,"inkluzive":13278,"ĠAh":13279,"ajna":13280,"Ġdik":13281,"Ġmodo":13282,"Ġioma":13283,"Ġludon":13284,"ĠvoÄīdono":13285,"ĠKruco":13286,"ĀĀĀĀĀĀĀĀĀĀĀĀĀĀĀĀĀĀĀĀĀĀĀĀĀĀĀĀĀĀĀĀ":13287,"ĠBandarQ":13288,"okaz":13289,"Ġbeb":13290,"Ġpolojn":13291,"Ġpreven":13292,"ĠFron":13293,"Ġsenar":13294,"kion":13295,"nica":13296,"Ġatentigi":13297,"kontra":13298,"Ġminus":13299,"Ġrenkonto":13300,"Ġpraktikas":13301,"Ġordonon":13302,"ĠvojaÄĿas":13303,"Ġparlamenta":13304,"ĠSalvadoro":13305,"ĠPlaco":13306,"Ġsuveren":13307,"xa":13308,"Ġfia":13309,"ranko":13310,"lub":13311,"ĠÄĪa":13312,"grada":13313,"Ġvokas":13314,"Ġmortigita":13315,"ĠMalantaÅŃ":13316,"Ġpian":13317,"vortojn":13318,"ĠÐ½":13319,"ĠInternacian":13320,"Ġefikas":13321,"ĠTaÄĿi":13322,"ĠCentr":13323,"Ġ1955":13324,"Ġrekoni":13325,"ĠGronlando":13326,"ĠGvatemalo":13327,"iva":13328,"pdf":13329,"Ġtir":13330,"Ġkampon":13331,"tune":13332,"Ġvalidi":13333,"Ġunuopa":13334,"Ġinstruistino":13335,"ĠBonaero":13336,"Ġpafmortigis":13337,"grun":13338,"enkov":13339,"ĠVikimedia":13340,"Ġkomencon":13341,"Ġmisi":13342,"ĠaranÄĿita":13343,"Ġintense":13344,"Ã¤n":13345,"ĠLink":13346,"Ġesceptoj":13347,"Ġkomunumaro":13348,"Fo":13349,"cina":13350,"fel":13351,"gine":13352,"horo":13353,"ĠKura":13354,"ĠEEU":13355,"igajn":13356,"Ġhave":13357,"Ġkredeble":13358,"Ġfiki":13359,"Ġ1943":13360,"Ġvalida":13361,"Ġarmilojn":13362,"ĠErn":13363,"Ġtrarigar":13364,"Ġburokra":13365,"ĠJamajko":13366,"VE":13367,"haÅŃ":13368,"nuna":13369,"ĠLKK":13370,"ĠAmen":13371,"vistoj":13372,"âĢĿ)":13373,"Ġseriozaj":13374,"frato":13375,"Ġformala":13376,"ight":13377,"Ġfronte":13378,"Script":13379,"kapabla":13380,"Ġvent":13381,"ÄĿadon":13382,"ĠNatura":13383,"Ġdormas":13384,"Ġdosieron":13385,"2008":13386,"ĠESPERANTO":13387,"Ġfekun":13388,"ÛĮ":13389,"ĠMiguel":13390,"ĠAtribu":13391,"Ġpersa":13392,"ĠDenove":13393,"Ġvendejo":13394,"ĠAngolo":13395,"Ġlinion":13396,"Ġplanlingvo":13397,"Ġkapablaj":13398,"ĠMozambi":13399,"ĠMoskva":13400,"Ġetendi":13401,"Ġeksperimento":13402,"ĠKastelo":13403,"ĠFrankfur":13404,"Con":13405,"ipernity":13406,"usence":13407,"deci":13408,"ĠOpen":13409,"Ġtrotu":13410,"Ġlango":13411,"ĠIndekso":13412,"Ġvokalo":13413,"Ġamori":13414,"Ġparoladoj":13415,"Ġenketo":13416,"Ġtendencoj":13417,"ĠTeatro":13418,"ĠKamboÄĿo":13419,"edon":13420,"Ġvivaj":13421,"profes":13422,"eth":13423,"Ġnaz":13424,"Ġmalsame":13425,"ĠGiorgio":13426,"CA":13427,"ËĪ":13428,"vivis":13429,"matiko":13430,"tropi":13431,"ĠCal":13432,"Ġmultege":13433,"ĠSaharo":13434,"ĠRivero":13435,"Ġdetruo":13436,"Ġagnoskita":13437,"Ġgriz":13438,"Ġbordoj":13439,"ĠJacques":13440,"Bal":13441,"zek":13442,"Ġira":13443,"ĠAsi":13444,"Ġtraktis":13445,"ĠMichel":13446,"pura":13447,"Ġcitas":13448,"Ġveturilo":13449,"Ġapogas":13450,"ĠvariaÄµoj":13451,"Ġkonkretaj":13452,"Ġâĸº":13453,"Sem":13454,"Ġego":13455,"Ġretaj":13456,"ĠmalÅĿa":13457,"ĠLau":13458,"Ġparado":13459,"Ġorbi":13460,"Ġkoli":13461,"Ġfidinda":13462,"ĠÅ¬":13463,"Ġdeziroj":13464,"Ġmuzikisto":13465,"Ġredak":13466,"Ġcxirkaux":13467,"Ġdefendis":13468,"ĠTradi":13469,"ĠÄīesigi":13470,"produktado":13471,"Ġnekonataj":13472,"ĠAmiko":13473,"EO":13474,"onaj":13475,"Ġakura":13476,"Ġrealaj":13477,"rankvi":13478,"ĠÄīiuokaze":13479,"Ġcentroj":13480,"Ġkart":13481,"Ġ024":13482,"Ġprofundo":13483,"ĠHelsin":13484,"Da":13485,"bos":13486,"py":13487,"Ġenu":13488,"Ġelfos":13489,"Ġpresi":13490,"ĠarÄ¥":13491,"ĠOto":13492,"âĢĿ).":13493,"Ġtriono":13494,"Ġkantono":13495,"Ġplanojn":13496,"Ġdistingo":13497,"ĠManif":13498,"Afrika":13499,"ðŁĺ¨ðŁĺ¨ðŁĺ¨ðŁĺ¨":13500,"eoj":13501,"ĠBras":13502,"Ġekri":13503,"mpoj":13504,"Ġevoluigi":13505,"Ġefikoj":13506,"Ð¾ÑĢ":13507,"Ġscenoj":13508,"ĠKrimeo":13509,"ĠmalriÄīuloj":13510,"Ġdiskriminacio":13511,"witter":13512,"300":13513,"Ġazen":13514,"Ġaliris":13515,"Ġekshibicio":13516,"Ġaldonante":13517,"Ġpronomo":13518,"ĠVenu":13519,"Ġsalutis":13520,"Ġavangar":13521,"ĠTrini":13522,"%,":13523,"sulo":13524,"Ġoceano":13525,"defen":13526,"ĠkontraÅŃbata":13527,"ĠUnuiÄĿinta":13528,"Ġcivil":13529,"Ġsceno":13530,"ĠmoviÄĿas":13531,"Ġabunde":13532,"TR":13533,"TER":13534,"beno":13535,"signo":13536,"Ġtimig":13537,"Ġkunvo":13538,"Ġkoali":13539,"Ġpentra":13540,"Ġplendis":13541,"Ġdanki":13542,"gitan":13543,"ĠRuslando":13544,"proksime":13545,"Ġposedantoj":13546,"Ġakompanas":13547,"tariko":13548,"Ġatom":13549,"Ġastronomo":13550,"Ġhospitalo":13551,"hausen":13552,"âĢĭ":13553,"Ġekspon":13554,"ĠMarie":13555,"Ġtiamaj":13556,"ĠÄīirkaÅŃe":13557,"Ġeventojn":13558,"Ġimpul":13559,"ĠBahÃ¡":13560,"Ġvokaloj":13561,"ĠÄµazo":13562,"ĠNamibio":13563,"ĠMozambiko":13564,"%.":13565,"Ġadaptita":13566,"Ġligojn":13567,"ĠMÃ¼":13568,"ĠIsa":13569,"erne":13570,"Ġcicoj":13571,"ĠPatr":13572,"vorton":13573,"Ġhejmon":13574,"ÅĿip":13575,"ãģ®":13576,"ĠfianÄī":13577,"ĠSenegalo":13578,"ĠTunizio":13579,"aki":13580,"sche":13581,"uch":13582,"vd":13583,"ĠEL":13584,"emia":13585,"tudo":13586,"ĠIV":13587,"Ġpeno":13588,"ĠfinaÄµo":13589,"treo":13590,"Ġmuzikaj":13591,"Ġonklo":13592,"Ġmallongigo":13593,"Ġmidzi":13594,"eng":13595,"diro":13596,"ĠarÄĿen":13597,"Ġsinjoroj":13598,"Ġsinago":13599,"Ġcico":13600,"Kiom":13601,"farejo":13602,"Ġiamaj":13603,"Ġ1952":13604,"ĠmiksaÄµo":13605,"ĠfraÅŃl":13606,"ĠSinjorino":13607,"tien":13608,"omojn":13609,"Ġkonstern":13610,"laboris":13611,"Ġvestita":13612,"brun":13613,"Ġesprimojn":13614,"ĠkaÅŃzita":13615,"ĠdimanÄīe":13616,"ĠDeklaracio":13617,"hora":13618,"Ġdispar":13619,"gala":13620,"Ġmetalo":13621,"kulturaj":13622,"Ġkulpas":13623,"Ġcenz":13624,"Ġnaciajn":13625,"Ġmistera":13626,"Ġpotencaj":13627,"ĠÐ¡":13628,"ĠPreÄĿejo":13629,"ĠDanke":13630,"Ġkovr":13631,"Ġdonitaj":13632,"ĠRuando":13633,"Ġadoles":13634,"Neniu":13635,"Ġtutaj":13636,"ĠVic":13637,"Ġfidon":13638,"sonaj":13639,"Ġmemoron":13640,"Ġfingro":13641,"Ġsekaj":13642,"ĠNenio":13643,"iÄĿadis":13644,"ĠFe":13645,"ĠHero":13646,"Ġdubo":13647,"Ġnokta":13648,"ruse":13649,"Ġpugoj":13650,"Ġprofesio":13651,"cerne":13652,"Ġprizono":13653,"vec":13654,"pago":13655,"Ġkabin":13656,"toraj":13657,"Ġkrimoj":13658,"Ġasocion":13659,"ĠKolon":13660,"ĠEdukado":13661,"ĠaÄīet":13662,"ĠIstvÃ¡n":13663,"ĠKameruno":13664,"Ġkomi":13665,"Ġteoria":13666,"ĠCy":13667,"Ġargen":13668,"ĠÅĿiajn":13669,"Ġmarki":13670,"ĠSimon":13671,"Ġsilentis":13672,"Ġparoladon":13673,"ĠavantaÄĿo":13674,"Ġekzemplojn":13675,"Ġrompis":13676,"Ġfulmo":13677,"Ġkondamnita":13678,"ĠJuventus":13679,"VV":13680,"ombo":13681,"ĠIma":13682,"Ġinterple":13683,"Ġpretigi":13684,"caya":13685,"Ġscivo":13686,"Ġflugis":13687,"Ġsubtenantoj":13688,"Ġeduk":13689,"ĠKortumo":13690,"Ġampleksas":13691,"ĠMembroj":13692,"ĠMembriÄĿi":13693,"ĠretpoÅĿ":13694,"ĠKostariko":13695,"scienca":13696,"Ġspontan":13697,"Äīilo":13698,"Ġperi":13699,"Ġekfunkci":13700,"ĠaliÄĿo":13701,"Ġfaroj":13702,"ĠKonser":13703,"Ġjuneco":13704,"Ġkonsiderante":13705,"ÅĿipoj":13706,"Ġtagman":13707,"politiko":13708,"Ġerao":13709,"nojn":13710,"mataj":13711,"tritaj":13712,"ĠÂĵ":13713,"Ġparolanto":13714,"Ġkaptita":13715,"Ġ130":13716,"Ġelektos":13717,"ells":13718,"ĠTrinidado":13719,"Dio":13720,"muni":13721,"tacio":13722,"Ġnepra":13723,"vaScript":13724,"ĠriÄīeco":13725,"Ġblogoj":13726,"ĠDaniel":13727,"Ġmerkre":13728,"Ġbabili":13729,"ĠHonduro":13730,"Ġviolon":13731,"Ġgluteoj":13732,"ĠUzbekio":13733,"ĠEmirlandoj":13734,"gg":13735,"eria":13736,"entan":13737,"Ġalkla":13738,"ĠÄīiesulino":13739,"paÅĿ":13740,"nologio":13741,"Ġlegos":13742,"Ġoficiro":13743,"Ġtabl":13744,"Ġkondamni":13745,"Ġemfazas":13746,"Ġjubileo":13747,"Aten":13748,"tch":13749,"Ġiz":13750,"ĠSES":13751,"Ġnovelo":13752,"Ġvenigis":13753,"Ġciklo":13754,"hien":13755,"ĠpiÄīo":13756,"Ġspertaj":13757,"Ġmondmapo":13758,"Ġanoncas":13759,"Ġrevoluci":13760,"Ġfroma":13761,"Ġmalsanulejo":13762,"Ġmed":13763,"Ġfest":13764,"Ġth":13765,"ĠGvi":13766,"Ġtrafas":13767,"Ġraba":13768,"Ġfaktoro":13769,"ect":13770,"Ġdezirus":13771,"ĠÃ¢":13772,"Ġesploristo":13773,"Ġrul":13774,"Ġgarantii":13775,"Ġgluteo":13776,"ĠTestamento":13777,"cxi":13778,"Ġoj":13779,"lataj":13780,"Ġdepost":13781,"ĠKER":13782,"deven":13783,"vendejo":13784,"ĠAlbert":13785,"ĠMak":13786,"ĠFrancaj":13787,"Ġimpost":13788,"valor":13789,"Ġarmeoj":13790,"Ġobjekton":13791,"ĠSovetio":13792,"Ġrespektivaj":13793,"ĠProjekta":13794,"Pala":13795,"iden":13796,"ofici":13797,"dir":13798,"ĠLaoso":13799,"ĠIru":13800,"Ġridin":13801,"beria":13802,"Ġkokri":13803,"Ġkomenti":13804,"Ġformulo":13805,"Ġ1890":13806,"Ġsinsekvo":13807,"Ġfantazi":13808,"kiewicz":13809,"ĠteÄ¥ni":13810,"IF":13811,"ĠCho":13812,"Ġmetal":13813,"Ġsuperrigar":13814,"ĠloÄĿloko":13815,"Ġspecifita":13816,"tigata":13817,"ĠKastilio":13818,"Ġkolonio":13819,"urboj":13820,"ĠSanta":13821,"ĠÄīielon":13822,"Ġpiano":13823,"ĠToba":13824,"Ġokulvi":13825,"Ġteritoriojn":13826,"Ġherooj":13827,"ĠJakobo":13828,"Ġdekor":13829,"ÄĿajn":13830,"ĠAkvo":13831,"Ġunuoj":13832,"male":13833,"Ġkoloron":13834,"Ġmonaton":13835,"Ġredakt":13836,"Ġhonore":13837,"Ġerojn":13838,"ãĥ¼":13839,"ĠÄīeÄ¥aj":13840,"Ġinsektoj":13841,"Ġkonvenas":13842,"Ġsuden":13843,"tradi":13844,"ĠpaÅĿis":13845,"ĠOber":13846,"pante":13847,"Ġerotismo":13848,"Ġelstaras":13849,"Ġshang":13850,"Ġvizitantojn":13851,"Ġkapitula":13852,"ining":13853,"revolu":13854,"Ġvoje":13855,"ĠÄīeno":13856,"esio":13857,"Ġina":13858,"distrikto":13859,"Ġmembri":13860,"Ġsakra":13861,"ĠPortala":13862,"Ġaserti":13863,"Ġvaloraj":13864,"ĠStefano":13865,"Ġkavalir":13866,"ĠmatÄīo":13867,"indan":13868,"Ġelpe":13869,"Ġeklernis":13870,"Ġlos":13871,"Ġsalo":13872,"Ġregistara":13873,"Ġinstruadon":13874,"ĠDuon":13875,"Ġliteraturaj":13876,"ĠOrdeno":13877,"Ġpacientoj":13878,"Ġtrajnoj":13879,"Ġentuziasmo":13880,"Ġjuris":13881,"Ġprogno":13882,"ĠOficiala":13883,"likan":13884,"ĠsufiÄīan":13885,"Ġhoneste":13886,"akcep":13887,"ĠRapi":13888,"Ġepokoj":13889,"Ġmuzeon":13890,"Teks":13891,"Ġetajn":13892,"tiÄĿu":13893,"datigita":13894,"ÄĿataj":13895,"Ġgefiloj":13896,"Ġkonsideru":13897,"ĠKole":13898,"Ġkalum":13899,"ĠTopic":13900,"Ġromanon":13901,"Ġspirit":13902,"Ġpanjo":13903,"Ġmalsukcesis":13904,"ĠMajstro":13905,"ĠKirgi":13906,"Sankta":13907,"ĠInversigu":13908,"foni":13909,"Ġnoto":13910,"ĠViktor":13911,"ĠOkciden":13912,"Ġforgesas":13913,"Ã¡ndez":13914,"Ġtabernak":13915,"Ġmalrapida":13916,"ĠSciencoj":13917,"ĠMeksika":13918,"Ġlingvisto":13919,"Ġmidzo":13920,"Ġadvokato":13921,"neto":13922,"litan":13923,"ĠMir":13924,"ĠPovas":13925,"foli":13926,"ĠpiÄīoj":13927,"ĠnudaÄµo":13928,"ĠÃĦ":13929,"Ġrespektas":13930,"Ġfestis":13931,"ĠOkazis":13932,"ĠItalujo":13933,"SO":13934,"ghi":13935,"wska":13936,"teton":13937,"Ġdie":13938,"Ġnoti":13939,"ĠOk":13940,"centon":13941,"Ġmarkita":13942,"Ġeksterlando":13943,"Ġutilajn":13944,"ĠsesdeknaÅŃi":13945,"Ġripozo":13946,"Ġenkar":13947,"Ġkiajn":13948,"ĠreÄĿon":13949,"Ġgek":13950,"dantojn":13951,"Ġlangumi":13952,"Ġbat":13953,"ĠMalio":13954,"ĠProdu":13955,"Ġevitas":13956,"Ġhonesta":13957,"Ġcirku":13958,"Ġimagas":13959,"Ġkalkulis":13960,"Ġplimulton":13961,"Ġmamego":13962,"Ġmamegoj":13963,".âĢĶ":13964,"jen":13965,"Ġbebo":13966,"deta":13967,"Äµaro":13968,"ĠFara":13969,"paca":13970,"ĠTian":13971,"Ġtrem":13972,"plene":13973,"Ġvariaj":13974,"ĠSebas":13975,"ianoj":13976,"Ġale":13977,"rigo":13978,"peras":13979,"ĠPren":13980,"ĠDub":13981,"ĠIvo":13982,"bordo":13983,"Ġdevigita":13984,"ĠArto":13985,"Ġscience":13986,"Ġbatalas":13987,"ĠVersio":13988,"ĠYork":13989,"ĠLong":13990,"Ġliveri":13991,"________":13992,"Vir":13993,"feto":13994,"tta":13995,"likaj":13996,"ĠÄīin":13997,"konata":13998,"Ġmankon":13999,"Ġpolic":14000,"Ġfilmeto":14001,"ĠdaÅŃros":14002,"Ġkroman":14003,"Ġ85":14004,"Ġkonsilio":14005,"Ð°Ð½":14006,"Ġmalpermesas":14007,"Ġagrablan":14008,"Ġsum":14009,"tica":14010,"pov":14011,"ĠFis":14012,"ĠGDR":14013,"Ġsankti":14014,"Ġeldonoj":14015,"ĠLeono":14016,"Ġataki":14017,"ĠLondon":14018,"Ġlingvistoj":14019,"ĠJesuon":14020,"ast":14021,"rue":14022,"ĠfariÄĿu":14023,"Ġnobla":14024,"Ġnorm":14025,"Ġunikan":14026,"Ġbutonon":14027,"scienco":14028,"Ġmidzumo":14029,"Ġafabla":14030,"Ġkuirejo":14031,"KI":14032,"Kre":14033,"Ġneri":14034,"ludoj":14035,"ĠhavaÄµo":14036,"Ġkata":14037,"Ġarticle":14038,"parton":14039,"Ġvolu":14040,"etz":14041,"orie":14042,"Ġeksterlanda":14043,"Ġnubo":14044,"Ġraportojn":14045,"ĠserÄīante":14046,"ĠFoiro":14047,"ĠKuvaj":14048,"ĠJung":14049,"Ġokazonta":14050,"ĠdevenaÄµon":14051,"Ġneologis":14052,"lovskij":14053,"tti":14054,"Ġ^":14055,"Ġrezi":14056,"Ġpenas":14057,"brajn":14058,"Ġkardina":14059,"Ġ1935":14060,"Ġkarakterizas":14061,"Ġekstrem":14062,"Ġplezur":14063,"ĠHomaj":14064,"Ġnepo":14065,"percaya":14066,"Ġgeno":14067,"uss":14068,"ĠGand":14069,"Ġkadu":14070,"Ġmaterio":14071,"rastruk":14072,"Ġrenask":14073,"Ġkroma":14074,"ĠaÅŃskultu":14075,"ĠSerge":14076,"Ġrimedon":14077,"esoto":14078,"ĠPolitiko":14079,"ĠPacifiko":14080,"tiÄĿos":14081,"dego":14082,"ĠÅĿpru":14083,"gantan":14084,"Ġvenen":14085,"Ġkodojn":14086,"burgio":14087,"ĠSupera":14088,"Ġminacas":14089,"Tag":14090,"wan":14091,"ĠApen":14092,"Ġsemoj":14093,"pec":14094,"ĠaÅŃdiÄĿis":14095,"ĠVila":14096,"Ġraci":14097,"ĠAlmenaÅŃ":14098,"cks":14099,"ÄĿisto":14100,"Ġteroris":14101,"Ġpartoprenanto":14102,"Ġbezonataj":14103,"Ġbov":14104,"ĠvoÄīdoni":14105,"Ġtrinkis":14106,"ĠLenin":14107,"blon":14108,"ĠKE":14109,"forta":14110,"Ġdetala":14111,"titudo":14112,"ĠSauda":14113,"ĠLuis":14114,"intus":14115,"Ġ;)":14116,"Ġreprezentis":14117,"Ã¤r":14118,"ĠKultur":14119,"Ġmiraklo":14120,"Sinjoro":14121,"pton":14122,"Ġeste":14123,"ĠKub":14124,"ĠFind":14125,"Äīef":14126,"ĠMario":14127,"Ġfraton":14128,"Ġsciencan":14129,"ĠbuÄĿe":14130,"Ġkunlabore":14131,"Ġvastaj":14132,"ĠSudameriko":14133,"index":14134,"Ġsendependecon":14135,"ãĢĤ":14136,"ĠFalk":14137,"Ġkonce":14138,"ĠÄĿerman":14139,"mantaj":14140,"Ġbonvena":14141,"ĠAna":14142,"Ġatingita":14143,"Ġbank":14144,"Ġknabon":14145,"Ġmetodojn":14146,"radik":14147,"ĠVojaÄĿo":14148,"Ġfilozofiaj":14149,"ĠGujano":14150,"Ġzonoj":14151,"Ġac":14152,"Ġmalplej":14153,"Ġpertur":14154,"Ġforbru":14155,"Tie":14156,"Ġutiligas":14157,"fonto":14158,"ĠNaturo":14159,"ĠFakoj":14160,"ĠburÄĿa":14161,"Ġreklamo":14162,"ĠFrakcioj":14163,"Ġbruna":14164,"Ġgratulas":14165,"Kri":14166,"Speci":14167,"Ġ..":14168,"Ġsumon":14169,"Ġpensu":14170,"ĠUniversita":14171,"bando":14172,"interfaco":14173,"ĠvoÄīdonis":14174,"Ġintelekta":14175,"ĠFeliÄīe":14176,"Ġkami":14177,"iner":14178,"Ġai":14179,"Ġaus":14180,"Ġenten":14181,"Ġnevidebla":14182,"Ġkapa":14183,"Ġokazu":14184,"Ġindign":14185,"Ġ978":14186,"ĠÄµurnaloj":14187,"Ġlernolibroj":14188,"ĠSemajno":14189,"ĠGubernio":14190,"VojaÄĿo":14191,"ukso":14192,"ĠsaÅŃ":14193,"lir":14194,"cigo":14195,"esanco":14196,"Ġmitologio":14197,"ĠAzor":14198,"Ġsubskribo":14199,"ĠestiÄĿas":14200,"Ġbritoj":14201,"INO":14202,"Ekzemple":14203,"Ġposedo":14204,"Ġteorie":14205,"Ġkombino":14206,"ĠPapuo":14207,"Ġestanta":14208,"Ġens":14209,"Ġneesperan":14210,"ĠDoro":14211,"Ġaliigas":14212,"cadon":14213,"Ġtiea":14214,"ĠÅ»":14215,"ĠMaksi":14216,"neÅŃtra":14217,"ĠÄĿojis":14218,"Ġkvadrataj":14219,"è¡ĢèĺĩæľĪè¡ĢèĺĩæľĪè¡ĢèĺĩæľĪè¡ĢèĺĩæľĪ":14220,"Ġguberniestro":14221,"mel":14222,"Ġq":14223,"Äµenkov":14224,"ĠÅĿaÅŃ":14225,"ĠNATO":14226,"gaÄµo":14227,"Ġversoj":14228,"ĠKiuj":14229,"Ġdispono":14230,"ceno":14231,"cenco":14232,"Ġdonante":14233,"ĠEÅŃropaj":14234,"Ġerare":14235,"Ġaprobo":14236,"Ġaktivulo":14237,"ĠfraÅŃlino":14238,"Ġnegoco":14239,"ĠZambio":14240,"Ġgitaro":14241,"rho":14242,"lema":14243,"ĠLF":14244,"Ġkonton":14245,"ĠBala":14246,"illa":14247,"Ġlokajn":14248,"Ġsuperi":14249,"Ġvarmarko":14250,"Ġprava":14251,"Ġreagoj":14252,"Ġrealigis":14253,"Ġgrekaj":14254,"ĠPiron":14255,"Ġkonversaci":14256,"Ġblazono":14257,"Ġalkoholo":14258,"ĠÅľanhajo":14259,"ac":14260,"ciita":14261,"tuko":14262,"Ġ72":14263,"Ġkonsidero":14264,"Ġ1500":14265,"Ġvidpunktoj":14266,"Ġimpostoj":14267,"reo":14268,"Ġ1915":14269,"Ġpavi":14270,"Ġposttagme":14271,"tribution":14272,"Ġcertigas":14273,"Ġerara":14274,"Ġestraron":14275,"Ġdifinis":14276,"ĠAmerican":14277,"ĠKristnasko":14278,"landajn":14279,"Ġrabo":14280,"ksido":14281,"ĠKonstru":14282,"Ġcilin":14283,"Ġfone":14284,"ĠAlt":14285,"Ġmultekosta":14286,"Ġkurb":14287,"ĠÄĪefe":14288,
[...]
